#version: 0.2
e s</w>
t i
e n
a n
o n
p o
i n
t h
o n</w>
e r
d e</w>
r e
po s
a ti
& a
th e</w>
&a pos
q u
a r
&apos ;</w>
r o
i s
i t
l e</w>
o u
o r
en t</w>
t r
e m
o f</w>
e r</w>
o m
e t</w>
e s
a l
l a</w>
i c
ati on</w>
an d</w>
e d</w>
a t
l es</w>
a i
u r
a l</w>
d es</w>
a c
c on
p ro
e c
e l
t o</w>
s u
on s</w>
s i
t s</w>
e n</w>
l &apos;</w>
u n
l i
i n</w>
a u
@ -
@- @</w>
ti on</w>
in g</w>
d i
r é
c e</w>
r e</w>
p l
o r</w>
i s</w>
d &apos;</w>
c om
i l
qu e</w>
r i
a p
a s
o t
c h
c i
em ent</w>
a b
d u</w>
a t</w>
a g
a m
u r</w>
a s</w>
a v
e x
a d
en t
p ar
o l
d é
t er
an t</w>
a n</w>
s t
po r
f f
o p
an s</w>
re s
m e</w>
0 0
v i
ati ons</w>
f or
m ent</w>
l e
qu ot
t e</w>
quot ;</w>
& quot;</w>
u l
a r</w>
u s
d e
a u</w>
v er
tr e</w>
2 00
f or</w>
T h
au x</w>
u n</w>
i m
é s</w>
en ts</w>
p er
un e</w>
a in
e t
g r
v e</w>
é t
po ur</w>
ou r
d u
d ans</w>
on t</w>
es t</w>
on n
th at</w>
s e
i t</w>
p r
s e</w>
it é</w>
l o
r es</w>
c es</w>
su r</w>
ti n
é r
l y</w>
ti ons</w>
si on</w>
Th e</w>
m o
g i
n o
f i
en d
for m
ati on
ou s</w>
s er
com m
n i
t e
m in
C om
it y</w>
em b
p ar</w>
p ré
ur e</w>
n e</w>
p e
c l
w h
an ce</w>
en ce</w>
é e</w>
i r</w>
qu i</w>
at e</w>
u s</w>
i g
p u
v el
C an
it h</w>
b e</w>
er s</w>
c o
it s</w>
s o
u m
o u</w>
b y</w>
in ter
d is
ai t</w>
t u
w ith</w>
n ation
re c
ou n
é es</w>
ti c
ai re</w>
i l</w>
ur s</w>
m is
ar e</w>
b u
t en
C on
tr i
s h
o b
1 9
o c
qu es</w>
I n
a le</w>
ac c
m es</w>
ab le</w>
ag e</w>
e l</w>
s p
v en
ro u
v ic
is t
por t</w>
por t
du c
b e
m a
d s</w>
ad a</w>
v is
an g
Can ada</w>
ti es</w>
a y
p ri
ou r</w>
f in
e u
é g
tin g</w>
es s
vel op
s tr
c er
é n
t es</w>
l is
m an
e ff
l d</w>
th e
ar i
qu &apos;</w>
m e
g an
è re</w>
an ts</w>
L e</w>
th er</w>
er e</w>
n e
é ri
a di
&apos ;
ic ation</w>
t ed</w>
r ap
en ti
or d
v o
s ti
ai res</w>
el le</w>
com p
nation al</w>
al l</w>
pu b
t er</w>
ver n
as s
é c
ur es</w>
ro m</w>
ac ti
at ed</w>
pl us</w>
c h</w>
u e</w>
em ents</w>
p re
m ar
d er
ci p
w or
ét é</w>
f rom</w>
re l
gr am
ou t</w>
it e</w>
t h</w>
b i
t at
s ont</w>
P ro
t ec
. .
r a
so ci
p on
s ec
v e
ou ld</w>
é l
m on
form ation</w>
v es</w>
d o
ic i
no t</w>
es s</w>
p as</w>
&apos; s</w>
per s
19 9
ec ti
s i</w>
R e
i on</w>
L es</w>
an s
ar y</w>
t é</w>
v al
d ing</w>
& #
s t</w>
par ti
av e</w>
av e
pro c
ser vic
it és</w>
p res
pl o
or gan
cl u
w as</w>
è s</w>
s es</w>
th is</w>
qu i
m i
s y
il l</w>
in t
e p
su l
g h
ic h</w>
pré s
i v
mis sion</w>
f r
d er</w>
an n
tr es</w>
pub li
f ac
wh ich</w>
al es</w>
ave c</w>
a k
L a</w>
h ave</w>
C h
c ri
t o
sti tu
&# 9
a y</w>
g o
e ur</w>
pro gram
d ro
w ill</w>
in e</w>
w e
ai s</w>
p e</w>
comm un
pos i
as e</w>
av ai
ar d</w>
s &apos;</w>
u c
v er</w>
si b
ê tre</w>
tr ans
ay s</w>
ai n</w>
en c
d em
su b
or i
a f
ic e</w>
s o</w>
on e</w>
P ar
ati ve</w>
o ff
en s</w>
an d
i r
re r</w>
h as</w>
or e</w>
a d</w>
ol u
U n
il l
s ou
e urs</w>
e ar
re g
g u
et te</w>
su p
Com m
r en
is s
ec t</w>
an c
i d
f on
g e</w>
sy st
con t
con om
in formation</w>
ap pro
p h
t ure</w>
qu es
prés ent
vi r
on al</w>
en tre</w>
ol l
el les</w>
s s
con cer
u ti
the ir</w>
or s</w>
Com mission</w>
si d
pro j
m ents</w>
in d
l ement</w>
tri bu
U ni
i z
pers onn
ol o
el s</w>
è me</w>
im port
al l
servic es</w>
h e
A c
m emb
par t
tr a
c re
I n</w>
pe u
en er
it ed</w>
n &apos;</w>
f o
in v
conom i
res pon
di ff
r u
ac e</w>
0 0</w>
N ations</w>
g én
ec i
o ther</w>
is e</w>
f er
S ec
al ly</w>
l u
j u
em plo
our s</w>
in g
is ation</w>
l ic
is tr
re d</w>
le ur</w>
d es
en s
tat s</w>
L &apos;</w>
h i
in clu
em ent
c oun
l a
ap pl
u ro
m ent
s on</w>
in s</w>
tic le</w>
ai ent</w>
es ti
ven tion</w>
E uro
de velop
pro vi
u ation</w>
di rec
c an
au tres</w>
au t
ab il
m il
gén ér
a ff
g n
t ou
pro duc
si ons</w>
p ays</w>
al so</w>
n on</w>
r is
po li
r it
con s
en ces</w>
n ot
c u
ig n
ci al</w>
be en</w>
dé c
ch e</w>
velop p
ch ang
m et
our ces</w>
f s</w>
D e
1 0</w>
d ed</w>
par tic
es t
res s
ex am
tr avai
tec h
en g
è res</w>
s it
i e</w>
A r
I l</w>
f u
con tr
re t
wor k</w>
o d</w>
em p
in t</w>
c ap
m é
c or
inter national</w>
le v
w ere</w>
te ur</w>
parti cip
dé velopp
e w</w>
d onn
m p
ap p
c ette</w>
f ication</w>
ou vern
g rou
al ement</w>
h um
le urs</w>
E n
olu tion</w>
publi c</w>
k ing</w>
i re</w>
an de</w>
ur r
S t
d oc
Can adi
un i
acti v
com pl
A l
c ul
u m</w>
en vir
ic al</w>
t y</w>
concer n
es e</w>
e ts</w>
c ar
eu x</w>
in cip
lo c
m at
d ec
ob j
en ne</w>
f ic
con tin
th o
n om
w i
ig h
n ous</w>
a m</w>
s el
con si
s ur
organ is
an ti
it te
m es
al s</w>
S u
op er
ai l
t ain
ar g
f a
uti lis
n ou
e v
m ore</w>
D i
Un ited</w>
t ak
ex p
ati ves</w>
lo w
us t</w>
k s</w>
sh ould</w>
emb er</w>
i ti
u x</w>
com me</w>
ri gh
In ter
al th</w>
se il</w>
développ ement</w>
de v
om e</w>
b l
S tat
pr incip
E n</w>
an ces</w>
an y</w>
ener al</w>
t ro
ab lis
ag es</w>
ré gi
h e</w>
f ait</w>
emplo y
200 5</w>
us e</w>
ati n
in di
e d
itte e</w>
ag rap
c oll
1 ;</w>
&#9 1;</w>
il s</w>
A n
on g</w>
200 6</w>
.. ..
con n
pro tec
a re
poli ti
C oun
m ati
ti onn
atin g</w>
T I
sib le</w>
3 ;</w>
&#9 3;</w>
en tr
ad op
or y</w>
por ts</w>
v ent</w>
re ment</w>
w ould</w>
es sion</w>
h o
A ss
posi tion</w>
el l
b o
d ur
w w
sp eci
min istr
str uc
s a</w>
g ouvern
g h</w>
pro du
res p
200 4</w>
ab les</w>
M in
bu t</w>
ac tion</w>
d at
program me</w>
ac h
ter min
Con seil</w>
d om
t ant</w>
con tribu
ver s
pro v
qu al
en n
s an
par t</w>
su ch</w>
un der</w>
m ain
p é
dro its</w>
e m</w>
par agrap
Comm ittee</w>
d g
É tats</w>
p end
ac t</w>
al is
ser v
c an</w>
ar ticle</w>
su iv
vern ment</w>
is su
ul ation</w>
ent re
re qui
t ;</w>
li g
O N
pro pos
i ons</w>
fin an
au s
b et
e g
E x
tri es</w>
w e</w>
ag ement</w>
ab or
re comm
200 7</w>
è g
sid ent</w>
is ion</w>
b re</w>
h ad</w>
m s</w>
an te</w>
travai l</w>
Q u
A d
eu ro
1 2
sh i
str at
Stat es</w>
Th is</w>
wi th
rap port</w>
ch er
con c
inter nation
v ous</w>
O r
ci l</w>
e u</w>
200 3</w>
as t</w>
ain si</w>
peu t</w>
A N
ti ve</w>
k e</w>
ti me</w>
Coun cil</w>
s c
st at
G o
N o
m ê
an t
tr y</w>
ne w</w>
S er
n um
as ed</w>
ma y</w>
f aire</w>
th er
t ur
in stitu
im pl
ve au</w>
ac h</w>
develop ment</w>
I t</w>
op ér
tech n
pr is
fi r
A m
in iti
C o
c ré
li m
ain e</w>
é conomi
po l
el l</w>
i b
I N
ec ts</w>
olo gi
A g
200 2</w>
vo ir</w>
av o
t ous</w>
u v
éc ur
f un
ec tion</w>
1 2</w>
Canadi an</w>
p en
ég alement</w>
y ou</w>
o w
at t
P re
u es</w>
1 5</w>
s ession</w>
t ari
the y</w>
i a</w>
sp é
vis ion</w>
f l
protec tion</w>
con di
obj ecti
our n
ch o
e w
200 1</w>
te urs</w>
g es
G eneral</w>
t out</w>
s écur
con sul
si gn
ation al</w>
Con vention</w>
ad ministr
a si
su s</w>
E S</w>
R é
le g
enc y</w>
th ese</w>
fon c
b er</w>
per i
san té</w>
c ad
é d
el y</w>
E N
mis e</w>
um ents</w>
en f
end re</w>
f ol
am e</w>
00 0</w>
f ér
ent e</w>
mil li
U N
euro pé
200 0</w>
dé r
n o</w>
sécur ité</w>
m ais</w>
Euro pe
1 1</w>
u ment</w>
1 .
en d</w>
po p
in form
é li
T r
Ass emb
p ai
R es
re e</w>
can adi
Com ité</w>
appl ication</w>
vi ew</w>
3 0</w>
él é
servic e</w>
memb res</w>
d ate</w>
Europe an</w>
mê me</w>
de ux</w>
program mes</w>
i es</w>
p s</w>
we en</w>
c our
or d</w>
re port</w>
h om
olo g
eff or
g t;</w>
& gt;</w>
i c</w>
t w
coun tries</w>
c as</w>
al y
é v
O ff
th rou
bet ween</w>
activ ités</w>
a w
ti onal</w>
j us
re at
t or</w>
é val
pl ace</w>
th an</w>
d ic
ver y</w>
u li
se ign
1 3</w>
im p
l ég
con tre</w>
is l
e ar</w>
Ser vic
ind us
A u
emb re</w>
2 0</w>
re gi
B u
in to</w>
sib il
G rou
pro f
m en
sup port</w>
pres ent
i li
dro it</w>
po int</w>
g ni
ar ds</w>
comm er
pl ac
j o
f em
ques tion</w>
ré s
ord in
in es</w>
s ous</w>
M ar
avo ir</w>
b er
ét u
organ iz
inclu ding</w>
ur ity</w>
ai r
partic uli
d ont</w>
re m
c ours</w>
proj et</w>
ar m
cad re</w>
in cre
cer tain
d el
wh o</w>
id enti
com pr
f am
aus si</w>
ic ations</w>
re cher
duc ation</w>
h el
re présent
2 .
e y</w>
mes ures</w>
O N</w>
tic al</w>
e z</w>
M .</w>
ex c
ecti ve</w>
g ro
an tes</w>
ma de</w>
ear ch</w>
ment al</w>
ques tions</w>
f e
n at
mar ch
2 0
ic ul
pre mi
ord er</w>
n éc
do it</w>
m ust</w>
cap ac
néc ess
personn es</w>
é gi
c ou
n or
p er</w>
righ ts</w>
t t
F or
conomi c</w>
B o
Uni es</w>
for c
200 8</w>
ec ted</w>
pri v
1 0
pris es</w>
ch il
dev r
m ul
in ce</w>
ot e</w>
am ment</w>
H e
cri min
Uni on</w>
ter s</w>
ges tion</w>
Or gan
w ell</w>
a ur
Di rec
spé ci
t ation</w>
ing s</w>
on ly</w>
a is
import ant</w>
shi p</w>
er c
in st
M on
at es</w>
sit uation</w>
ou t
t y
con stitu
v ari
res s</w>
p ur
throu gh</w>
sh all</w>
m is</w>
th ere</w>
est ablis
met tre</w>
au th
v ement</w>
C O
t at</w>
un der
p es</w>
parti e</w>
f t</w>
ten tion</w>
t ot
b re
re sul
D ans</w>
s ite</w>
au se</w>
pro bl
he alth</w>
for e</w>
pl an</w>
ô le</w>
abil ity</w>
om en</w>
fol low
ement ation</w>
fo is</w>
r èg
y ear</w>
u p</w>
vi ol
tho se</w>
pos sible</w>
em s</w>
at s</w>
tr ic
P l
i f</w>
posi tions</w>
e ting</w>
mati ère</w>
es p
ac tu
soci al</w>
E R
di t</w>
af in</w>
an aly
r ati
O n</w>
publi que</w>
19 8
c ro
génér al</w>
vi ties</w>
en e
ec h
onn ement</w>
condi tions</w>
ra is
1 4</w>
syst em</w>
ist ance</w>
pl u
3 .
s é
5 0</w>
d re
bu dg
donn ées</w>
so it</w>
et y</w>
b r
partic ul
par ties</w>
b le</w>
Euro pe</w>
L o
fi c</w>
mo y
es si
d ay</w>
ati s
as es</w>
cl ar
app li
or ig
W or
bi en</w>
r ès</w>
b il
fi ed</w>
us ed</w>
è mes</w>
nom bre</w>
in f
ét ait</w>
fer ence</w>
pe op
p i
mo ins</w>
Inter national</w>
effor ts</w>
ar s</w>
I C
A R
ent es</w>
ab out</w>
M o
ain es</w>
al ité</w>
v ue</w>
at eurs</w>
ap rès</w>
b ec
aut or
c i</w>
gr am</w>
s ans</w>
M an
t ain</w>
ten ir</w>
ear s</w>
comp te</w>
j ur
f ul
l in
syst ème</w>
1 8</w>
Pro gram
contin u
O n
ré sul
num ber</w>
g l
i que</w>
tw o</w>
no v
ver s</w>
gh t</w>
chang e</w>
c us
acti vities</w>
off ici
mp ;</w>
&a mp;</w>
F r
mar k
concern ant</w>
rec e
conn a
as su
recher che</w>
au tre</w>
on g
ob lig
y ears</w>
P our</w>
ci d
g ar
pré c
p ass
consi der
produ its</w>
ain ing</w>
Ac t</w>
il le</w>
st u
or s
with in</w>
D ec
mo di
o ver</w>
au t</w>
k no
hum an</w>
1 6</w>
o ire</w>
fem mes</w>
me as
Min ist
fér ence</w>
g e
I I</w>
ti ce</w>
dem ande</w>
finan ci
pe ti
ag re
o ù</w>
wh ere</w>
E l
Go vernment</w>
ar ge</w>
respon s
sec tion</w>
provi de</w>
on es</w>
ress ources</w>
tr av
politi que</w>
s ome</w>
lo w</w>
j our</w>
as soci
cri p
enf ants</w>
2 5</w>
mo st</w>
l ang
appro pri
or ity</w>
p éri
iv ent</w>
nou vel
d on
fin anc
u b
oc cu
duc tion</w>
oper ation</w>
t emp
t or
abil ité</w>
doc ument</w>
vi du
D é
resp ect</w>
lo b
ad di
h is</w>
Ar ticle</w>
ré pon
199 9</w>
ex t</w>
produc tion</w>
R E
li eu</w>
. c
4 .
gr ap
ter rit
diff ér
t a
it ation</w>
fir st</w>
it es</w>
d ra
A p
re qu
po ur
peu vent</w>
it er</w>
am éli
establis h
dre n</w>
f é
ww w
al i
pop ulation</w>
ét ab
ex erc
peop le</w>
é ment</w>
es o
m er</w>
ac i
tou tes</w>
- -
com e</w>
S o
y our</w>
po lic
not amment</w>
gouvern ement</w>
for m</w>
ma j
P ré
politi ques</w>
ec tu
re au</w>
l l
Comm un
t és</w>
Re g
1 7</w>
Off ice</w>
is h
po urr
int é
c urr
con form
envir on
c ent</w>
exam in
I S
indi vidu
É tat</w>
Sec ret
D E</w>
A C
W e</w>
s ci
ul ations</w>
el i
ni veau</w>
1 9</w>
tr uc
c li
i le</w>
R o
us es</w>
.... ....
strat égi
génér ale</w>
der ni
S p
institu tions</w>
ot h</w>
3 1</w>
d o</w>
do ivent</w>
c c
ai l</w>
es sus</w>
N ous</w>
ex emp
P o
d r
ap pe
proc ess</w>
é qu
us in
el lement</w>
wh en</w>
oun t</w>
v ol
an is
b un
inv esti
w omen</w>
ain st</w>
St ate</w>
ain s</w>
b eso
p ay
seign ements</w>
c at
l ée</w>
lev el</w>
b ase</w>
polic y</w>
él ec
man agement</w>
at er</w>
m u
ai r</w>
pr ise</w>
ati f</w>
p le</w>
é qui
ap pu
acc ord
ex per
d y</w>
I s
ind ic
gr ation</w>
ac tions</w>
péri o
personn el</w>
er a</w>
ar r
H o
Program me</w>
b ased</w>
avai l
internation ale</w>
re st
G u
www .
v ed</w>
man i
eff ic
proc essus</w>
follow ing</w>
r .</w>
ent ly</w>
ne ed</w>
œ uv
2 1</w>
s en
it al</w>
be ing</w>
é ch
t rou
d am
W h
ac t
w n</w>
mo d
si ve</w>
F in
A f
E C
a que</w>
De velop
l and</w>
h ol
abor ation</w>
pos e</w>
ch es</w>
se con
paragrap he</w>
P er
u i</w>
o l</w>
w ay</w>
i ème</w>
éval uation</w>
e conomic</w>
tak e</w>
la w</w>
com b
He alth</w>
t ob
prov in
c lo
dis cus
emb le</w>
ten u</w>
min ist
the m</w>
mon di
min is
provi ded</w>
n u
ad d
ag r
opér ation</w>
qu er</w>
oun d</w>
man y</w>
ti en</w>
f ur
ac k</w>
ass istance</w>
fac il
coun try</w>
ag ainst</w>
h y
hom me</w>
dem an
issu es</w>
end ed</w>
ti que</w>
temp s</w>
c ould</w>
dé clar
at eur</w>
su ff
we ver</w>
F e
pro vis
av ant</w>
d ou
2 4</w>
doc uments</w>
si gni
po in
av ait</w>
n er
s om
pu is</w>
1 8
économi que</w>
f ourn
iss ance</w>
fr ic
A s</w>
l ong</w>
d oll
particip ation</w>
righ t</w>
Sec ré
R ec
ex e</w>
europé enne</w>
F or</w>
ex is
ens ure</w>
a z
ep t
pro m
vi e</w>
. g
pr ati
ig h</w>
ch arg
indus tri
5 .
tech ni
ti s
meas ures</w>
o rer</w>
m un
ci vi
ann u
con clu
s al
A TI
res olution</w>
proc éd
m et</w>
T R
ai de</w>
rés olution</w>
chil dren</w>
.c a</w>
i de</w>
occu p
impl ementation</w>
dé termin
ob serv
go vernment</w>
On tari
b oth</w>
b an
pr ès</w>
ex plo
ablis s
e ach</w>
techn ologi
su cc
Ontari o</w>
dur ing</w>
ex t
is ions</w>
diff er
N or
fu l</w>
ren seignements</w>
b asi
Lo i</w>
ene f
for me</w>
o g
œuv re</w>
exam en</w>
enn es</w>
n et</w>
enc our
ne e
dat a</w>
olog y</w>
tot al</w>
h ar
s s</w>
O R
M ember</w>
ve aux</w>
our ce</w>
1 ,
su ite</w>
dé f
ser a</w>
par ten
ar ly</w>
usin ess</w>
ig n</w>
er g
N ational</w>
po u
avail able</w>
ann ée</w>
résul tats</w>
t ail
Develop ment</w>
x im
prof essi
2 2</w>
re lev
m or
dé fin
S e
y ing</w>
re present
iz ation</w>
s ol
ci r
tou te</w>
c ol
p a
consul t
me di
au c
go vern
finan cial</w>
ori ties</w>
ess enti
j ect</w>
al isation</w>
C ol
lo i</w>
c al
af ter</w>
sub st
e f</w>
C I
fa ç
.. .</w>
D is
6 0</w>
pro mo
j ou
el ec
c e
mé di
ma ke</w>
import ance</w>
res earch</w>
P r
ari at</w>
c et</w>
ai d</w>
sel on</w>
tur al</w>
ve ill
doll ars</w>
C entre</w>
v ing</w>
i ent</w>
j e</w>
tr ès</w>
it ted</w>
rel ated</w>
sec teur</w>
peri od</w>
pl e
Assemb ly</w>
c ase</w>
tra it
memb ers</w>
cl ai
éri eur</w>
an i
pr endre</w>
l s</w>
2 3</w>
g lob
me eting</w>
bun al</w>
s or
as si
sec urity</w>
wor k
bu il
au g
n er</w>
part ment</w>
s et</w>
0 1</w>
g s</w>
budg et</w>
R ap
4 0</w>
ren forc
C E
un d</w>
in str
déc ision</w>
are as</w>
is sion</w>
o p</w>
res ources</w>
l ine</w>
P ub
dec ision</w>
c le
re ven
D e</w>
t ures</w>
C or
organis ations</w>
sup pl
Assemb lée</w>
v en</w>
re li
isl ation</w>
su m
dis crimin
in fr
co ordin
f in</w>
con f
acc ès</w>
R O
g en
tak en</w>
W e
fé dér
b enef
lu i</w>
ex pres
M e
t aire</w>
. 1</w>
n ing</w>
Servic e</w>
inv ol
paragrap h</w>
il y</w>
ic h
d ge</w>
T ri
appl ic
j ours</w>
st and
U n</w>
commun i
M r.</w>
cont ro
A T
commun ity</w>
recomm and
am ent</w>
h ab
199 8</w>
étab li
1 3
be c</w>
C e</w>
am e
t l
ur al</w>
co opération</w>
mes ure</w>
i res</w>
f our
acc ess</w>
particul ar</w>
ex ig
contin ue</w>
j et</w>
pério de</w>
s ed</w>
ét abliss
tr on
mul ti
n ec
ter n
vo tre</w>
grou pe</w>
e qu
no tre</w>
ti tre</w>
not e</w>
e au</w>
mil it
C ette</w>
I T
2 6</w>
En vir
crip tion</w>
ter ro
fonc tionn
si eurs</w>
faç on</w>
t ors</w>
re as
ten ti
con struc
a i</w>
A b
c el
12 4
orig in
U ne</w>
m al
proj ets</w>
s m
envir onnement</w>
entre prises</w>
dis tribu
di es</w>
mis sions</w>
an ds</w>
f av
A D
se e</w>
Servic es</w>
i tion</w>
J o
2 8</w>
fur ther</w>
se p
ch aque</w>
ti ques</w>
l ors
c in
per met
der al</w>
vo y
pro g
t ement</w>
s ame</w>
o ver
re co
de termin
utilis ation</w>
N ew</w>
as p
qual ity</w>
tro is</w>
cer tain</w>
Grou pe</w>
tr aining</w>
f il
Bu reau</w>
vel y</w>
fi er</w>
organiz ations</w>
nec ess
signi fic
Pré sident</w>
ac k
Pre sident</w>
ch i
olu tions</w>
oc c
Organ isation</w>
f e</w>
assu rer</w>
on c
ê t</w>
A s
re ments</w>
aug ment
2 7</w>
2 9</w>
particuli er</w>
b ro
A I
Grou p</w>
qu elle</w>
ô t</w>
administr ation</w>
h ic
ati fs</w>
al im
ent ation</w>
o m</w>
dis positions</w>
ac hi
j e
B r
I m
pend ant</w>
pub lic
In stitu
S C
P ol
1 7
S y
emplo i</w>
th ree</w>
1 00</w>
ac ts</w>
are a</w>
ass ess
igh t</w>
ty pe</w>
pr acti
én é
ens emble</w>
regi onal</w>
124 ;</w>
&# 124;</w>
o k</w>
h ist
ori es</w>
proj ect</w>
trans port</w>
compr is</w>
leg al</w>
co û
Secret ary</w>
1 6
ex éc
commun ication</w>
0 .
grap hi
1 5
dom aine</w>
comp ét
ow n</w>
initi atives</w>
qu é</w>
requi red</w>
ti c</w>
recomm end
ann ées</w>
be fore</w>
ég ard</w>
int ér
organis mes</w>
loc al</w>
personn e</w>
H um
C our
h igh
Bo ard</w>
0 ,
wh at</w>
proc ed
can di
av ant
s atis
devr ait</w>
Tr ans
C es</w>
fac e</w>
h er
nation ale</w>
L e
er i
ro le</w>
commun aut
inform ations</w>
qual ité</w>
th ou
ag er</w>
milli on</w>
op port
to co
o ds</w>
ex ist
eff ective</w>
objecti fs</w>
po tenti
in te
am p
ré gl
r a</w>
for ce</w>
li c</w>
is h</w>
1 4
é tr
ther e
d ence</w>
t on</w>
relev ant</w>
enc ore</w>
un ion</w>
per form
acti ve</w>
t aux</w>
f y</w>
exemp le</w>
t u</w>
is er</w>
certain s</w>
h tt
l ess</w>
af f</w>
en ci
è rement</w>
ar ri
i ques</w>
ex te</w>
S I
vi ew
c entr
A fric
htt p</w>
du e</w>
S i</w>
pro gram</w>
A L
soci été</w>
march é</w>
inclu de</w>
fi g
ét aient</w>
o f
s em
sit u
ex pl
S tr
issu e</w>
J e</w>
c .ca</w>
vers ity</w>
pos sibil
ju d
reg ul
pen ses</w>
effic ac
at ory</w>
ti v
hab it
F o
z ed</w>
fic ations</w>
s af
t en</w>
T o</w>
plu sieurs</w>
e ducation</w>
tr adi
so li
ass ur
co s
au v
ti mes</w>
étr ang
re view</w>
co operation</w>
imp act</w>
z e</w>
i d</w>
T er
P ri
D es</w>
ep tion</w>
r ôle</w>
Minist er</w>
pers on</w>
h igh</w>
end ant</w>
éri e
ord re</w>
ou th</w>
t ab
G r
I f</w>
e gi
grou pes</w>
ou ver
milli ons</w>
A u</w>
mark et</w>
ent al</w>
ven ir</w>
ph y
speci fic</w>
Tri bunal</w>
terro ris
th en</w>
le t
int ro
ê te</w>
w ater</w>
s k
ic es</w>
s ex
enn ent</w>
b usiness</w>
de pend
v re</w>
re ad
u e
dé b
pres ent</w>
le ad
Secré taire</w>
at ure</w>
au té</w>
prés ent</w>
fonc tion</w>
199 7</w>
sub m
po n</w>
ar t</w>
por ting</w>
no s</w>
li ke</w>
eff ectu
wor king</w>
an ding</w>
wh e
discrimin ation</w>
pro b
n ég
pri or
ay ant</w>
de fin
necess ary</w>
igh ts</w>
nou veau</w>
ré alis
c eux</w>
at te
w le
ho w</w>
Sec urity</w>
régi on</w>
pai x</w>
am end
Sp eci
m an</w>
si s</w>
6 .
vis ant</w>
O c
as se</w>
b éné
conform ément</w>
ver tu</w>
no w</w>
st ain
P ar</w>
trav aux</w>
l ong
esti m
ten ant</w>
t ent</w>
lo g
f ici
qu ement</w>
régi on
basi s</w>
e th
ame work</w>
mani ère</w>
E m
t able</w>
u tion</w>
Re public</w>
te l</w>
nom bre
contr ôle</w>
al ity</w>
Un is</w>
port ed</w>
c rit
wor ld</w>
appropri ate</w>
k ey</w>
ac qu
commer ci
ré e</w>
poin ts</w>
rel atives</w>
aff aires</w>
Hum an</w>
tr an
grou p</w>
bec ause</w>
con ven
plo y
con duc
with out</w>
E M
In formation</w>
don c</w>
M r</w>
av ons</w>
je un
ti on
viol ence</w>
eff et</w>
ad v
concer ne</w>
19 7
l arge</w>
Con ference</w>
eff ecti
ré s</w>
as k
pl ans</w>
o le</w>
lu t
in c
De partment</w>
per man
tic s</w>
h al
tic les</w>
Ré publique</w>
el d</w>
g eneral</w>
ess es</w>
con se
ur g
financ ement</w>
se ul
eng ag
R ights</w>
p age</w>
onn e</w>
dra ft</w>
d i</w>
qu el
four ni
inst all
requi rements</w>
E U</w>
ac y</w>
l ors</w>
li gn
No v
U R
A P
ser ont</w>
pr is</w>
Par li
promo tion</w>
Dec ember</w>
hum an
er ic
as truc
ili ties</w>
f er</w>
nat ure</w>
Par ties</w>
particip ants</w>
as s</w>
règ lement</w>
pro t
fu ture</w>
es tin
b les</w>
présent e</w>
T ra
iv ed</w>
A ff
c &apos;</w>
î tre</w>
Ag ency</w>
nouvel les</w>
B an
do es</w>
L i
f oc
ou s
ri er</w>
sec tor</w>
c y
qu el</w>
jus tice</w>
nee ds</w>
O u
c r
V I
200 9</w>
Th ere</w>
tra de</w>
au to
chang es</w>
Pub lic</w>
consi dér
su g
0 2</w>
x ième</w>
in s
U E</w>
am ong</w>
de puis</w>
déc embre</w>
t a</w>
por te</w>
pré v
c are</w>
Ho wever</w>
beso ins</w>
As soci
at tention</w>
Th ese</w>
resul ts</w>
éval u
h er</w>
establish ed</w>
so ient</w>
ch t
premi ère</w>
al og
poli tical</w>
g ener
no m</w>
N o</w>
st aff</w>
gouvern ement
hel d</w>
rap ports</w>
si de</w>
av is</w>
produc ts</w>
end a</w>
i di
diff icul
.g c.ca</w>
grou ps</w>
u le</w>
is t</w>
re ç
cer ti
C E</w>
sci enti
199 6</w>
cor por
Com p
val uation</w>
Am eric
la quelle</w>
Com mis
reg ard</w>
cons équ
sel f</w>
2 ,
mé tho
d ation</w>
Envir on
A S
t élé
mon de</w>
in ation</w>
incre ase</w>
t reat
ti t
ep t</w>
pri m
des tin
kno wle
ter m</w>
im prov
pol ici
dé lég
ta x
ex clu
pro pri
l at
J une</w>
pers ons</w>
é lev
acc ord</w>
differ ent</w>
wh ile</w>
ad ap
A L</w>
develop ing</w>
gro w
str eng
gr ande</w>
organ isation</w>
g é
0 5</w>
P e
us si
e qui
min im
canadi enne</w>
ist es</w>
c ent
rais on</w>
ê ts</w>
v éri
El le</w>
d re</w>
ar b
ab r
ré du
or ation</w>
c op
O M
con fi
adop ted</w>
r adi
at ely</w>
0 4</w>
0 3</w>
fi x
ser ve</w>
com par
n es</w>
coordin ation</w>
o s</w>
lang u
t re
p .</w>
s ince</w>
alog ue</w>
E C</w>
c ases</w>
li fe</w>
fon ds</w>
iss ent</w>
I P
ag ne</w>
di ver
construc tion</w>
T H
en qu
ré c
probl èmes</w>
whe ther</w>
g ation</w>
a de</w>
air s</w>
ju in</w>
C l
syst ems</w>
pon ib
ju st
mo is</w>
professi onn
at ors</w>
initi ative</w>
ti m
om s</w>
me ans</w>
por teur</w>
employ e
provis ions</w>
syst èmes</w>
origin al</w>
m om
accord ance</w>
li b
ang e</w>
gi e</w>
premi er</w>
d ent</w>
ab o
améli orer</w>
ris k</w>
qu a
in a</w>
B i
ol s</w>
n am
an im
v ou
gi ven</w>
ex peri
k e
We b</w>
is ant</w>
il le
seul ement</w>
Ch ar
h a
is c
t ly</w>
canadi en</w>
iss ant</w>
rel ations</w>
oblig ations</w>
employ ment</w>
m ed</w>
jur idi
D es
curr ent</w>
enci es</w>
In di
en h
f aut</w>
nou veaux</w>
ist an</w>
contribu tion</w>
exper ts</w>
st e
pro per
re fl
Am end
Inter net</w>
dis ponib
ain ed</w>
su jet</w>
commer ce</w>
mon it
C R
exerc ice</w>
ou tre</w>
in nov
capac ity</w>
ur ing</w>
proj ects</w>
s avoir</w>
aff ir
hel p</w>
T ou
dé mo
m y</w>
ech n
é ment
E R</w>
é ducation</w>
0 6</w>
ch em
des ign
en reg
dé e</w>
po w
par ation</w>
or ing</w>
o w</w>
Pro gram</w>
dé penses</w>
o ires</w>
secon d</w>
car act
g re
ter me</w>
G ouvern
pol ice</w>
le vel
jud ici
l l</w>
adop tion</w>
minis tre</w>
ét at</w>
ul y</w>
consider ed</w>
m ain</w>
ful l</w>
propos ed</w>
com pos
sur veill
comp li
te fois</w>
A t</w>
F ir
re ques
us ing</w>
re ign</w>
C N
Pl an</w>
er ed</w>
part y</w>
cons om
étu de</w>
aw a</w>
n et
sub ject</w>
Cour t</w>
contro l</w>
E S
mat eri
mi gr
ri que</w>
h av
Parli ament</w>
qual i
tari at</w>
or ds</w>
coll ecti
inv est
speci al</w>
compl e
in cid
l arg
b ur
b ru
i i</w>
moy en</w>
resul t</w>
eg y</w>
Ac c
appu i</w>
trait ement</w>
infr astruc
M al
d ers</w>
in sp
val eur</w>
exam ple</w>
environ mental</w>
s aid</w>
Mar ch</w>
ATI ON</w>
man u
ch ez</w>
cor respon
c ause</w>
strat egi
ir d</w>
m enti
Commun ity</w>
nouvel le</w>
glob al</w>
v al</w>
Res earch</w>
o se</w>
ab s
es ts</w>
J an
en ing</w>
al estin
pourr ait</w>
ti ves</w>
pri x</w>
ord onn
r ent</w>
iz ed</w>
port er</w>
fav or
maj or</w>
gr an
b our
lig ne</w>
qu ent</w>
polici es</w>
D &apos;</w>
I V</w>
contribu tions</w>
fun c
mar s</w>
étu des</w>
cht ones</w>
mar y</w>
j à</w>
u les</w>
se ver
Gouvern ement</w>
it er
élé ments</w>
V i
Pro toco
exp éri
5 5</w>
am ount</w>
agr icul
form ul
level s</w>
ma xim
obj et</w>
ch ar
Min is
ri r</w>
Su b
th s</w>
se in</w>
Co de</w>
c le</w>
ex tr
addi tion</w>
L a
mon tant</w>
w ard</w>
commun ications</w>
dé jà</w>
ou v
3 5</w>
thou gh</w>
C .
g a
certain es</w>
con st
S ept
e ve</w>
h en
europé en</w>
fi que</w>
rel ative</w>
de b
r ate</w>
7 .
m éc
end er</w>
Associ ation</w>
nor m
vers ité</w>
ch arge</w>
Par lement</w>
inter ven
199 5</w>
R èg
human it
C .</w>
ar ticles</w>
re ports</w>
ni e</w>
M ay</w>
ch e
op in
M me</w>
reco gni
d at</w>
end s</w>
vari ous</w>
activ ité</w>
memb er</w>
instr uments</w>
provi des</w>
gr ès</w>
asp ects</w>
fe deral</w>
technologi es</w>
jo int</w>
m ation</w>
u t</w>
Fir st</w>
Minist ère</w>
o ci
qu ant</w>
st anding</w>
s ure</w>
coll aboration</w>
fr on
c en
l ab
Man agement</w>
appro ach</w>
w s</w>
acc ount</w>
at or</w>
produ it</w>
, 000</w>
è ne</w>
c elle</w>
C H
Qu é
internation ales</w>
b al
en se</w>
cos ts</w>
re fer
A M
Wor ld</w>
o y
O tt
conc entr
ob tenir</w>
ré se
u it</w>
ill et</w>
Sept ember</w>
t al
4 5</w>
R C</w>
ain t</w>
C ar
nécess aire</w>
Re port</w>
mom ent</w>
i x</w>
s cho
ma king</w>
a x
agre ement</w>
develop ed</w>
w ays</w>
D oc
re f
s ources</w>
techni ques</w>
candi dat
sou tien</w>
o th
vi ent</w>
Str at
g o</w>
si x</w>
Ott awa</w>
mat éri
program s</w>
gu es</w>
sep t
L E</w>
sit es</w>
cul tu
l es
opér ations</w>
eff ici
add ress</w>
sibil ity</w>
b el
jeun es</w>
environ ment</w>
Sec tion</w>
su stain
nor mes</w>
No .</w>
prati ques</w>
cul ture</w>
reg ar
t em
bi li
u p
ter n</w>
sept embre</w>
analy se</w>
fr amework</w>
ful ly</w>
C &apos;</w>
n ess</w>
Qué bec</w>
A N</w>
dé pend
ex pos
es se</w>
J us
qu o
A C</w>
étu di
qu ar
économi ques</w>
fam ili
. m
ver sion</w>
ét ant</w>
devr aient</w>
fin s</w>
c all
indus try</w>
ch er</w>
Con férence</w>
ou vel
nécess aires</w>
cel ui</w>
tran si
capac ité</w>
O b
z one</w>
ne x</w>
ev en</w>
R ussi
dis tin
ri l</w>
ic i</w>
B ri
C C
entre prise</w>
c entre</w>
F on
S O
tin gs</w>
er ing</w>
aff ec
c .</w>
ti ent</w>
buil ding</w>
achi ev
In d
il les</w>
p én
app el
car ri
K o
so ins</w>
p re</w>
pe u</w>
li ber
ch am
rece ived</w>
c ar</w>
8 0</w>
U S</w>
p at
9 0</w>
mé dic
com peti
s pe
ir s</w>
t an
port ant</w>
b ri
Su p
knowle dge</w>
perform ance</w>
di d</w>
inf lu
au près</w>
Fr ance</w>
si on
inte gr
direc t</w>
ann exe</w>
uni ties</w>
hal f</w>
investi ss
comm it
ch all
go od</w>
S T
regi on</w>
read y</w>
Oc tob
ter ms</w>
e k</w>
gar anti
ser ait</w>
Ag re
EN T</w>
D ate</w>
Di vision</w>
cor rec
-- --
n ers</w>
J uly</w>
pl ann
acc ep
établiss ement</w>
ris que</w>
recommand ations</w>
assess ment</w>
inter est</w>
M emb
prog ress</w>
donn é</w>
éri que</w>
abo ve</w>
olog ical</w>
op h
avai ent</w>
comm on</w>
en seign
6 3</w>
Pre mi
h é
j an
s .</w>
En g
........ ........
moy ens</w>
A pri
mondi ale</w>
vi dence</w>
f re
do m</w>
vi er</w>
Apri l</w>
ic s</w>
consult ations</w>
there fore</w>
E T</w>
ti fication</w>
E conomic</w>
an ci
cou p</w>
jus qu&apos;</w>
Speci al</w>
fi ques</w>
gu eur</w>
is te</w>
gu id
dur able</w>
fi eld</w>
ti f</w>
fun ding</w>
So cial</w>
resp ec
dé p
auth orities</w>
cré ation</w>
co st</w>
é co
beso in</w>
ré union</w>
c elles</w>
techn ical</w>
3 3</w>
béné fici
tit ul
Octob er</w>
struc ture</w>
o eu
d ated</w>
it able</w>
v é
c it
E L
déc isions</w>
del eg
r y</w>
r end
al low
lut te</w>
us tr
pur su
chil d</w>
dom aines</w>
o graphi
méc anis
sex u
or t</w>
procéd ure</w>
h au
techni que</w>
direc tion</w>
ti fs</w>
vel op</w>
sm all</w>
cap ital</w>
eff ets</w>
è le</w>
pro ve</w>
Nov ember</w>
ma i</w>
ju illet</w>
industri e</w>
l t;</w>
& lt;</w>
individu al</w>
explo itation</w>
p li
av ril</w>
leg islation</w>
g reat
Re gi
Ad ministr
nég oci
m i</w>
signific ant</w>
ré es</w>
fac t</w>
intér êt</w>
pu t</w>
incre ased</w>
con fir
s et
he ures</w>
Ad d
stand ards</w>
oc tob
S el
ic k</w>
addi tional</w>
li v
Ind us
particul arly</w>
lors que</w>
pre u
acc oun
ch ap
octob re</w>
conf lic
envir onn
distribu tion</w>
s olution</w>
n i</w>
recommend ations</w>
t ée</w>
er ia</w>
val ue</w>
v ul
di alogue</w>
su per
soci ale</w>
gr and</w>
A si
él aboration</w>
priv ate</w>
Is ra
j our
Sy st
lis te</w>
plac ement</w>
cri b
objecti f</w>
.m .</w>
f ound</w>
p les</w>
serv ation</w>
bi a</w>
d ang
si mil
for ces</w>
o x
de u
5 7</w>
ati sti
Th ey</w>
aut om
Con t
nat u
suiv i</w>
nov embre</w>
l ais</w>
sou ha
u ary</w>
po uv
dem and
ec tions</w>
is se</w>
di re</w>
occ a
fourni r</w>
Jan uary</w>
Al ber
ta x</w>
p ati
c o</w>
port ation</w>
appe l</w>
c rati
199 4</w>
O F</w>
8 .
S C</w>
per tin
0 7</w>
Ch il
renforc er</w>
re conna
p ment</w>
dé pos
m ech
qu els</w>
stu dy</w>
surveill ance</w>
travai l
inclu ded</w>
im pos
3 2</w>
nation ales</w>
communi ties</w>
consul tation</w>
h and
s si
O ther</w>
fr an
Al l</w>
fo od</w>
déclar ation</w>
be au
f our</w>
P O
travai ll
G re
U R</w>
qu anti
trans fer
al ors</w>
7 0</w>
be g
v ote</w>
l ed</w>
D S</w>
6 1</w>
ot el</w>
B e
ri g
et ed</w>
l ar
autor ités</w>
pou voir</w>
er e
alestin i
tak ing</w>
An n
démo crati
b on</w>
5 8</w>
jan vier</w>
li ght</w>
r on
an ni
R el
3 ,
al ités</w>
loc ation</w>
régi ons</w>
ag enda</w>
in come</w>
acc es
ér o</w>
s w
tec tion</w>
ce la</w>
re té</w>
res tric
Go vern
mi gration</w>
avant age</w>
ar mes</w>
form es</w>
â ce</w>
s ource</w>
b eli
in ten
ag ed</w>
commun auté</w>
a red</w>
at tribu
go ods</w>
m ari
é ro
5 6</w>
C ON
ju g
Af rique</w>
minist ère</w>
uti ve</w>
ac ro
w el
w ards</w>
exis ting</w>
2 4
fr ais</w>
min u
ty pes</w>
k ed</w>
- -</w>
T or
coû ts</w>
t i</w>
mi eux</w>
f ai
fin al</w>
cl assi
t els</w>
par l
environn ement
n av
it re</w>
O p
ten ue</w>
M a
0 8</w>
cro issance</w>
ret ur
5 9</w>
Règ lement</w>
ai der</w>
ru les</w>
V o
del i
gr ad
reli gi
fam ily</w>
ré g
ici p
qu elles</w>
M ission</w>
ak e</w>
nation aux</w>
représent ants</w>
re le
h ô
grow th</w>
il li
p ens
th ird</w>
op e</w>
pres sion</w>
le ar
è te</w>
organiz ation</w>
ris ques</w>
concern ed</w>
esp è
ou se</w>
er ship</w>
cont act</w>
pre st
de velop</w>
1 er</w>
per mis</w>
mal adi
g y</w>
C our</w>
prot ég
co ver
as se
at oire</w>
employ és</w>
suppl ément
C ro
ind re</w>
er al</w>
Organ ization</w>
sti ll</w>
L .
B el
ti l</w>
go ti
facil it
Agre ement</w>
u pon</w>
Wor king</w>
ner ship</w>
auto chtones</w>
pro grès</w>
ais on</w>
l ast</w>
T ur
ent aires</w>
qua tre</w>
spé cial</w>
ep endant</w>
cli ents</w>
h ui</w>
saf ety</w>
requ est</w>
deu xième</w>
c am
proper ty</w>
S .</w>
j ourn
pr en
subm itted</w>
si mp
ru p
tou jours</w>
élec tron
treat ment</w>
p p
P .
Aff airs</w>
én er
sib les</w>
Uni versity</w>
auc une</w>
T echn
r an
concern ing</w>
p an
re main
N ord</w>
is me</w>
p ap
m ag
l ing</w>
bet ter</w>
ou voir</w>
bi e</w>
cat ég
trans par
in é
de l</w>
i ve</w>
ac e
3 4</w>
in tention</w>
potenti al</w>
y er</w>
t ées</w>
au di
cul tural</w>
inté ress
tr ad
ét és</w>
T able</w>
ve z</w>
z ation</w>
jour d&apos;</w>
pro position</w>
f au
soci ety</w>
dis pos
. or
it em</w>
b est</w>
duc ed</w>
pré occup
f ree</w>
T S</w>
N e
j ust</w>
0 9</w>
sever al</w>
n al</w>
techn ology</w>
e aux</w>
val u
mo der
tr ait</w>
f isc
p auv
P h
direc tive</w>
stratégi e</w>
acc ept
gr é</w>
im prove</w>
lis t</w>
ab lement</w>
stitu tion</w>
f ont</w>
Afric a</w>
L ib
respons abilité</w>
éli min
mis es</w>
C er
P R
oper ations</w>
7 5</w>
tu de</w>
ail leurs</w>
ell ectu
deman des</w>
go ing</w>
opin ion</w>
S an
th em
U S
ti ers</w>
mech anis
ag encies</w>
prov ince</w>
établi r</w>
dom esti
le au</w>
pro ch
ther n</w>
st oc
vi gueur</w>
ati onn
cin q</w>
provin cial</w>
e tings</w>
res t</w>
3 6</w>
d enti
man dat</w>
av er
respon sible</w>
Canadi ans</w>
doc um
ener gy</w>
A G
ag it</w>
procéd ures</w>
en ting</w>
ven ant</w>
pl ani
m er
benef its</w>
objecti ves</w>
princip es</w>
pre vi
V er
H e</w>
d ents</w>
not ed</w>
Par ti
ten us</w>
Qu e
Pol ic
civi l</w>
fi ve</w>
D em
proced ures</w>
ap par
N um
ent aire</w>
cen tres</w>
el ines</w>
gouvern ements</w>
suff is
ati c</w>
I M
le ast</w>
parti r</w>
collecti v
p ê
m it</w>
add ress
mu ch</w>
suiv re</w>
al ready</w>
prom ote</w>
probl ems</w>
view s</w>
infrastruc ture</w>
ter ed</w>
3 7</w>
ér ation</w>
n ed</w>
sy n
è ve</w>
reven u</w>
2 9
istr y</w>
is sions</w>
oeu vre</w>
pop ulations</w>
cit oy
pe ace</w>
emb l
fig ur
shi ps</w>
Reg ulations</w>
A ir</w>
langu age</w>
arr ang
on d
memb re</w>
P RO
su sp
fi é</w>
c as
détermin er</w>
beau coup</w>
H er
ur b
re v
tr im
discus sion</w>
règ les</w>
probl ème</w>
différ ents</w>
Ac tion</w>
nombre ux</w>
ser ver</w>
vic e</w>
S i
pos te</w>
P C
T reat
érie ure</w>
wor ks</w>
Ab original</w>
ho wever</w>
int érieur</w>
t arg
d ays</w>
Ro y
st ate</w>
d en</w>
cal cul
ot al</w>
consider ation</w>
ge ther</w>
rec ru
er re</w>
fon dam
form s</w>
efficac ité</w>
Alber ta</w>
cons ist
CO M
off ice</w>
applic able</w>
dis position</w>
per mettre</w>
provi ding</w>
me et</w>
è ge</w>
cu st
û t</w>
Polic y</w>
ne goti
administr ative</w>
ter mes</w>
h ere</w>
I II</w>
pré vention</w>
So ci
E P
G er
prom ouvoir</w>
uc le
5 1</w>
an other</w>
practi ces</w>
pro por
res se</w>
m ic
4 1</w>
com es</w>
Jo h
activ ity</w>
pub l
cultu rel
A .</w>
m a</w>
un ity</w>
G en
respon se</w>
S al
uni ons</w>
é ti
3 9</w>
iss ement</w>
A n</w>
ti z
6 2</w>
c um
In v
donn er</w>
in e
stat us</w>
Rap port</w>
analy sis</w>
d ru
capac ités</w>
bi ens</w>
.or g</w>
sou vent</w>
cour se</w>
i ther</w>
Direc tor</w>
P or
iv er</w>
h t
invol ved</w>
5 4</w>
it r
sec teurs</w>
a th
fam ille</w>
it ure</w>
chang ements</w>
de part
al iné
enf ant</w>
princip al</w>
oblig ation</w>
t our
eff ect</w>
T otal</w>
commer cial</w>
TH E</w>
D P</w>
propos al</w>
li min
exéc ution</w>
is es</w>
n ext</w>
appl y</w>
on to</w>
s ing</w>
exig ences</w>
har mon
W ith</w>
Commis sion
utilis er</w>
internation aux</w>
march és</w>
D I
6 7</w>
i er</w>
distin c
cl é
lis h</w>
c aus
as k</w>
4 8</w>
ex es</w>
régi me</w>
économi e</w>
du ce</w>
me etings</w>
S ci
Canadi ens</w>
ré férence</w>
ni ti
h on
ter r
publ ication</w>
end ing</w>
ill s</w>
A v
appro che</w>
provin ces</w>
C T
an dis
cont ext</w>
conc urr
S om
ég alité</w>
cle ar</w>
consi dé
eng agement</w>
monit oring</w>
A S</w>
pur pose</w>
auc un</w>
parten aires</w>
I niti
ci tiz
dé tail
199 0</w>
particuli èrement</w>
perman ent</w>
b onne</w>
suiv ants</w>
exis te</w>
sustain able</w>
incre as
envir on</w>
ON U</w>
examin er</w>
ur y</w>
4 4</w>
I R
ec utive</w>
govern mental</w>
Con tr
en ni
av en
per met</w>
experi ence</w>
L A</w>
de tail
ous ly</w>
dec isions</w>
int ég
ex ten
Col om
a k</w>
6 5</w>
li t</w>
acc ro
to gether</w>
proc e
t el
sid ence</w>
regar ding</w>
éner gie</w>
dev ant</w>
secon d
rédu ire</w>
subst anti
e vidence</w>
se urs</w>
Fon ds</w>
La w</w>
o t</w>
E N</w>
off re</w>
Fe bru
pro vision</w>
as te</w>
Pro c
s olutions</w>
Febru ary</w>
délég ation</w>
manu fac
annu al</w>
uni que</w>
iss ances</w>
Tra de</w>
equi pment</w>
3 8</w>
ol d</w>
5 2</w>
mun icip
gr av
rel ati
en vis
respon sibility</w>
produc t</w>
pos es</w>
assur ance</w>
abs ence</w>
an ies</w>
strat egy</w>
év rier</w>
fo reign</w>
I ra
rel ation</w>
ac te</w>
ent er</w>
su it</w>
N ew
ra ft</w>
t exte</w>
b ack</w>
lég islation</w>
con du
lors qu&apos;</w>
v a</w>
depend ent</w>
ucle ar</w>
wi de</w>
u sion</w>
cl ass
I r
9 .
F und</w>
S um
au jourd&apos;</w>
Ag ence</w>
représent ant</w>
comp ag
Au g
occa sion</w>
Rap porteur</w>
a x</w>
z ones</w>
sé ance</w>
ni veaux</w>
condi tion</w>
crib ed</w>
me tho
expéri ence</w>
é di
territ ori
rel ating</w>
F ren
re porting</w>
effic ace</w>
A U
d its</w>
v ille</w>
invest ment</w>
preu ve</w>
5 00</w>
ar ch
plu part</w>
hav ing</w>
nu clé
Secret ariat</w>
vis e</w>
S h
mondi al</w>
derni er</w>
enqu ête</w>
a ï
continu ed</w>
is m</w>
es sions</w>
lég isl
bec ome</w>
2 8
domesti c</w>
lis h
re ported</w>
ari an</w>
p il
ar ti
4 9</w>
per sp
jus ti
do ssi
j &apos;</w>
e conom
agre ed</w>
TI ON</w>
subst ances</w>
vé hic
E D</w>
ér ic
ph ase</w>
an a</w>
S T</w>
e valuation</w>
Environ ment</w>
t est</w>
f évrier</w>
r ange</w>
gr âce</w>
do wn</w>
auth ority</w>
employe es</w>
ot es</w>
an e</w>
In c</w>
4 2</w>
great er</w>
l i</w>
AN D</w>
ê tes</w>
public s</w>
li k
natu rel
Em ploy
esp eci
exp ected</w>
tis h</w>
em erg
m en</w>
t end
5 3</w>
199 3</w>
mon ths</w>
ser i
financi ère</w>
fédér al</w>
acc ue
Fren ch</w>
t é
consi der</w>
m on</w>
ag ents</w>
20 10</w>
Tor onto</w>
territ oire</w>
dé sign
especi ally</w>
augment ation</w>
L I
reg is
ré duction</w>
comm ission</w>
plann ing</w>
5 ,
sh e</w>
él ection</w>
e very</w>
can not</w>
Com me</w>
ON S</w>
ve hic
conflic t</w>
in d</w>
gi ve</w>
di x</w>
sou lign
adop té</w>
ad or</w>
cour t</w>
identi fied</w>
ag ent</w>
d a</w>
cri me</w>
ven ess</w>
G e
C ap
préc éd
San té</w>
l it
d ical</w>
ve y</w>
ave ur</w>
on ce</w>
princip e</w>
eff ects</w>
in struc
pers onal</w>
vo ie</w>
rec ours</w>
autor is
appl ications</w>
prati que</w>
tain ed</w>
fi le</w>
actu ellement</w>
fun ds</w>
r ac
ent u
to wards</w>
dé es</w>
milit ary</w>
c lim
ac ting</w>
su sc
form er</w>
lic ence</w>
minim um</w>
propri été</w>
st atisti
I ls</w>
9 5</w>
A tl
rec ent</w>
chall eng
dic tion</w>
ag ing</w>
dé s
represent atives</w>
ear ly</w>
4 3</w>
tl ed</w>
posi tive</w>
l anc
Bri tish</w>
sug ges
gro und</w>
199 2</w>
S outh</w>
dé t
se u
P D
d avantage</w>
observ ations</w>
f aveur</w>
r ates</w>
f ail
pl ain
sp ec
ab ly</w>
foc us</w>
refer red</w>
c ô
P S
res er
orig ine</w>
cons ac
int ellectu
paragrap h
4 ,
mo bil
sec ré
i de
hom mes</w>
C ri
Treat y</w>
Commission er</w>
gu ar
q u</w>
princip les</w>
m ing</w>
G R
di vers</w>
t elles</w>
of ten</w>
Cor por
quel ques</w>
ch ac
represent ative</w>
pourr aient</w>
m ess
al tern
nécess ité</w>
R en
op tion</w>
F i
r s</w>
t elle</w>
oun g</w>
soci aux</w>
conclu sions</w>
pai d</w>
tr a</w>
hum aines</w>
com ité</w>
et tes</w>
a o
opport unities</w>
d y
al ized</w>
S ou
enseign ement</w>
ologi e</w>
situ ations</w>
2 7
tric es</w>
s au
A P</w>
proced ure</w>
M c
in ter</w>
comp ens
D ES</w>
hen sive</w>
le m</w>
acro ss</w>
ic er</w>
som mes</w>
S ask
benef it</w>
fondam ent
plani fication</w>
6 4</w>
él ic
e .g
d ri
ob st
in dépend
possibil ité</w>
import ante</w>
f abr
con cl
L u
tra ite</w>
W omen</w>
l ands</w>
e ur
resp ecti
march andis
4 7</w>
V al
ad equ
For ce</w>
Su d</w>
mi lieu</w>
pur poses</w>
at ch
ab ilities</w>
cont exte</w>
lar ation</w>
aw ar
pol lu
er ont</w>
tra î
nat ural</w>
4 6</w>
satis fac
anc ed</w>
e.g .</w>
vol on
agre ements</w>
fran ç
S te
main tien</w>
m é</w>
he ad
Pro tection</w>
bu reau</w>
part ners</w>
par ents</w>
compét ences</w>
Tou tefois</w>
quo i</w>
éri e</w>
agr ic
mon t
practi ce</w>
Des cription</w>
al ization</w>
N O
stat ement</w>
p ay</w>
oun d
S ur
F C</w>
n ame</w>
c ell
rése au</w>
Jus tice</w>
bel ow</w>
équi p
9 9</w>
tou ch
g ender</w>
civi le</w>
juridi que</w>
offici al</w>
vis ory</w>
aur ait</w>
aliné a</w>
innov ation</w>
M ad
vo s</w>
cré er</w>
canadi ennes</w>
jo in
of f</w>
métho des</w>
am in
pre par
répon dre</w>
Institu te</w>
Ch air
a h
l ack</w>
lim it
ad mis
mat ter</w>
Per s
phy s
répon se</w>
tem por
ver ty</w>
différ entes</w>
char ac
Ap pl
li és</w>
t ôt</w>
C AN
fonc tions</w>
re ference</w>
princip aux</w>
qu és</w>
maxim um</w>
contr ô
rap p
re j
y l
Aug ust</w>
inter vention</w>
m ight</w>
ét ro
op en</w>
exc ell
ér is
nee ded</w>
er t</w>
es ted</w>
Af gh
présent é</w>
199 1</w>
cl in
rit anni
am éric
V ous</w>
tor al</w>
individu als</w>
Y u
be half</w>
dur ée</w>
For um</w>
lim ited</w>
Afric an</w>
inclu des</w>
indi qué</w>
main tenant</w>
par ce</w>
. ht
direc tement</w>
ab orer</w>
demand é</w>
en z
P E</w>
plac ed</w>
n eu
pri ority</w>
rend ement</w>
i or</w>
respons abil
pré vo
mon tr
instr ument</w>
pré sident</w>
st re
L O
co m</w>
sh ow
is ième</w>
B ul
loc ated</w>
n ations</w>
it u
concer n</w>
con soli
An nex</w>
ang lais</w>
2 00</w>
Que bec</w>
éch elle</w>
marchandis es</w>
bo dies</w>
iz e</w>
al low</w>
ré unions</w>
s ing
si m
renforc ement</w>
scho ol</w>
en traî
f f</w>
menti onn
Wh at</w>
inté gr
comp anies</w>
pow er</w>
appro uv
dé s</w>
suiv ant</w>
6 13</w>
discus sions</w>
institu tion</w>
li er</w>
rel atifs</w>
r endre</w>
transi tion</w>
tionn els</w>
comp any</w>
p ast</w>
u t
uni vers
C e
prior ités</w>
me ille
er ies</w>
centr al</w>
intér êts</w>
Secré tariat</w>
Eng lish</w>
technologi e</w>
comm enc
ar d
Y or
s ens</w>
reques ted</w>
suiv antes</w>
ci pl
N on</w>
A D</w>
de f
A gr
oc rati
con férence</w>
enreg ist
f ish
associ ated</w>
présent er</w>
6 6</w>
th ing</w>
prob lem</w>
en ess</w>
Nor th</w>
it ob
pré par
A B
import ants</w>
m us
high er</w>
financi ères</w>
li bre</w>
opport unity</w>
ic k
suff ici
R .
comp on
P aci
hol ders</w>
comb in
ao ût</w>
ori e</w>
h aut</w>
chang ement</w>
pos tes</w>
atis tics</w>
inté gration</w>
comp re
hy dro
ou l
call ed</w>
communaut aire</w>
Atl anti
cri t</w>
améli oration</w>
bi o
cont ained</w>
S P
al ia</w>
F I
conna issances</w>
le quel</w>
véri fication</w>
Q U
s l
speci es</w>
L ors
av anc
H IV</w>
Am érique</w>
ven ue</w>
Con sul
A R</w>
e an</w>
to day</w>
lo is</w>
fac teurs</w>
régi onal</w>
oth ers</w>
au x
c ru
val eurs</w>
Ban k</w>
soci étés</w>
F ur
bo dy</w>
work ers</w>
curr ently</w>
t ext</w>
mar k</w>
financi ers</w>
sur ance</w>
travail leurs</w>
M ex
h ear
cir cul
phy si
Man itob
cap it
matéri el</w>
li gh
pos t</w>
direc teur</w>
l em
Yor k</w>
e ither</w>
onn es</w>
P M
direc tly</w>
jur is
agricul ture</w>
re l</w>
succ ess
sp ace</w>
diff usion</w>
Th at</w>
att ach
E F</w>
r é</w>
on d</w>
constitu e</w>
Wh en</w>
issu ed</w>
Fe deral</w>
Ch am
priv é</w>
ou ti
obst ac
establish ment</w>
fin d</w>
forc ement</w>
fl ex
ré gu
hist ori
acc ords</w>
li ées</w>
olu me</w>
Rec om
hi b
ati que</w>
gouvernement ales</w>
bro ad
commit ment</w>
t ex
diver ses</w>
pauv reté</w>
sid ents</w>
at ti
an te
fa is
s ement</w>
particip er</w>
crit ères</w>
a î
si eur</w>
Manitob a</w>
M ed
hi le</w>
e ase</w>
establis h</w>
es ting</w>
O ne</w>
mani f
st ances</w>
appro ved</w>
er n
é missions</w>
dé but</w>
kno wn</w>
et ary</w>
6 ,
rap id
a ise</w>
ro ad</w>
Direc tion</w>
comple te</w>
reg ulations</w>
O per
rel ation
ak e
c au
Ter rit
to x
D U</w>
évalu er</w>
d it
déb at</w>
équi pe</w>
Con stitution</w>
én onc
on ed</w>
un til</w>
Americ an</w>
a su
pro positions</w>
contr at</w>
e p</w>
M s.</w>
pursu ant</w>
sign ed</w>
strategi c</w>
di men
ag ers</w>
pa red</w>
dem on
ici le</w>
migr ants</w>
disponib les</w>
effor t</w>
P A</w>
Ac cor
Ex ecutive</w>
tra ité</w>
citoy ens</w>
com ment</w>
th é
stand ard</w>
co de</w>
exp li
pub lish
o od</w>
D el
dis cipl
medi a</w>
cent age</w>
fac ilities</w>
fa its</w>
ré serve</w>
W hile</w>
r ural</w>
er y</w>
S aint</w>
au teur</w>
ad ul
publi ques</w>
D C</w>
A T</w>
fa isant</w>
stu dies</w>
avant ages</w>
Direc tive</w>
s ais
kno w</w>
ri t</w>
ét aire</w>
d one</w>
ep ing</w>
étab li</w>
organis me</w>
régl ement
du le</w>
materi al</w>
present ed</w>
tr é
as h
cho is
eth ni
f élic
simil ar</w>
id ed</w>
lik ely</w>
vic times</w>
D A</w>
électron ique</w>
multi lat
s anc
dur ant</w>
Min istry</w>
enti tled</w>
Reg ulation</w>
Sel on</w>
certi fic
grap h
not es</w>
s û
M us
N ote</w>
cat eg
ac tes</w>
P an
y p
l ande</w>
carri ed</w>
M ill
h or
ap pr
Americ a</w>
man date</w>
Y ou</w>
Ch ap
Po li
tra ff
Mon sieur</w>
7 3</w>
investi g
9 7</w>
T O</w>
è de</w>
cher ch
di pl
a éri
par ts</w>
ad ress
challeng es</w>
ph ot
it aires</w>
T o
D E
mic ro
bili ties</w>
tron ic</w>
s ch
Par ty</w>
h ér
n uclear</w>
ari es</w>
mê mes</w>
lang ue</w>
P I</w>
S en
proc esses</w>
compre hensive</w>
c anc
b or
modi fications</w>
d en
Pro ject</w>
t le</w>
lang ues</w>
f ew</w>
nombre uses</w>
lab our</w>
opér ationn
b as
d ant</w>
essenti al</w>
re conn
con servation</w>
sen sibil
ing ly</w>
previ ous</w>
permet tant</w>
z er
ocrati c</w>
se ur</w>
stat es</w>
et er</w>
I tal
9 8</w>
P N
in qui
f ar</w>
ét ap
y s</w>
ma k
streng th
A ustr
derni ères</w>
Ira q</w>
derni ère</w>
mécanis mes</w>
ch im
supplément aires</w>
impl ement</w>
ar ing</w>
dé cid
du s</w>
c amp
B ur
S tu
ic ally</w>
â ge</w>
sor te</w>
c ris
7 7</w>
régl ementation</w>
y oung</w>
reç u</w>
f lu
tionn el</w>
con su
er ait</w>
ritanni que</w>
address ed</w>
in cl
des ign</w>
ti n</w>
ro g
S E
fol low</w>
Col um
con stat
mod èle</w>
con seil</w>
in titul
en ed</w>
stratégi que</w>
provin ci
po verty</w>
e .</w>
in k</w>
b ass
Protoco l</w>
t ations</w>
e uses</w>
s er</w>
Au th
Dé clar
d ings</w>
AI DS</w>
pl y</w>
encour age</w>
em ph
it aire</w>
qu ées</w>
b at
minist ères</w>
Pro duc
N ouvel
sh are</w>
con sid
vis i
tr ice</w>
re duce</w>
6 8</w>
di g
gi ble</w>
atch ew
expres sed</w>
ré alisation</w>
vis ib
cir cum
I L
h u
C M
l ines</w>
sing le</w>
ph one</w>
terroris me</w>
Administr ation</w>
ex tern
Sask atchew
econom y</w>
a jou
requi re</w>
Ce la</w>
a j
de t
uni ver
compli ance</w>
gre at</w>
Saskatchew an</w>
ord ing</w>
Br un
ave z</w>
b ul
entr ée</w>
canadi ens</w>
exist ence</w>
conclu sion</w>
under standing</w>
C am
over all</w>
E X
P S</w>
rel atif</w>
h ome</w>
propos als</w>
m ot
si bilities</w>
fac tors</w>
ro om</w>
co ordonn
coû t</w>
am ents</w>
li n</w>
hol d</w>
consom mat
vic ti
ag no
l and
objecti ve</w>
pl ay</w>
améli or
arrang ements</w>
ar ound</w>
auth ori
C al
viol ations</w>
Colom bie</w>
er ci
vis ed</w>
le y</w>
regi ons</w>
Memb res</w>
espè ces</w>
fo res
vis ions</w>
Re view</w>
3 8
stratégi es</w>
é der</w>
it age</w>
conséqu ent</w>
qu ée</w>
U L
9 6</w>
ologi que</w>
concern s</w>
clo se</w>
s po
pi ed</w>
comm un</w>
K ing
appli quer</w>
f ying</w>
UN IC
un ds</w>
rest e</w>
aven ir</w>
ven tions</w>
établiss ements</w>
respons able</w>
part ement</w>
rup tion</w>
Accor d</w>
urg ence</w>
organ es</w>
achi eve</w>
J &apos;</w>
Par t</w>
deleg ation</w>
spéci alis
fonctionn ement</w>
et é</w>
satisfac tion</w>
pl ay
charg é</w>
T O
pre pared</w>
Res ources</w>
es tern</w>
exp end
ke eping</w>
ar t
to ok</w>
caract éris
Afgh an
par mi</w>
struc tures</w>
For ces</w>
expres sion</w>
on i
fu gi
gh out</w>
d ot
g et</w>
E .</w>
tro isième</w>
ement ed</w>
us er</w>
princip le</w>
investiss ement</w>
vo irs</w>
op tions</w>
at ten
inte gration</w>
Afghan istan</w>
accord ing</w>
P alestini
pos t
aver age</w>
D o
P L
comm ittee</w>
conduc ted</w>
re a</w>
m ail</w>
cy cle</w>
th an
Amend ment</w>
guar ante
H igh</w>
possibil ités</w>
Bu dg
C entr
or ité</w>
Environ mental</w>
des sus</w>
financi er</w>
protég er</w>
E ff
t â
mat ters</w>
er ie</w>
re duction</w>
en sus</w>
l à</w>
inter pré
v ente</w>
re al</w>
le ad</w>
D I</w>
pre vention</w>
ch ef</w>
se l</w>
ach es</w>
liber té</w>
Res pon
respons ables</w>
design ed</w>
VI H</w>
comp et
atte indre</w>
strategi es</w>
fron ti
istr ation</w>
ori ent
dem n
vi a</w>
inter nal</w>
is on</w>
élev é</w>
install ations</w>
communaut és</w>
exc ep
prévo it</w>
trans fer</w>
appli ed</w>
ex change</w>
A F
basi c</w>
r ue</w>
L eg
Ch i
S lo
em ment</w>
st ake
dé la
n é
b res</w>
aur a</w>
fu ge
citiz ens</w>
U N</w>
w ar
U .
modi fi
pe ace
J u
6 9</w>
déf ense</w>
com ing</w>
ologi ques</w>
S M
Déclar ation</w>
crit eria</w>
it ures</w>
M ac
I T</w>
ê me</w>
érie ures</w>
i vi
me dical</w>
T C</w>
as ter</w>
Regi onal</w>
pri orities</w>
pr es</w>
I C</w>
ap port
B ro
collectiv ités</w>
Ch ina</w>
B usiness</w>
enreg istr
p ul
ist ed</w>
st ated</w>
pro pre</w>
initi al</w>
p .m.</w>
retur n</w>
Par agrap
7 ,
ep ti
D éc
vi v
régu li
val id
fai ble</w>
der ation</w>
ex port
us age</w>
determin e</w>
Bi en</w>
fér ences</w>
Initi ative</w>
S af
at a</w>
com port
prév ues</w>
de x</w>
ag e
increas ing</w>
out side</w>
actu elle</w>
cho ix</w>
tu al</w>
rece ive</w>
Colum bia</w>
demon str
se e
hi m</w>
num éro</w>
z ing</w>
in corpor
a c</w>
décid é</w>
pri or</w>
ap ons</w>
i des</w>
pay ment</w>
pen sion</w>
Re present
pu is
ré qu
se par
médi as</w>
déla i</w>
for ward</w>
t om
au me</w>
em enting</w>
bu re
él aborer</w>
val ues</w>
k r
y a</w>
mo del</w>
nu tri
indic ated</w>
fl its</w>
import antes</w>
stat ut</w>
P C</w>
facil iter</w>
it ement</w>
trou ver</w>
con vention</w>
aut on
B .</w>
9 4</w>
inter pre
E ducation</w>
Commis s
év entu
modi fication</w>
Doc ument</w>
transfer t</w>
identi fy</w>
mati que</w>
h ours</w>
R I
C oll
adequ ate</w>
li ving</w>
conduc t</w>
dec ided</w>
ru le</w>
wh ole</w>
R om
propos é</w>
sp h
9 1</w>
regul ar</w>
conse ils</w>
am es</w>
pati ents</w>
sci ence</w>
S ome</w>
con flits</w>
hand ic
enni um</w>
des cription</w>
direc tives</w>
B y</w>
appro xim
Bu t</w>
pre vent</w>
Amend ement</w>
m ach
imp li
str ong</w>
bil at
él abor
C ependant</w>
fonctionn aires</w>
con vient</w>
cont ent</w>
t ori
li ens</w>
re z</w>
employe e</w>
im medi
ré fugi
tionn elle</w>
sel ves</w>
sup ported</w>
dé si
k a</w>
pro pres</w>
docum entation</w>
8 5</w>
ti se</w>
Protoco le</w>
contribu te</w>
tab leau</w>
d ess
ad resse</w>
. com</w>
fi l</w>
Fo od</w>
Joh n</w>
F O
tionn elles</w>
ist er</w>
depart ments</w>
s essions</w>
deli very</w>
Uni versité</w>
an cial</w>
B ar
at ures</w>
inter ests</w>
ev ents</w>
ter res</w>
M ari
crimin al</w>
tou tefois</w>
cre ate</w>
Agr icul
reas on
guid elines</w>
re mo
v it
chap itre</w>
u st
ess ing</w>
utilis é</w>
région ales</w>
alim ents</w>
gran des</w>
sup pli
arb itr
dy nam
govern ments</w>
mati ères</w>
me th
throu ghout</w>
relati vement</w>
let ter</w>
suffici ent</w>
tri al</w>
suppl y</w>
9 2</w>
secré tariat</w>
fourn is
H ome</w>
acc or
prés ence</w>
pré ci
la ws</w>
materi als</w>
au dit</w>
utilis és</w>
v olume</w>
w it
étrang er</w>
L E
ét aires</w>
juridi ques</w>
Qu es
mechanis ms</w>
responsabil ités</w>
v eu
et c.</w>
C F
défin ition</w>
stu dents</w>
s ent</w>
région aux</w>
propos e</w>
sur tout</w>
donn e</w>
consult atif</w>
s embl
defin ed</w>
succ ès</w>
év olution</w>
lo o
ap s</w>
ten ance</w>
we b
g es</w>
aff ected</w>
humanit arian</w>
e duc
incid ence</w>
off er</w>
dis t
garanti r</w>
associ ations</w>
chi ves</w>
dis pens
C ul
sc ol
streng then</w>
a qu
awar eness</w>
vol un
pri mary</w>
Pro v
pê che</w>
g n</w>
con str
E d
di s</w>
terroris m</w>
rou te</w>
ten ues</w>
lead ership</w>
ici al</w>
Ann exe</w>
P i
ad ver
compl eted</w>
J ourn
is ts</w>
sur face</w>
li on</w>
CAN AD
s érie</w>
e valu
7 2</w>
is ol
l y
competi tion</w>
plu tôt</w>
identi fication</w>
év én
fi f
ev ent</w>
ak ing</w>
man dat
E ast</w>
L et
esti onn
consist ent</w>
th us</w>
Institu t</w>
c s</w>
re ad</w>
S A</w>
oun c
comm itted</w>
S .
equ al</w>
ent er
seri ous</w>
habit at</w>
ré v
l ements</w>
m l</w>
l er</w>
ant i</w>
susc epti
é change</w>
moy enne</w>
déclar é</w>
end ra</w>
inter ne</w>
arm ac
Po int</w>
me il
compr end</w>
i ère</w>
emph asi
lign es</w>
m ement</w>
dru g</w>
low er</w>
trans ports</w>
li eux</w>
po int
dé ci
négoci ations</w>
du m</w>
minist éri
un ité</w>
to o</w>
w rit
circum stances</w>
sub si
de ur</w>
gen ous</w>
anc ing</w>
Fin ancial</w>
sub section</w>
app are
Un der</w>
beli eve</w>
Roy aume</w>
man ner</w>
annu el</w>
ac cid
i m</w>
mé dec
st ep
Mon tré
it self</w>
fédér ale</w>
concurr ence</w>
m ét
clo sure</w>
présent ation</w>
s emble</w>
esti me</w>
D .</w>
comp tes</w>
métho de</w>
comm une</w>
w ant</w>
C R</w>
in ement</w>
cré dit</w>
Centr al</w>
prior ité</w>
professi onal</w>
gr at
a p</w>
ter i
re ti
tain ing</w>
p sy
protec t</w>
accro ître</w>
L im
po s</w>
ra ther</w>
Montré al</w>
am bi
o v
J .</w>
minu tes</w>
in al</w>
st and</w>
st ar
ul t
éri eurs</w>
ext ent</w>
rais ons</w>
ac es</w>
H R</w>
re form</w>
anti ll
prév u</w>
fig ure</w>
determin ed</w>
catég orie</w>
at oires</w>
associ ation</w>
9 3</w>
des cribed</w>
mati ques</w>
ga z</w>
sec tors</w>
conf lit</w>
ant ly</w>
I D
consom mation</w>
im médi
enregist rement</w>
impl emented</w>
u te</w>
y l</w>
PD F</w>
ti er</w>
publish ed</w>
metho ds</w>
a fric
n s</w>
gu erre</w>
alim entaire</w>
. .</w>
P E
centr ale</w>
de al
public ations</w>
j am
pl an
loc aux</w>
ré forme</w>
oper ational</w>
M ais</w>
dam ental</w>
gu ide</w>
candidat s</w>
conc ept</w>
E tats</w>
Se con
poin ted</w>
m age</w>
S ince</w>
fisc al</w>
S ous</w>
b ou
Ou est</w>
pi è
atte in
produc ed</w>
L oc
IP O</w>
p u</w>
tain s</w>
di a</w>
op s</w>
proc u
l am
et c</w>
ish ed</w>
ic ers</w>
acqu is
8 8</w>
9 ,
bo ard</w>
propor tion</w>
ar ms</w>
p rec
r ing</w>
exper tise</w>
tur ing</w>
B C</w>
Ch ine</w>
in dependent</w>
fre e
M O
seu l</w>
emp ê
ju dg
cons ensus</w>
an ia</w>
v ot
h ou
el ements</w>
deb ate</w>
off ices</w>
caract ère</w>
tor ture</w>
cover ed</w>
appro val</w>
e il</w>
s élection</w>
f ri
con tenu</w>
CN .
at mo
f réqu
bi r
viol ation</w>
ol es
at h</w>
ul ar</w>
te am</w>
è rent</w>
pos s
Pe op
3 00</w>
part nership</w>
bal ance</w>
deman der</w>
hé sion</w>
p ack
compl ain
R E</w>
pr ice</w>
O ur</w>
fon d
or ti
net work</w>
ar ab
leg isl
integr ated</w>
simp le</w>
influ ence</w>
rem ain</w>
Gu ide</w>
charac ter
dom in
trou ve</w>
di versité</w>
V anc
ho sp
for t</w>
clai m</w>
c all</w>
sec tions</w>
h otel</w>
D uring</w>
recher ches</w>
spéci ale</w>
per cent</w>
long er</w>
des truc
wor ds</w>
IN G</w>
n ation</w>
ori entation</w>
v o</w>
Brun sw
milit aire</w>
ens uring</w>
an ch</w>
contr act</w>
sec ret
soci ales</w>
cli ent</w>
ur i
ass ist</w>
G O
présent ant</w>
milit aires</w>
Pr incip
clim ate</w>
b es</w>
y et</w>
ou ver</w>
comp ati
E st
éch antill
i .
adv ant
F ac
sh ort</w>
continu er</w>
Nouvel le</w>
l abor
s at
dev ons</w>
ed ings</w>
enti ss
int ended</w>
N et
al ong</w>
Num ber</w>
requi res</w>
clai rement</w>
rem bour
ré mun
Vanc ouver</w>
&apos; t</w>
cri mes</w>
Dec laration</w>
tin e</w>
hô tel</w>
elec tronic</w>
g ens</w>
mo bili
exc eption</w>
engag ements</w>
ul aire</w>
T e
res ource</w>
h and</w>
mat es</w>
Brunsw ick</w>
al li
maladi es</w>
sid a</w>
de partment</w>
W in
S ch
pr end</w>
prest ations</w>
difficul t</w>
r ant</w>
sou mis</w>
B ritannique</w>
pur ch
amend ments</w>
in demn
tra ités</w>
élé ment</w>
rec ord</w>
la un
jur y</w>
c are
gi que</w>
inform ed</w>
coll ec
install ation</w>
con v
C re
w at
statisti ques</w>
Ban que</w>
vis it
e use</w>
sk ills</w>
0 4
acces sible</w>
Se e</w>
re ur</w>
rais onn
re ach
j ets</w>
M at
ver y
EM ENT</w>
ecti ves</w>
hum ains</w>
L ES</w>
w ish</w>
c raft</w>
ren ouvel
Im pl
reas ons</w>
AN S</w>
compr endre</w>
T im
Syst em</w>
pro toco
è que</w>
mark ets</w>
st er</w>
élimin ation</w>
facilit ate</w>
regul atory</w>
essenti el</w>
7 1</w>
J ap
bil lion</w>
les quelles</w>
G lob
exper t</w>
e ding</w>
loc ales</w>
franç ais</w>
10 .
impl ementing</w>
imp ôt</w>
sign al
fi e</w>
W IPO</w>
ati ques</w>
spéci fiques</w>
ré si
consommat eurs</w>
---- ----
o les</w>
stake holders</w>
P AR
ille z</w>
Add .
I S</w>
Al though</w>
pro venant</w>
recomm ended</w>
d ès</w>
les quels</w>
all s</w>
7 8</w>
sci ences</w>
f ish</w>
pol y
Char ter</w>
a des</w>
coll ection</w>
réfugi és</w>
investiss ements</w>
he ad</w>
pre ci
ex tra
b ation</w>
U kr
coll ective</w>
ask ed</w>
sc ope</w>
tiv ité</w>
H aut</w>
é tique</w>
Un i</w>
terr ain</w>
n ord</w>
Ge or
veill er</w>
vou dr
ci v
wh ose</w>
U. S.</w>
intro duction</w>
tradi tional</w>
e ure</w>
démocrati que</w>
pass é</w>
Me eting</w>
véhic ules</w>
am ent
outi ls</w>
chac un</w>
i tions</w>
co ver</w>
autor ité</w>
chi ff
é ni
b ar
an ie</w>
conse qu
R ob
UNIC EF</w>
step s</w>
M IN
cre ated</w>
enti al</w>
y outh</w>
i ds</w>
rapid ement</w>
pri mer</w>
ex prim
a pon</w>
l ater</w>
con ci
o s
aff aire</w>
comm ents</w>
trav el</w>
adop ter</w>
en able</w>
iss ons</w>
King dom</w>
particip ate</w>
to ols</w>
fon d</w>
H on
W i
subst ance</w>
cust om
financ ing</w>
génér alement</w>
parten ariat</w>
insp ection</w>
provis oire</w>
cré é</w>
Par t
L t
ser ves</w>
effici ent</w>
Indus try</w>
pollu tion</w>
su is</w>
no ti
t lement</w>
off rir</w>
ent h</w>
appu yer</w>
s ay</w>
cle arly</w>
T E</w>
r ite</w>
famili es</w>
pap er</w>
exerc ise</w>
L ab
st age</w>
appli que</w>
respon sibilities</w>
maladi e</w>
ic a</w>
al leg
clai ms</w>
rec ue
H otel</w>
end r
M i
oper ating</w>
Con go</w>
en jo
k on</w>
St and
s am
COM M
gener ally</w>
lear ning</w>
un it</w>
vis u
cri tical</w>
accept able</w>
persp ective</w>
classi fication</w>
at eli
dis par
t ol
Par is</w>
view ed</w>
ep h
trans mission</w>
è les</w>
success ful</w>
cou ver
se qu
2 5
let tre</w>
ex .</w>
Ko so
follow s</w>
prest ation</w>
gr ands</w>
pai ement</w>
n é</w>
re mar
en voy
ec ture</w>
main tenance</w>
ér é</w>
flex ib
E st</w>
r y
reques ts</w>
ill ic
S &apos;</w>
Au tres</w>
im porte</w>
fun damental</w>
al ways</w>
succ ess</w>
se ule</w>
i. e.</w>
esp ace</w>
phys ical</w>
h abil
H ar
habit u
o graph
ser vi
contribu er</w>
negoti ations</w>
promo ting</w>
personn els</w>
us ement</w>
Russi e</w>
L ang
tro ph
go als</w>
applic ant</w>
T élé
we b</w>
hel p
te ach
te z</w>
quel que</w>
enh ance</w>
Fo reign</w>
dis pose</w>
Man u
dis posi
reven us</w>
pou voirs</w>
h ors</w>
éch é
them selves</w>
candidat es</w>
dis tric
coll abor
B er
règ lements</w>
obstac les</w>
cons ci
Commun ications</w>
form at</w>
mor t
ist ant</w>
T A</w>
1. 1</w>
k m</w>
ec h</w>
e ds</w>
ré vis
cre dit</w>
d ar
res olutions</w>
év iter</w>
crip tions</w>
jo b</w>
ari ats</w>
trim o
un .org</w>
langu ages</w>
â g
v u</w>
fa ite</w>
interven ants</w>
S E</w>
com pu
8 00</w>
pou vez</w>
8 ,
pl ement</w>
ré per
mo tion</w>
achiev ed</w>
Minis tre</w>
è tes</w>
f eu
a tri
exéc u
il ité</w>
menti oned</w>
7 6</w>
concentr ation</w>
ç u</w>
professionn els</w>
ic o</w>
Govern ments</w>
rem erci
cl am
v acc
en forcement</w>
pr ac
rou ght</w>
un d
E A</w>
représent e</w>
appe al</w>
De puis</w>
Chair man</w>
Saf ety</w>
form al</w>
w id
maj ority</w>
I N</w>
ais se</w>
M ich
li qui
rest aur
Ad visory</w>
s ent
per f
prog res
radi o
ch au
fau dr
nav ig
X X
peu ples</w>
T ER
meille ure</w>
Koso vo</w>
cre ation</w>
nuclé aires</w>
è tres</w>
constitu ent</w>
com position</w>
off er
O C
br ing</w>
li r</w>
er ous</w>
v is</w>
Corpor ation</w>
ell ing</w>
prof it</w>
D r.</w>
bure aux</w>
examin é</w>
hi bi
trimo ine</w>
ag ain</w>
e ful</w>
ple inement</w>
sanc tions</w>
Al lem
ad équ
recogni zed</w>
sug g
proce edings</w>
ic king</w>
î t</w>
writ ten</w>
communaut aires</w>
ad ded</w>
som e
é th
7 4</w>
s mo
organiz ed</w>
Ass ess
Pro f
we apons</w>
Yu kon</w>
tiv ity</w>
minis tres</w>
préc is
g as</w>
Cont act</w>
mon ey</w>
â ti
fam illes</w>
y le</w>
L ake</w>
maj orité</w>
el im
Strat egy</w>
g er</w>
ext érieur</w>
amp les</w>
compét ence</w>
P .</w>
fem me</w>
speci fied</w>
tro p</w>
al istes</w>
déclar ations</w>
u its</w>
pour suivre</w>
all ég
oper ate</w>
stat ements</w>
pen se</w>
Memb ers</w>
ap porter</w>
suiv ante</w>
naturel les</w>
adap tation</w>
Direc teur</w>
Vo ir</w>
lo ok</w>
pour quoi</w>
scienti fiques</w>
l ac
W est</w>
C y
sal le</w>
v ér
t ability</w>
app ell
Ger many</w>
in ning</w>
effecti veness</w>
A M</w>
étrang ères</w>
t al</w>
efficac es</w>
r aci
él è
autor isation</w>
princip ales</w>
restric tions</w>
che dule</w>
op pos
min or
entiss age</w>
Trans port</w>
im migration</w>
val ent</w>
on going</w>
ch ec
o di
ti ennent</w>
al though</w>
reg ulation</w>
me asu
T ab
inst ance</w>
sp on
A près</w>
work sh
under taken</w>
interven tions</w>
tri bunal</w>
destruc tion</w>
dem and</w>
acquis ition</w>
inter médi
sur vey</w>
victi ms</w>
we e
8 3</w>
cl ari
auton om
relation ship</w>
S ite</w>
indus tries</w>
ven u</w>
ph o
all er</w>
end ro
humanit aire</w>
lin gu
duc ing</w>
conna issance</w>
th è
U M
Co ordin
ai med</w>
remain s</w>
main tain</w>
pro li
manif est
intellectu elle</w>
Parti cip
strength ening</w>
ann ounc
radi o</w>
Budg et</w>
disponib le</w>
employ é</w>
lin ks</w>
pu ty</w>
reg istration</w>
de al</w>
région ale</w>
ri el</w>
198 9</w>
D C
Asi e</w>
souha it
ser ies</w>
port ée</w>
Chi ef</w>
é rer</w>
an nex</w>
sh ow</w>
Chil dren</w>
arm ed</w>
Off icer</w>
am en
re ach</w>
Russi an</w>
conn ection</w>
er ce</w>
diff icile</w>
estim ated</w>
sel ection</w>
B al
ai rement</w>
Pri v
conséqu ences</w>
Commun auté</w>
am oun
re pres
par a</w>
um s</w>
indi que</w>
is ed</w>
3 0
mécanis me</w>
urb an</w>
r ich
ar es</w>
Mar k
su d</w>
V ice</w>
ri e</w>
en sion</w>
e x</w>
i ii</w>
si ze</w>
at tr
b ers</w>
en ses</w>
R .</w>
ON U
b ack
Parti e</w>
S P</w>
Atlanti c</w>
sec u
ai gn
z es</w>
Dé partement</w>
vis it</w>
confi denti
EC E</w>
cau ses</w>
it ems</w>
pro pos</w>
l ad
u su
e very
re mp
t ables</w>
car b
exc e
rem plac
defin ition</w>
th y</w>
R ou
vou l
judici aire</w>
E UR</w>
W P.
subm it</w>
ser aient</w>
ous ing</w>
dér ation</w>
T out</w>
Sup port</w>
territ oires</w>
tak es</w>
E sp
le ase</w>
l ation</w>
arm ement</w>
rap ide</w>
Palestini an</w>
Agricul ture</w>
appr entissage</w>
mon th</w>
sex es</w>
secret ariat</w>
ans w
d an</w>
improv ed</w>
cl és</w>
F A
qu and</w>
T ous</w>
R iver</w>
De f
offici als</w>
Ukr aine</w>
handic ap
sy m
Lors que</w>
con ference</w>
élec tions</w>
conform ité</w>
ag o</w>
territ ory</w>
F ish
ch ers</w>
T ro
Con tro
her e
li en</w>
ap point
J ean</w>
parl ement
Ro om</w>
civi li
w ing</w>
recommand ation</w>
jam ais</w>
offici elles</w>
improv ing</w>
C ub
th ink</w>
dossi er</w>
cor ruption</w>
Allem agne</w>
compens ation</w>
Represent ative</w>
sp ati
dipl om
mp tion</w>
priv ée</w>
v ill
re d
ré parti
commerci ales</w>
A ir
fi és</w>
v ac
direc trices</w>
r ang
in surance</w>
quar ters</w>
difficul tés</w>
W H
An aly
rése aux</w>
favor iser</w>
D ru
lo ss</w>
ordin aire</w>
regis tered</w>
médic aments</w>
pré paration</w>
particuli ers</w>
re fuge
ë l</w>
con ver
sup érieur</w>
F OR
8 7</w>
pass er</w>
Nor thern</w>
detail ed</w>
vi ennent</w>
Techn ology</w>
le ave</w>
am s</w>
im age</w>
8 9</w>
con g
Minis ters</w>
R em
travaill er</w>
eph one</w>
8 1</w>
ill ed</w>
asse ts</w>
té mo
av i
respec ter</w>
sh own</w>
approxim ately</w>
eu re
m itted</w>
vehic le</w>
min al</w>
wh y</w>
ro ul
princip alement</w>
. -
b order</w>
fa x</w>
exam ine</w>
al co
stratégi ques</w>
C D</w>
investi gation</w>
P u
uti le</w>
W estern</w>
F é
oun dation</w>
scienti fic</w>
S S</w>
indic ateurs</w>
intro duced</w>
H ouse</w>
func tions</w>
Por tu
ag g
li ation</w>
en suite</w>
aut ant</w>
em issions</w>
buil d</w>
bl an
actu al</w>
Pl ann
A ra
us ers</w>
t un
ch ets</w>
altern ative</w>
l um
off icers</w>
free dom</w>
El ec
étrang ers</w>
A in
Dec ision</w>
b lo
territori al</w>
c ot
just e</w>
An d</w>
hist ory</w>
requi rement</w>
servi r</w>
198 8</w>
ori z
industri al</w>
pu isse</w>
di ri
il ity</w>
P a
UN E
T y
m én
C op
ac compl
tu des</w>
im mun
g am
198 7</w>
dé plac
he ure</w>
cherch eurs</w>
é p
Comp any</w>
e as
mar que</w>
trou v
on ie</w>
comb at</w>
2. 1</w>
oc r
Appl ication</w>
conse ill
Char te</w>
d .</w>
extern al</w>
étudi ants</w>
ev a</w>
com mod
effecti vely</w>
subsi di
comp ared</w>
ne w
m aire</w>
li ve</w>
Per man
cir const
M il
mo de</w>
to p</w>
de g
Employ ment</w>
g estionn
8 4</w>
min es</w>
charg es</w>
p alestini
al ie</w>
gar de</w>
P I
uni quement</w>
meas ure</w>
concentr ations</w>
comm iss
ste p</w>
encour ager</w>
CE E</w>
Ain si</w>
th i
7 9</w>
ris ks</w>
di vision</w>
lim it</w>
déf is</w>
ner ships</w>
e ver</w>
détail l
Assess ment</w>
Gu id
appel ant</w>
mi x
S m
Bo s
g ri
ne y</w>
func tion</w>
scho ols</w>
sexu al</w>
ag issant</w>
ac qui
cl asse</w>
ox y
sc ale</w>
cris is</w>
ne g
2 3
M es
R et
ar m</w>
ac compli
pré al
emplo is</w>
ter re</w>
fav our</w>
F ig
8 2</w>
Fr an
en ge</w>
g ne</w>
ali ties</w>
s cre
mu si
sup porting</w>
peti tes</w>
enc ed</w>
we ek</w>
rés olutions</w>
re duced</w>
fa ites</w>
dou ble</w>
ad just
commit ments</w>
ag ue</w>
lin ed</w>
au teurs</w>
Fe deration</w>
Envir onnement</w>
reas on</w>
p ages</w>
st art</w>
g ary</w>
caractéris tiques</w>
f air</w>
t ard</w>
trans actions</w>
ur red</w>
di versity</w>
fer ences</w>
reason able</w>
ent ente</w>
comp ter</w>
m ou
dé ploy
G az
anc ement</w>
s av
ent ed</w>
dist ance</w>
Ar chives</w>
Premi ères</w>
pay er</w>
ad vice</w>
8 6</w>
T el
i les</w>
conc eption</w>
dépos é</w>
Or .</w>
dé cl
S cho
cr ise</w>
arm ament</w>
o d
communi quer</w>
govern ance</w>
ren ew
è vement</w>
c ependant</w>
milli ards</w>
em pl
e quality</w>
sign ature</w>
S ur</w>
lim ite</w>
legisl ative</w>
Ac cu
ac compag
lead ing</w>
conna ître</w>
m ant</w>
réalis er</w>
Glob al</w>
pr u
0, 000</w>
recommend ation</w>
F un
w ar</w>
pr on
environnement ale</w>
establish ing</w>
ar ts</w>
f requ
dis ease</w>
confi ance</w>
s a
si x
t ary</w>
w ise</w>
pén ale</w>
t ests</w>
sel y</w>
catég ories</w>
imp acts</w>
abor d</w>
D om
conven tions</w>
ri es</w>
t ali
permet tent</w>
str ic
sou tenir</w>
canc er</w>
peop les</w>
ch ed</w>
ess ai</w>
P age</w>
y ond</w>
règ le</w>
o ther
f tw
observ ation</w>
norm al</w>
in sc
car ry</w>
bo o
actu el</w>
Perman ent</w>
parten ariats</w>
C C</w>
R i
A us
ann onc
O ver
Auth ority</w>
anc oph
lo t</w>
c ess
entr y</w>
E U
fabr ication</w>
ques tionn
pay ments</w>
l t</w>
fun d</w>
m as
web site</w>
ren du</w>
no tice</w>
scienti fique</w>
am ended</w>
com pro
pre paration</w>
e ases</w>
délég ations</w>
ap preci
Fr amework</w>
répon ses</w>
................ ................
is ent</w>
Fé dération</w>
institu tional</w>
re t</w>
OM PI</w>
génér ales</w>
appro bation</w>
Isra el</w>
Ob j
eur o</w>
12 .
sat ell
H el
s ter
N ou
deli ver
ob tained</w>
Con tribu
a éro
chim iques</w>
iv ing</w>
fic ally</w>
F ol
conn exes</w>
198 5</w>
ç ant</w>
Asi a</w>
publi é</w>
v oc
ad em
con tient</w>
a e</w>
discus sed</w>
contin ues</w>
all ing</w>
enqu êtes</w>
N at
S ER
4 00</w>
l isted</w>
o il</w>
f el
fon dée</w>
st or
an g</w>
off ers</w>
ple ase</w>
Off icial</w>
Jap an</w>
ouver ture</w>
pri t</w>
C B
dro gues</w>
mess age</w>
Acc ording</w>
C ivi
detail s</w>
cri re</w>
effici ency</w>
th reat
du es</w>
t op
pré vue</w>
St atistics</w>
c ity</w>
sem in
lit tle</w>
hy po
éc rit</w>
pl as
mak es</w>
p un
ph armac
pr ices</w>
réc emment</w>
voudr ais</w>
L .</w>
I P</w>
développ er</w>
k g</w>
agricul tural</w>
N om
st ation</w>
dess ous</w>
mar ine</w>
P OR
qui e</w>
man que</w>
Del eg
cus sions</w>
produ ire</w>
b rought</w>
Chap ter</w>
im es</w>
nom ination</w>
comm and
un di</w>
main tenir</w>
F rom</w>
B l
dés armement</w>
5 0
S k
ex position</w>
L is
E D
Ara b</w>
rap porteur</w>
Recom m
Tr aining</w>
s port</w>
m m</w>
paragraph es</w>
air craft</w>
rec ords</w>
se en</w>
Cri minal</w>
ré us
cro ss</w>
ch ron
C et</w>
résul tat</w>
Pan el</w>
exp an
hist oire</w>
Indi an</w>
r ur
lim ites</w>
en e</w>
F am
b li
ad oles
is tics</w>
f lo
eli gible</w>
B ra
di agno
Af ter</w>
Journ al</w>
C L
administr atives</w>
Paci fic</w>
larg ement</w>
E T
Ac coun
ord ers</w>
judici al</w>
Peop le</w>
Br anch</w>
è nes</w>
set ting</w>
physi que</w>
ill ing</w>
dis pu
is i
bil ity</w>
sum é</w>
modi fier</w>
Ho w</w>
fi ée</w>
circul ation</w>
conc ep
ti a</w>
ag u
itte es</w>
agric oles</w>
cul tures</w>
M or
intitul é</w>
G ro
ass ess</w>
N ig
ther more</w>
res ses</w>
i p
Ré gi
m al</w>
comm entaires</w>
plac es</w>
educ ational</w>
i x
compl ète</w>
n ér
con cre
ex port</w>
is tique</w>
st abilité</w>
Ag enda</w>
Wh ere</w>
Ir an</w>
ple in</w>
Pr ince</w>
tax es</w>
V I</w>
sau f</w>
el ess</w>
g al</w>
do w
indic ators</w>
m g</w>
1 00
be hav
di e</w>
S im
mod èles</w>
M ul
se ar
employ ed</w>
tr ac
mechanis m</w>
cons iste</w>
k ind</w>
lig ence</w>
P ER
Pub lic
rec ently</w>
étap e</w>
pres ence</w>
es prit</w>
con sum
paragraph s</w>
exclu si
vul ner
sid ente</w>
ai m</w>
soulign é</w>
c ore</w>
at ement</w>
ar gu
P ak
Con si
adop tée</w>
qu ante</w>
g yp
sensibil isation</w>
proc essing</w>
acc ent</w>
Accu eil</w>
vul nér
génér aux</w>
circonst ances</w>
M u
En fin</w>
cl ass</w>
pro sp
ex portation</w>
dé mar
ju ge</w>
intro du
n a
indi genous</w>
ro b
dec re
dat ab
el ection</w>
ag ency</w>
Ré union</w>
utilis ées</w>
effectu er</w>
Is land</w>
peti ts</w>
C N</w>
b âti
refl ect</w>
applic ables</w>
dép ôt</w>
ag ir</w>
ap préci
men er</w>
CANAD A</w>
grad u
op position</w>
pe ine</w>
dé chets</w>
dossi ers</w>
ab in
F R
grow ing</w>
1 1.
our able</w>
an es</w>
commerci aux</w>
comple x</w>
as troph
appro visi
d eci
res ol
arr ê
Pro jet</w>
.ht ml</w>
Tr av
dé liv
treat y</w>
ré d
déc oul
sem aine</w>
r Ã</w>
Gen eva</w>
and a</w>
Ques tions</w>
He ad
B .
s ales</w>
O T
cont amin
Impl ementation</w>
requ ér
utilis ateurs</w>
professionn elle</w>
a h</w>
peti t</w>
accue il</w>
re vised</w>
Ap pe
h ope</w>
P op
lib ér
hi li
W il
Cub a</w>
4 0
conséqu ence</w>
priv il
H ist
e fs</w>
tan dis</w>
Isra ël</w>
la w
p as
syst é
de urs</w>
pro p
d le</w>
tri bun
tr u
éco les</w>
tr ain</w>
k er</w>
2 6
glob ale</w>
ar k</w>
v ing
gé ographi
particip é</w>
ak es</w>
en du</w>
de ath</w>
h a</w>
ai e</w>
cat astroph
discipl in
3. 1</w>
t ory</w>
out come</w>
indic ate</w>
l or
vic es</w>
produc teurs</w>
li ance</w>
cal end
rele ase</w>
e e</w>
A t
rapp el
is ing</w>
ing ton</w>
fournis seurs</w>
go al</w>
er o
A V
ftw are</w>
permet tra</w>
pro fon
gran ted</w>
amend ment</w>
du ty</w>
dat es</w>
deb t</w>
al location</w>
tail le</w>
gi r
de pos
comp éti
Pl us</w>
sub s
c ents</w>
Con form
op i
pré venir</w>
anim aux</w>
min e</w>
Def ence</w>
Strat egi
Su stain
ag ree</w>
h oriz
vehic les</w>
T el</w>
be yond</w>
concl u</w>
C ust
sh or
Soci ety</w>
part i</w>
C at
particuli ère</w>
el ds</w>
tor ate</w>
voy age</w>
pertin entes</w>
aff ich
su b</w>
diri ge
sen si
S he</w>
employ er</w>
produ ce</w>
M et
re ly</w>
expan sion</w>
C P
orig in</w>
stoc ks</w>
Sci ence</w>
cam pai
conci liation</w>
ll ed</w>
Chil d</w>
appu y
D ata</w>
pu issent</w>
re in
go sl
acqu it
inten si
r o</w>
L ic
mon tre</w>
wh ere
sup ports</w>
Net work</w>
ter a</w>
L abr
Ex am
Is su
arri v
rais ed</w>
rémun ération</w>
figur ant</w>
C S
fondament aux</w>
ament ary</w>
du mp
bec om
inv ite</w>
me an
r its</w>
Su ch</w>
meth od</w>
contr ats</w>
vari ety</w>
tic ul
co hér
vo l</w>
ess ais</w>
approuv é</w>
préoccup ations</w>
fi les</w>
analy ses</w>
conclu ded</w>
cré dits</w>
El les</w>
recomm ande</w>
rou gh</w>
derni ers</w>
l et</w>
pa rer</w>
att emp
peu ple</w>
erg y</w>
qua tri
prac tical</w>
compon ent</w>
gouvern ance</w>
F ax</w>
D G
Labr ador</w>
duc tions</w>
resul ting</w>
interpré tation</w>
sti mul
P au
se g
determin ation</w>
SC E</w>
act ors</w>
V ic
T w
N ation</w>
espè ce</w>
agric ole</w>
ti s</w>
Ver sion</w>
cont ains</w>
separ ate</w>
s .
chall enge</w>
le ft</w>
N un
fourn i</w>
emerg ency</w>
ad a
Jo int</w>
Q UE</w>
juris diction</w>
he al
pres se</w>
Ex per
atten d</w>
saf e</w>
Pak istan</w>
C ity</w>
so l</w>
guid ance</w>
De puty</w>
P ays</w>
dis cu
reconna issance</w>
él éc
évén ements</w>
s tri
Gen ève</w>
authori zed</w>
Fur thermore</w>
multilat ér
mar g
Aff aires</w>
for te</w>
develop ments</w>
provis i
mari time</w>
A uc
In tro
é ré
rece voir</w>
mod alités</w>
St re
resp ective</w>
f ound
invol ving</w>
targ et</w>
é po
con dam
sou ff
un its</w>
o is</w>
gouvernement aux</w>
S co
P hili
S we
follow ed</w>
res ear
princip ale</w>
ri en</w>
comm issions</w>
jou er</w>
psy ch
N i
A U</w>
b arri
par li
bo ok</w>
h app
CO M</w>
euro s</w>
occup ation</w>
f all</w>
traff icking</w>
exp enses</w>
quatri ème</w>
du ties</w>
inv ited</w>
D É
us eful</w>
no tification</w>
conc ours</w>
intermédi aire</w>
appro aches</w>
st able</w>
U D</w>
P lease</w>
lead ers</w>
hum aine</w>
hau te</w>
ré vision</w>
D ur
tra fic</w>
G C</w>
New s</w>
réalis és</w>
Co operation</w>
2. 2</w>
Tra ité</w>
Lab our</w>
un ités</w>
T ax</w>
ré un
ON G</w>
An nu
europé ens</w>
J apon</w>
Public ations</w>
donn ée</w>
ro oms</w>
E t</w>
im m
D av
é changes</w>
inform al</w>
allow ed</w>
Sum mit</w>
cap able</w>
fourn it</w>
civ ils</w>
ke ep</w>
tion ing</w>
présent ée</w>
produc tive</w>
simp li
e f
o ro
S ource</w>
reach ed</w>
con tenant</w>
amoun ts</w>
organis é</w>
arg ent</w>
ent y</w>
équip ement</w>
anc y</w>
k il
Her z
ob tain</w>
c les</w>
str ong
recue illi
rec ettes</w>
ai ly</w>
infrastruc tures</w>
ob s</w>
v ues</w>
al a</w>
tra iter</w>
expl ic
depend ence</w>
él ar
Bul g
w est</w>
d on</w>
Cro ati
destin és</w>
S t</w>
beg inning</w>
C o</w>
h aus
di min
aw are</w>
cham bres</w>
appro fon
Lt d</w>
us s
grav es</w>
M ore</w>
Soci été</w>
exclu sion</w>
et h</w>
ad hésion</w>
fic hi
fédér aux</w>
compon ents</w>
inclu sion</w>
pres sure</w>
rati fication</w>
ATI ONS</w>
Portu gal</w>
dimen sion</w>
acc us
sear ch</w>
emb our
p ic
ouver t</w>
tot ale</w>
m y
éco le</w>
Secon d</w>
S ign
ocr acy</w>
i ties</w>
exéc uti
st ations</w>
hon or
pério di
P acte</w>
condu ite</w>
ab and
Wor k</w>
si mul
reas ury</w>
Lang u
trans formation</w>
acc um
bo is</w>
mark eting</w>
alis er</w>
T rés
deg ree</w>
D N
Ap pen
design ated</w>
con férences</w>
it ant</w>
2 50</w>
détermin ation</w>
D O
enn al</w>
arch it
Tab leau</w>
asp ect</w>
vo ire</w>
men ées</w>
volon té</w>
pré hen
off ered</w>
b as</w>
h eure
sugges ted</w>
ban k</w>
supplément aire</w>
b usin
c y</w>
bro ad</w>
dev ait</w>
h ousing</w>
cont aining</w>
p d
ver i
e .
Num éro</w>
gro unds</w>
Ou t
d ants</w>
1. 2</w>
mo bi
ac ted</w>
tâ ches</w>
Appen dix</w>
ill ustr
al most</w>
sel ected</w>
1 1
tr ust</w>
t ent
Re présentant</w>
k ers</w>
log ement</w>
behav i
P ap
Mex ico</w>
che fs</w>
pres s</w>
po or</w>
ob server</w>
m &apos;</w>
gen re</w>
under stand</w>
ec ting</w>
formul aire</w>
tax e</w>
s ts</w>
er ra</w>
ement ary</w>
hosp it
Pol ice</w>
Al so</w>
le tin</w>
Av is</w>
ord ed</w>
g et
ari a</w>
loc ations</w>
instruc tions</w>
tri e</w>
R É
es tion</w>
other wise</w>
M ic
aff ect</w>
B ay</w>
lo ad</w>
n és</w>
ou gh</w>
dé part</w>
A .
candi date</w>
S S
ap parten
st ability</w>
ph én
re over</w>
rit es</w>
In don
suscepti bles</w>
oc tro
A A
re at</w>
En ergy</w>
r ad
sequ ently</w>
F re
A IN
Fig ure</w>
an y
part nerships</w>
cour ts</w>
trait ements</w>
Conform ément</w>
R adi
mu tu
di vi
ti di
differ ences</w>
PC T</w>
eng age</w>
st es</w>
recommand é</w>
commerci ale</w>
s exe</w>
det te</w>
Nou veau</w>
D ro
spéci ales</w>
commun es</w>
Ar gen
sh aring</w>
att a
so on</w>
fourn is</w>
jo int
speci fically</w>
Or der</w>
si è
Contro l</w>
commun ic
U C
acti f</w>
un es</w>
f um
reco very</w>
ot echn
contr acts</w>
di minu
religi on</w>
i dée</w>
Commiss aire</w>
reç o
ab use</w>
défin ir</w>
h az
invol vement</w>
D u
0 3
h ouse</w>
par le</w>
E L</w>
par venir</w>
én erg
a ther</w>
pouv ant</w>
Recomm end
2 12</w>
fronti ères</w>
in fl
particip ating</w>
di rig
Nov a</w>
j eux</w>
anti cip
Strat égi
mo vement</w>
P ur
acti fs</w>
par ole</w>
fu sion</w>
Trés or</w>
di tion</w>
T reasury</w>
réparti tion</w>
pr êts</w>
accep ted</w>
é m
auth or</w>
EN T
ac teurs</w>
proc éder</w>
exc ept</w>
Th e
j ects</w>
évalu ations</w>
represent ed</w>
G I
distric t</w>
pour centage</w>
improv ement</w>
min d</w>
per te</w>
C as
transpar ence</w>
e es</w>
U se</w>
continu ing</w>
E valuation</w>
v r
possibil ity</w>
ach at</w>
log ici
Leg al</w>
call s</w>
acc ur
tradi tion</w>
K en
excell ent</w>
pai ements</w>
Un it</w>
in dispens
d ly</w>
particip ant</w>
su jets</w>
re viewed</w>
M any</w>
Regi on</w>
el ine</w>
fr ont</w>
consul ter</w>
atte int</w>
Am bass
l ate</w>
collectiv ité</w>
b in
si onn
medi um</w>
observ ed</w>
ear lier</w>
Acc ess</w>
www. un.org</w>
con forme</w>
suffis amment</w>
signific antly</w>
W at
démocrati e</w>
sem aines</w>
compl ément
es te</w>
sibil ité</w>
camp agne</w>
comp t
Dem ocratic</w>
av oc
gr ave</w>
6 00</w>
G H
K y
prév us</w>
C A</w>
représent ent</w>
f eu</w>
s ale</w>
sh ared</w>
Sustain able</w>
compr ennent</w>
perman ente</w>
fil ed</w>
én aire</w>
high ly</w>
t esting</w>
M rs</w>
de ed</w>
de ploy
ouver te</w>
P T</w>
consu mer</w>
Commun ication</w>
f ab
mo ve</w>
L ond
associ és</w>
ap pointed</w>
identi té</w>
Ital y</w>
g ue</w>
p .
second ary</w>
num bers</w>
R ech
entre pren
1 A</w>
D ar
impl ications</w>
S U
ré serves</w>
alim entation</w>
sti c</w>
per c
augment é</w>
aw ay</w>
appoint ment</w>
Roy al</w>
atis tical</w>
Per form
O f</w>
ne ar</w>
V is
augment er</w>
do ing</w>
eu m</w>
FO R</w>
s in
présent és</w>
re traite</w>
sub ventions</w>
élè ves</w>
al o
UN DP</w>
adv ance</w>
pass age</w>
announc ed</w>
Indi a</w>
par c</w>
inter ested</w>
r i</w>
recogni tion</w>
o ir</w>
it ary</w>
consoli dation</w>
ser t</w>
m auv
out comes</w>
clo sed</w>
ay er</w>
C D
ret our</w>
ob tenu</w>
t ask</w>
ag ré
Th ere
Produc ts</w>
S ing
nuclé aire</w>
ver b
fu el</w>
ain c
fu t
se z</w>
él arg
trav ers</w>
No tre</w>
atmo sph
Sum mary</w>
ori al</w>
dem ocratic</w>
montr é</w>
R ess
sep t</w>
tex tes</w>
ex empl
im ages</w>
Doc uments</w>
l on
persp ectives</w>
198 6</w>
pourr a</w>
collec te</w>
al ty</w>
véhic ule</w>
C F</w>
ven us</w>
piè ces</w>
tel e
ul ed</w>
mat ern
Som met</w>
m ée</w>
V e
en ch
tox ic
car te</w>
T u
A F</w>
in dex</w>
teri al</w>
un less</w>
th ings</w>
aux quels</w>
D en
si e</w>
ri ting</w>
tem per
elim in
def ence</w>
mo i</w>
p ét
ér on
ethni c</w>
vis ées</w>
J am
lum ière</w>
dump ing</w>
meil leur</w>
utilis ée</w>
elec tions</w>
I A</w>
tribun aux</w>
europé ennes</w>
W ater</w>
TR ANS</w>
affec tation</w>
ographi c</w>
as ks</w>
fil m</w>
Ter re</w>
is ting</w>
premi ers</w>
quo tidi
respon d</w>
ho od</w>
for um</w>
ou est</w>
l ess
fil les</w>
pati ent</w>
fin ance</w>
Add .1</w>
H am
E M</w>
b ases</w>
cop y</w>
Lim ited</w>
Ma j
M E</w>
acc order</w>
exécuti f</w>
w aste</w>
dang er</w>
avo id</w>
ér ance</w>
ci de</w>
por tion</w>
port é</w>
b s</w>
busin esses</w>
Scho ol</w>
comb us
adop t</w>
Fish eries</w>
M y
limin ary</w>
ch ô
jus qu</w>
considér ation</w>
1 50</w>
abin et</w>
minor ités</w>
P ay
trans portation</w>
examin ation</w>
Intro duction</w>
categ ory</w>
part age</w>
an der</w>
St .</w>
cho se</w>
an moins</w>
quanti té</w>
corpor ate</w>
g ag
culturel s</w>
f arm
exig e</w>
4. 1</w>
O ri
T un
cad res</w>
T i
Her itage</w>
s chem
x embour
Rel ations</w>
mul ti</w>
O SCE</w>
po ids</w>
vis és</w>
plain te</w>
fun ded</w>
d û</w>
Paci fique</w>
show s</w>
éri ques</w>
Af in</w>
appli es</w>
D eu
Á Á
considér é</w>
dru gs</w>
3. 2</w>
F ri
Sco tia</w>
élimin er</w>
neg ative</w>
f are</w>
lin k</w>
effectu é</w>
l eng
tri c</w>
Ar c
Ress ources</w>
gr ant</w>
volun tary</w>
Ar ticles</w>
Ne ther
1 .</w>
O ce
st atistics</w>
H y
Cer tains</w>
forc ed</w>
R is
hibi tion</w>
fr au
éché ant</w>
onn ées</w>
am én
j an</w>
Administr ative</w>
fin dings</w>
cu l</w>
certi fication</w>
F u
plann ed</w>
pl ant</w>
compl et</w>
se au</w>
Bu il
inter nes</w>
caus ed</w>
ati es</w>
Ital ie</w>
wel come</w>
alis m</w>
M aur
sub mission</w>
appe ar</w>
ni a</w>
off icer</w>
high est</w>
soli dar
Nether lands</w>
m ass</w>
gé rer</w>
se quent</w>
j obs</w>
s enti
W G
E E</w>
provinci aux</w>
bi ais</w>
adop tées</w>
as p</w>
se a</w>
net works</w>
l ati
m ér
monit or</w>
in vo
met tant</w>
ve ts</w>
exten sion</w>
ologi es</w>
Si erra</w>
M id
PN UD</w>
long ue</w>
b loc
exerc er</w>
Ad option</w>
M P
instruc tion</w>
H un
s en</w>
cru cial</w>
chang ed</w>
0 2
P at
compl aint</w>
on ia</w>
is é</w>
approvisi onnement</w>
em ed</w>
Rech er
protec ted</w>
indi quer</w>
There fore</w>
appli quent</w>
Stat us</w>
ari b
v ation</w>
Res ul
A l</w>
achiev ing</w>
peace keeping</w>
proc ès</w>
ir a</w>
aff ili
v aste</w>
er ve</w>
Al g
Bra z
Ch ris
Au to
cont acts</w>
M AR
R ules</w>
immedi ately</w>
dé lais</w>
deleg ations</w>
onn el</w>
inv ent
fac tor</w>
Sp ain</w>
réper cussions</w>
go v
li e</w>
souha ite</w>
con vic
G ar
fo rest</w>
aur ont</w>
dow n
Annu al</w>
L in
P H
dé tention</w>
Pro pos
ir ation</w>
E ach</w>
visib le</w>
av ut</w>
considé rée</w>
ai ms</w>
édi tion</w>
AC .
me an</w>
discus s</w>
appell ant</w>
reg rou
port ent</w>
em or
alim entaires</w>
anis h</w>
expend itures</w>
Mo reover</w>
univer sit
men ace</w>
n on
iti é</w>
dé pu
clo sely</w>
se ek</w>
I F
temp ér
G estion</w>
tic ally</w>
ot ed</w>
v .</w>
inf ection</w>
t abliss
av ing</w>
am a</w>
utilis ant</w>
E as
f low</w>
H CR</w>
ving t</w>
competi tive</w>
N ic
acc o</w>
ex ec
N eu
gr ade</w>
expend iture</w>
ro w</w>
In uit</w>
ar ily</w>
m erc
Fin ally</w>
b is</w>
défin iti
w riting</w>
ow er</w>
Stratégi e</w>
destin ation</w>
P al
work ed</w>
sen ior</w>
t onnes</w>
accoun tability</w>
hear ing</w>
part ner</w>
a .m.</w>
Gre at</w>
ti ens</w>
com préhen
nor me</w>
Pre vention</w>
man agers</w>
velopp ement</w>
O L
incl ure</w>
ne ver</w>
devr a</w>
histori que</w>
por teurs</w>
so ftware</w>
EN TS</w>
per mit</w>
re pe
m ol
rel and</w>
ail way</w>
entre tien</w>
dem eure</w>
In te
Me dia</w>
électron iques</w>
ent rer</w>
export ations</w>
cas ting</w>
CI HR</w>
iss on</w>
B ang
charg ée</w>
ins cription</w>
to ol</w>
iter ran
knowle dg
prepar e</w>
pré sidence</w>
annu elle</w>
int éri
l as
cô té</w>
tend ance</w>
bre ak
struc tu
reconn u</w>
di am
compet ent</w>
se x</w>
consid ère</w>
w ood</w>
S ol
on line</w>
consequ ences</w>
foc used</w>
plain tes</w>
fin ances</w>
pen d</w>
C P</w>
sé par
I reland</w>
Mill ennium</w>
intég rée</w>
regi me</w>
it ment</w>
re ducing</w>
Jus tification</w>
tur n</w>
wor d</w>
it ting</w>
im position</w>
questionn aire</w>
Com ment</w>
Wi th
al d</w>
pro xim
R ule</w>
dem eur
dam age</w>
s ound</w>
i ers</w>
Strategi c</w>
pro u
asse z</w>
com ités</w>
import ation</w>
budg étaires</w>
categ ories</w>
f ro
sum mary</w>
professionn el</w>
spéci fique</w>
proch aine</w>
potenti el</w>
jur id
di gn
0 s</w>
M ol
pl at
SER V
Lu xembour
de o</w>
fish ing</w>
por te
gén é
culturel les</w>
C urr
vis ée</w>
p al
B ru
bilat ér
stoc k</w>
Co venant</w>
con serv
ail s</w>
employ eur</w>
élec tor
T M
provisi onal</w>
Pri me</w>
trou ver
pe g</w>
puis que</w>
in king</w>
W A</w>
vir us</w>
Nun avut</w>
r age</w>
re construction</w>
j et
raisonn able</w>
br an
bre vets</w>
pend ing</w>
ac ks</w>
mar ily</w>
dis abilities</w>
Recom man
concern és</w>
li aison</w>
peti te</w>
Stre et</w>
contr ac
co des</w>
lic ences</w>
syst em
Ch aque</w>
siè cle</w>
félic ite</w>
Ass istance</w>
fi elds</w>
au quel</w>
Direc torate</w>
Con tin
lut ter</w>
cop ies</w>
immédi atement</w>
pré limin
Trans portation</w>
hol der</w>
depart mental</w>
Tur key</w>
fabr ic
pron onc
Y outh</w>
expos ure</w>
with dra
V ER
b ar</w>
wee ks</w>
four th</w>
e asi
jud ice</w>
th reat</w>
v el</w>
Con clu
é cl
low ing</w>
B as</w>
Par k</w>
hou se
um es</w>
a éron
y right</w>
bl ess
L aur
Luxembour g</w>
aur aient</w>
cou v
de venir</w>
ren d</w>
sou ligne</w>
Perform ance</w>
mess ages</w>
mo tiv
F oundation</w>
rec ev
Dav id</w>
S a
accoun ts</w>
chem ical</w>
Prov in
P res
Win ni
consum ers</w>
cham p</w>
ec o
premi ères</w>
re present</w>
0. 00</w>
vis ite</w>
inter diction</w>
pp ed</w>
m és</w>
B O
is tic</w>
s auv
th ème</w>
as sign
a .</w>
ro y
j eu</w>
sy mp
conc r
In c.</w>
sh e
ph en
pro hib
présent ées</w>
é vi
différ ences</w>
deal ing</w>
cin quante</w>
ass emb
Austr alia</w>
Tim or</w>
usu ally</w>
Fur ther</w>
élev és</w>
3 3
O H
Slo v
r ace</w>
ch aî
habil itation</w>
me dic
lin ked</w>
pl éni
étudi er</w>
gir ls</w>
pertin ents</w>
Mo st</w>
Premi er</w>
habit ants</w>
A ux</w>
dét ail</w>
we ight</w>
Winni peg</w>
enti re</w>
onn és</w>
Ty pe</w>
Civi l</w>
sur ve
st ay</w>
pri marily</w>
Ar ab
H ab
cre ating</w>
om mun
T ari
Dé f
comport ement</w>
attein te</w>
pro per</w>
pa trimoine</w>
198 0</w>
mo tifs</w>
D r</w>
Ad di
Mon it
advant age</w>
corpor ation</w>
C li
l iter
ac comp
pd f</w>
par fois</w>
se ven</w>
cont ain</w>
D ay</w>
ré clam
men tion</w>
art .</w>
Fam ily</w>
audi ence</w>
M ême</w>
faudr ait</w>
amend ements</w>
acqu is</w>
tempor ary</w>
An y</w>
transi t</w>
d ens
T A
al ign
pro active</w>
Inv est
al le
Mex ique</w>
avail ability</w>
Pro per
ma ison</w>
ref us
pre ven
moder n</w>
pouv ait</w>
IR SC</w>
pos sibles</w>
Paragrap h</w>
actu elles</w>
haus se</w>
préal able</w>
sch ed
essenti ellement</w>
cultu rel</w>
o is
transpar ency</w>
onn er</w>
perf ecti
Dé penses</w>
fr ag
resear chers</w>
dem ocracy</w>
loc ale</w>
W el
n or</w>
nom in
allow s</w>
professi on
si ght</w>
per centage</w>
b ande</w>
l égi
contin g
conn u</w>
del à</w>
Comp te</w>
U K</w>
previ ously</w>
cor po
satell ite</w>
fe es</w>
Le one</w>
ti rer</w>
sé ances</w>
exis t</w>
st ress</w>
recommend s</w>
address ing</w>
S am
sub sequent</w>
ind ication</w>
jurid ic
sé min
cli matiques</w>
d aily</w>
12 0</w>
bi d</w>
in form</w>
F .
Techn ical</w>
on y</w>
cons ent</w>
cour ses</w>
Esp agne</w>
contr aire</w>
es ter</w>
cont re
se ts</w>
de gré</w>
Pop ulation</w>
intég rer</w>
moder n
im possible</w>
y cl
rég imes</w>
t aires</w>
cel lu
affir me</w>
li ves</w>
F P</w>
te m</w>
consu mption</w>
infr action</w>
a trice</w>
iz ing</w>
Proc ed
B ret
innov ative</w>
Guid elines</w>
ext ended</w>
vi e
C are</w>
ti l
Bel gi
vo i</w>
commiss aire</w>
uc tion</w>
fac teur</w>
thè se</w>
reg ards</w>
compr en
spéci aux</w>
P P</w>
ac he
em por
sen se</w>
g ains</w>
Rec o
T V
A zer
situ é</w>
facil ity</w>
rembour sement</w>
att én
modi fié</w>
H is</w>
an des</w>
class es</w>
H u
territ ories</w>
ç ons</w>
gestionn aires</w>
vi ous</w>
exc essi
res truc
en ough</w>
v illes</w>
second aire</w>
nou vel</w>
pro long
Comm erce</w>
P our
St atisti
élec tri
établi s</w>
garanti e</w>
acc rue</w>
compl y</w>
im migrants</w>
larg est</w>
set tlement</w>
abs olu
C ré
u er</w>
religi ous</w>
cho ice</w>
s por
ret rou
conv ainc
r ying</w>
ass ure</w>
sec ure</w>
recru tement</w>
qu ez</w>
uti li
d Ã</w>
compu ter</w>
ô ts</w>
établi e</w>
I B
arr êt</w>
li br
is ations</w>
préc ise</w>
ti ère</w>
P lu
h un
Par mi</w>
chem in</w>
esti mates</w>
main ly</w>
0 6
sk i</w>
fourn iture</w>
dou te</w>
ati c
Oper ations</w>
C O</w>
Ir lande</w>
ad joint</w>
Ch air</w>
è lement</w>
Cust oms</w>
Fi f
Poli tique</w>
lim its</w>
ouv rir</w>
Fin ance</w>
o k
form ulation</w>
D F
si ège</w>
confi dence</w>
con ç
R w
diver si
3 5
vo ix</w>
chac une</w>
Re ports</w>
ent ement</w>
sid ency</w>
vo is
réc eption</w>
sim plement</w>
rév él
cos se</w>
aj out
V ol
ci bl
In de</w>
ec e</w>
C ase</w>
multilat eral</w>
con fron
de z</w>
S w
ad s</w>
identi fier</w>
bi en
dé pendant</w>
le ge</w>
culturel le</w>
pl ants</w>
h uit</w>
ég al</w>
ess ed</w>
SI ON</w>
pos er</w>
procu rement</w>
nutri tion</w>
limit ée</w>
fail ure</w>
U p
GO s</w>
st a</w>
dé mi
respecti vement</w>
empê cher</w>
organis ée</w>
el i</w>
réguli èrement</w>
hum ain</w>
Premi ère</w>
cent ury</w>
équ itable</w>
anim al</w>
con join
commenc é</w>
pat ent</w>
appropri ées</w>
D et
st e</w>
guarante e</w>
fi ght</w>
bre v
Azer b
tr ue</w>
an dum</w>
L ou
Contr acting</w>
titul aire</w>
spe ak
offici elle</w>
E tat</w>
refuge es</w>
New found
Tur quie</w>
G .</w>
C ô
dé crit</w>
dis armament</w>
cal cul</w>
qu it
le ts</w>
actu els</w>
D iv
D an
g ress</w>
individu s</w>
produc ers</w>
uti les</w>
dirige ants</w>
efficac ement</w>
n our
R ES</w>
gi es</w>
Ex cell
encour aged</w>
Syst ème</w>
min ority</w>
fab ri
fi ées</w>
elec ommun
pres que</w>
Resul ts</w>
anni vers
ob tenus</w>
f all
I denti
arab e</w>
ar di
complain ts</w>
SC O</w>
bec ame</w>
S on</w>
rec orded</w>
e y
D raft</w>
respecti vely</w>
ti ss
gosl av
V E</w>
g en</w>
Newfound land</w>
signi fie</w>
sû reté</w>
quali fications</w>
mont ants</w>
contr act
ent endu</w>
than k</w>
op ti
re fer</w>
fond é</w>
distinc tion</w>
TI ONS</w>
T an
ad re</w>
program ming</w>
horiz on
th ir
N E
Inv esti
veu t</w>
In t
gam me</w>
in j
Proper ty</w>
Recher che</w>
high ligh
A ve
W TO</w>
t our</w>
Dé veloppement</w>
Nom bre</w>
budg ets</w>
élabor é</w>
val oir</w>
datab ase</w>
requ is</w>
memb ership</w>
for êts</w>
mar ques</w>
médic aux</w>
ec i</w>
en ab
traff ic</w>
su pr
A tt
an ties</w>
metho d
rece iving</w>
Tou tes</w>
mor t</w>
r un</w>
interpre tation</w>
li es</w>
constitu tion</w>
it ations</w>
as tes</w>
Cham bre</w>
enti tés</w>
2 2
éti qu
li ti
Mon tre
Y ear</w>
pris on</w>
tim ely</w>
U r
bi bli
Auto chtones</w>
amend ement</w>
Deleg ation</w>
ouver ne
ti e</w>
substanti al</w>
re sident</w>
laun ched</w>
7 00</w>
f ast</w>
I E</w>
Ac ti
res sion</w>
diff us
I .
pourr ont</w>
E l</w>
par am
OM C</w>
opin ions</w>
increas ingly</w>
télé vision</w>
targ ets</w>
do c</w>
pow ers</w>
la iss
co tis
sim ply</w>
immedi ate</w>
Nat ural</w>
p ing</w>
i dées</w>
adul tes</w>
present ation</w>
compati ble</w>
ad minis
S wit
Mill énaire</w>
E sti
ag é</w>
pris on
it ent</w>
direc te</w>
admis sibles</w>
ass embl
Sur vey</w>
h ard</w>
import ations</w>
I mp
N GOs</w>
y ers</w>
intellectu al</w>
enter prises</w>
O P
reli ef</w>
compréhen sion</w>
l d
enti ties</w>
don ateurs</w>
Re v
inform er</w>
K ey</w>
C ES</w>
I tem</w>
se as
not é</w>
Ave c</w>
val ence</w>
tend ances</w>
sign é</w>
i an</w>
invest ments</w>
b ot
H ol
w ish
navig ation</w>
cor ps</w>
9 63</w>
conomi es</w>
endro it</w>
b aisse</w>
mo itié</w>
D R
dou b
f .</w>
il at
bilat eral</w>
el ement</w>
F F
gi ving</w>
larg er</w>
Sci enti
a rer</w>
Con cer
sou dre</w>
S chedule</w>
assess ed</w>
é duc
pré parer</w>
ent ered</w>
D on
In surance</w>
u ire</w>
Aus tri
I .</w>
vir tu
super vision</w>
f r</w>
ati vement</w>
oc k
Poli tical</w>
quali fied</w>
character istics</w>
d or
distin gu
budg étaire</w>
c ur
wh om</w>
cour ant</w>
prog ress
mar ks</w>
sou mettre</w>
èg es</w>
vulner able</w>
comm ittees</w>
Lors qu&apos;</w>
t ac
deliver ed</w>
coun ter
b ord</w>
terro r
Ch em
infr actions</w>
cham bre</w>
ex hau
contribu é</w>
r un
M ain
chô mage</w>
dé roul
bu d
appu ie</w>
ri vi
adoles cents</w>
Mo di
extr ê
i v</w>
admis sible</w>
pouv ons</w>
crimin alité</w>
enh anced</w>
lanc é</w>
trou vent</w>
trans form
Dis closure</w>
ó n</w>
r ise</w>
ar a</w>
tr ends</w>
exp ec
autom ob
pay able</w>
accid ents</w>
sm an</w>
i k
Pro vi
terror istes</w>
St aff</w>
sor mais</w>
manufac tu
es day</w>
figur ent</w>
ad j
cu p
F our
ne igh
Austr alie</w>
fi re</w>
tabliss ement</w>
télé phone</w>
fix ed</w>
P RE
c tion</w>
tim ate</w>
a just
urg ent</w>
rec ens
ati n</w>
ar ité</w>
exemp les</w>
can ada
pl en
H igh
Mon t
sched uled</w>
mes ur
Mo y
veu illez</w>
per tes</w>
K u
détermin é</w>
détail s</w>
ix ante</w>
neu f</w>
vis é</w>
P en
rur ales</w>
vi dé
relati vely</w>
correspon d
Pro motion</w>
w il
incre ases</w>
Cul tural</w>
Re ference</w>
beg an</w>
appare ils</w>
mi d
ine ering</w>
ab sor
M ise</w>
excell ence</w>
v ital</w>
bi ennal</w>
C S</w>
ren contr
preu ves</w>
déb ats</w>
M un
ho st</w>
Ass istant</w>
ro und</w>
hol ds</w>
Cri me</w>
Ko rea</w>
essenti els</w>
s él
Tw o</w>
ac commod
T V</w>
ent end</w>
enti er</w>
differ ence</w>
étap es</w>
c ame</w>
é ans</w>
mod els</w>
av y</w>
difficul ties</w>
Pau l</w>
L and</w>
pén al</w>
speci alized</w>
pre v
É cosse</w>
Cal gary</w>
respon ses</w>
I O
remp lir</w>
s ses</w>
identi ty</w>
dé plo
Su per
terroris t</w>
de vices</w>
tâ che</w>
4. 2</w>
or ical</w>
C a
comm is</w>
No tice</w>
w in
Contr act</w>
Montre al</w>
alis me</w>
m ar</w>
estim é</w>
Al ban
Re venue</w>
In f
au che</w>
oblig atoire</w>
Phili pp
activ ement</w>
et age</w>
som me</w>
ban ques</w>
tab ac</w>
ch é</w>
3 6
syn dic
indépend ance</w>
envis ager</w>
déploy és</w>
resul ted</w>
Au dit</w>
représent ation</w>
entraî n
st ress
rel ève</w>
G N
alis t</w>
Su isse</w>
ajou ter</w>
cl ause</w>
mo ts</w>
f le
fe atures</w>
rele ased</w>
de tention</w>
Ab out</w>
gouvernement ale</w>
b ab
dis eases</w>
K 1A</w>
im prim
meille ures</w>
th ers</w>
économi es</w>
substanti ve</w>
re cip
2. 3</w>
Atlanti que</w>
ail le</w>
Swit zer
chang er</w>
Cor ée</w>
el ected</w>
Plu sieurs</w>
le gi
rem pl
ateli er</w>
s pr
pre dic
stoc k
acc ept</w>
témo ign
intégr ité</w>
indispens able</w>
gar anties</w>
sal ari
d life</w>
éch el
Rob ert</w>
car rying</w>
play ed</w>
TR E</w>
Al liance</w>
en vers</w>
pen sions</w>
ph on
S H
D ou
Con se
protoco le</w>
inst ances</w>
Switzer land</w>
établi es</w>
chiff res</w>
alis ts</w>
represent ation</w>
. 2</w>
ch in
pass eng
is ra
examin ed</w>
il legal</w>
environnement ales</w>
administr ations</w>
AN T</w>
CR TC</w>
offici el</w>
saf e
devr ont</w>
d in
ad d</w>
x i
préc is</w>
main tained</w>
parlement aire</w>
P A
ré soudre</w>
lo in</w>
b ound
In dic
per m
re views</w>
Coun tries</w>
T ER</w>
ré serv
fo ot
organ e</w>
man age</w>
ré formes</w>
offer ts</w>
is és</w>
N otes</w>
H ali
trans action</w>
afric aine</w>
chang ing</w>
Le ban
dem ment</w>
re urs</w>
di tions</w>
do se</w>
adress ée</w>
i j
re production</w>
st an</w>
si l
cin qui
di um</w>
mont rer</w>
answ er</w>
o ts</w>
cho ses</w>
Acti vities</w>
véri fier</w>
buil t</w>
tel ephone</w>
combin ed</w>
régl er</w>
Wor k
ou til</w>
E s</w>
fif ty</w>
In nov
commun s</w>
er ro
touch ant</w>
10 5</w>
1 st</w>
Isra eli</w>
stre am</w>
int el
P R</w>
r ation
ten d</w>
dé sormais</w>
acc ession</w>
be an</w>
natu rel</w>
3 7
sym bo
soci o</w>
PM E</w>
dra f
SO C</w>
ou re
appe ars</w>
handicap ées</w>
Me as
sexu elle</w>
N ot
harmon isation</w>
destin ées</w>
N ame</w>
com ed</w>
accompli s</w>
oc cid
ver se</w>
all ant</w>
assess ments</w>
R S</w>
certain e</w>
tre ated</w>
différ ence</w>
prob ablement</w>
consider able</w>
repres ents</w>
Exam en</w>
S au
incid ents</w>
pl aign
exist ants</w>
ré pu
pro vo
av es</w>
Po si
incid ences</w>
proli fér
dimin ution</w>
fi es</w>
coll ected</w>
comb at
inform é</w>
p asse</w>
In st
occ ur</w>
T ask</w>
é rés</w>
ly mp
F N
Braz il</w>
kil om
al ed</w>
b onnes</w>
remain ing</w>
pauv res</w>
ress orti
h es
con joint</w>
municip al</w>
e conomies</w>
présent es</w>
us se</w>
bi ennium</w>
ish ment</w>
liber tés</w>
sup érieure</w>
loo king</w>
h am
al ize</w>
FOR M
rele ver</w>
organis er</w>
C onn
M y</w>
adver tis
tit le</w>
appropri ée</w>
di vul
M E
fin ding</w>
end ent</w>
acti vely</w>
L ist</w>
her itage</w>
leng th</w>
st yle</w>
Sal le</w>
off rent</w>
équi libre</w>
impos ed</w>
ain te</w>
ch ances</w>
F IN
enf ance</w>
ru b
serv ed</w>
g ene
Swe den</w>
8 8
inter action</w>
sur vi
Th us</w>
Ch ange</w>
ré alité</w>
pri me</w>
dec laration</w>
fri end
g ain</w>
ré sid
EN D
not er</w>
cas h</w>
ess or</w>
S pe
in ser
1. 3</w>
Eas tern</w>
fin e</w>
déc ès</w>
i um</w>
Ed mon
conven u</w>
A rea</w>
im pose</w>
bénéfici er</w>
eth ing</w>
phén om
enti èrement</w>
Territ ories</w>
cover age</w>
fo li
compl ex
mobi le</w>
législ atives</w>
Med ical</w>
nav ires</w>
in dépendant</w>
ti ème</w>
st ages</w>
certific at</w>
C an</w>
Part nership</w>
t asks</w>
par d</w>
ter res
o red</w>
0 5
s ac
Div ul
dé grad
fe e</w>
C arib
super vis
Cl assi
oper ative</w>
perform ed</w>
ins crit</w>
Hali fax</w>
Ken ya</w>
sam ple</w>
entre pris</w>
Plann ing</w>
emphasi s</w>
end ers</w>
consid ers</w>
découl ant</w>
pre liminary</w>
su ites</w>
cinqui ème</w>
w al
is tiques</w>
ér ap
ô les</w>
wel comed</w>
rece ip
concre te</w>
pos ts</w>
H .</w>
prolifér ation</w>
tour isme</w>
EU RO
Pro cu
gi ques</w>
Rw anda</w>
Is lam
es h</w>
fem ale</w>
multi ple</w>
expl oration</w>
G ol
tw enty</w>
Cô te</w>
fir ms</w>
g a</w>
st ly</w>
procéd é</w>
M D
m uni
n a</w>
ail l
adv oc
pil ot</w>
B en
administr atif</w>
expres s</w>
si ties</w>
constitu te</w>
In fr
Hab it
Mar ine</w>
contro ls</w>
spéci alistes</w>
h onn
alestin e</w>
1 5.
Lib r
direc teurs</w>
O lymp
Co sta</w>
or al</w>
z a</w>
sec tori
refl ected</w>
N G</w>
chau ff
pr in
Cl ass</w>
sugges tions</w>
U ti
ais es</w>
s é</w>
Ger man</w>
C T</w>
for d</w>
gi ves</w>
fron tali
ch ann
ri v
comple tion</w>
É l
équi pes</w>
fe el</w>
R u
improv ements</w>
re mise</w>
présent ent</w>
P alestine</w>
Mich a
im parti
pr êt</w>
uti l
pour suite</w>
en contre</w>
av or
Russi a</w>
ON AL</w>
4 5
qu ite</w>
fac ult
vill age</w>
viv ant</w>
odi c</w>
No m</w>
pru dence</w>
k in
dom m
Télé phone</w>
dat ée</w>
Cap ital</w>
annonc é</w>
engag ed</w>
oph ob
cri be</w>
mo des</w>
p are
fer ation</w>
bur g</w>
montr ent</w>
Ad v
sp here</w>
famili ale</w>
accor dée</w>
ré sidence</w>
Ex c
g ène</w>
soulign er</w>
M C</w>
CO 2</w>
aux quelles</w>
pro ven
ig ne</w>
Pro active</w>
Indus trie</w>
198 2</w>
Ris k</w>
Manu fac
Monit oring</w>
as ing</w>
app els</w>
I ON</w>
disposi tifs</w>
clim at</w>
environnement aux</w>
Mus eum</w>
négoci ation</w>
financ er</w>
ordonn ance</w>
Z e
oc k</w>
re ally</w>
com porte</w>
feu ille</w>
B enef
R ome</w>
em ark</w>
ch ro
li ée</w>
tur b
préoccup ation</w>
tin a</w>
e ight</w>
Geor gi
appro u
V II</w>
.ht m</w>
behavi our</w>
as y
S I</w>
atic ally</w>
Buil ding</w>
pu ts</w>
actu ally</w>
sub stitu
en a</w>
expos é</w>
b on
inv itation</w>
No t</w>
fac ts</w>
Gr and</w>
nam ely</w>
anci en</w>
pre stat
occa sions</w>
som ething</w>
O ver</w>
ell ed</w>
du ci
Th om
IN C</w>
Paragrap he</w>
N E</w>
op ie</w>
insp ec
c a
fronti ère</w>
Pe ace</w>
purch ase</w>
in put</w>
Program s</w>
R ich
correc t</w>
pack age</w>
pos session</w>
v entes</w>
Appe al</w>
por ters</w>
alis és</w>
Fol lowing</w>
h op
candi dat</w>
B ased</w>
mar ri
Par ks</w>
r ay
sensi tive</w>
met tent</w>
Commiss ariat</w>
nam es</w>
M .
pop ulaire</w>
beg in</w>
emerg ing</w>
n it
3. 3</w>
L L
op tim
stre am
remain ed</w>
in tr
Déf ense</w>
charg és</w>
Philipp ines</w>
exam ples</w>
worksh op</w>
civili an</w>
equi valent</w>
qu in
particuli ères</w>
exten sive</w>
to ire</w>
M ain</w>
susp ension</w>
équ ité</w>
intitul ée</w>
st atistical</w>
tele vision</w>
B rési
fu t</w>
T D</w>
S earch</w>
in suffis
essi onal</w>
rou tes</w>
occ urred</w>
confir med</w>
t ative</w>
Divul gation</w>
fondament ales</w>
ê tres</w>
C lo
alis é</w>
éth ique</w>
ren seign
Indus trial</w>
in fir
th ro
UNE SCO</w>
Edmon ton</w>
Stat ement</w>
détermin ée</w>
par ent</w>
integr ity</w>
arm és</w>
L an
énerg étique</w>
reser ve</w>
Fran ç
F l
contro lled</w>
ég ale</w>
O U
si gn</w>
Stand ards</w>
appropri é</w>
ac adem
A B</w>
pré voir</w>
concl ure</w>
L atin</w>
y ed</w>
hear t</w>
r ont</w>
sou lev
éléc opi
Prov ince</w>
mean ing</w>
3 9
W ash
elecommun ications</w>
ré sidents</w>
t age</w>
ateli ers</w>
ri d</w>
ad ic
Mes ures</w>
Comm on</w>
pharmac eu
bénéfici aires</w>
Su ède</w>
hol ding</w>
in no
Av ant</w>
fig ures</w>
enregistr é</w>
Le ad
Dru g</w>
Ré sul
contribu ted</w>
achiev ement</w>
al one</w>
ra ise</w>
con ferences</w>
effectu ées</w>
campai gn</w>
pres cribed</w>
min eurs</w>
B ec
conflic ts</w>
ass ist
ay ing</w>
Mid dle</w>
è tre</w>
sti pul
élev ée</w>
Neu ve</w>
. asp</w>
st en
vulnér ables</w>
meil leurs</w>
dit or</w>
multi ples</w>
éc ou
8 5
isra éli
ré dig
V eu
IN TER
vi ation</w>
graphi que</w>
f ice</w>
rec ouv
bl er</w>
bi otechn
ex ports</w>
E r
AU X</w>
P M</w>
disposi tif</w>
bour g</w>
tre aties</w>
pr ennent</w>
see king</w>
Brési l</w>
è mement</w>
fo re
Inter nal</w>
anci ens</w>
main taining</w>
ét en
correspon dant</w>
continu ent</w>
des p
st abil
k i</w>
ter ing</w>
ti endra</w>
F .</w>
O r</w>
n ings</w>
Pré sidente</w>
de emed</w>
chap ter</w>
ég ét
s ports</w>
198 4</w>
Habit at</w>
am i
Ch in
sp ir
B ou
statisti que</w>
long temps</w>
re sidence</w>
al .</w>
z i
under taking</w>
man aged</w>
précéd ent</w>
rais ing</w>
Te am</w>
k o</w>
lat ter</w>
us h</w>
M I
tax ation</w>
effecti f</w>
li é</w>
peri ods</w>
under take</w>
is ons</w>
Sec tor</w>
univers ités</w>
ide a</w>
transpar ent</w>
men ée</w>
ic als</w>
oth èque</w>
b and</w>
Provin cial</w>
determin ing</w>
pren ant</w>
ma î
ar c
part out</w>
Rel ated</w>
mu tual</w>
ch ing</w>
es tre</w>
Veu illez</w>
ill er</w>
S R
as signed</w>
f low
I ts</w>
expéri ences</w>
C abinet</w>
ét ats</w>
scol aire</w>
desp ite</w>
précéd ente</w>
ro un
Head quarters</w>
num erous</w>
gr o</w>
tari ff</w>
or g
B ill</w>
stor age</w>
la c</w>
rem placement</w>
sp ending</w>
profession als</w>
permet tr
Ob serv
compag nie</w>
st on</w>
c éré
al ph
mach ines</w>
app elle</w>
Coordin ation</w>
concern ées</w>
accoun ting</w>
énonc és</w>
E qu
2. 5</w>
car bon</w>
ic he</w>
inter rog
ak h
op ening</w>
N .
fer a</w>
tradi tionnels</w>
up dated</w>
Se ver
sid ential</w>
hô p
c m</w>
ad vis
am pl
ti tres</w>
B R
an o</w>
cellu les</w>
Dem ande</w>
mentionn é</w>
correspon d</w>
deci de</w>
EC D</w>
2 .</w>
Th ird</w>
conform es</w>
âg ées</w>
tempér ature</w>
CO R
relation ships</w>
er ation</w>
S ession</w>
pan el</w>
L ors</w>
CN U
custom ers</w>
ro c
ten sion</w>
ind ications</w>
cong é</w>
exc éd
t ting</w>
T I</w>
L ev
t ons</w>
reconna ît</w>
SERV IC
im ports</w>
w an
p aci
O m
exist antes</w>
ach et
i dé
è ce</w>
im pu
d ite</w>
CM P</w>
Wash ington</w>
Lond on</w>
he ard</w>
ent ail</w>
tempor aire</w>
aéri en</w>
utilis e</w>
Carib bean</w>
expli que</w>
v égét
so il</w>
dimen sions</w>
investig ations</w>
ét er</w>
uc tu
ni ght</w>
Bur undi</w>
no tion</w>
Su b</w>
Ori ent</w>
ste in</w>
humanit aires</w>
g er
anim als</w>
constitu er</w>
off ence</w>
olog ne</w>
In dex</w>
ai ment</w>
judici aires</w>
20 11</w>
eng ager</w>
enjo y</w>
concep ts</w>
k o
destin é</w>
fr ancoph
spe aking</w>
ac knowledg
W ar</w>
Au tor
or es</w>
car tes</w>
am b
c er</w>
hy dr
vo ies</w>
Col lege</w>
l aid</w>
CN. 4</w>
jug es</w>
intéress és</w>
propos ée</w>
f ers</w>
cust oms</w>
avo irs</w>
sel ling</w>
Vic tori
G ra
po issons</w>
élécopi eur</w>
re si
reven ue</w>
proper ly</w>
Hon ourable</w>
e able</w>
Belgi um</w>
Se a</w>
bi om
in ée</w>
autoris é</w>
J ord
W illi
ac ul
s end</w>
P ress</w>
to wn</w>
ins crire</w>
s or</w>
effectu ée</w>
S B
préc iser</w>
ag nes</w>
ed oms</w>
mi ti
milli ers</w>
experi ences</w>
Inte gr
t ch
temper ature</w>
M S</w>
apparten ant</w>
in jury</w>
dipl ô
B re
Sci ences</w>
esp ère</w>
FA O</w>
ment ale</w>
form ule</w>
è gues</w>
Infr astruc
cop ie</w>
5. 1</w>
vis ent</w>
dé tenus</w>
sél ecti
er ance</w>
compl exe</w>
tric ité</w>
fer me</w>
dang ere
F R</w>
C z
vi deo</w>
gan da</w>
ch ance</w>
rati o</w>
form ed</w>
qu ick
de fau
Cham ber</w>
0 8
crimin ation</w>
doll ar</w>
Sm all</w>
coll ègues</w>
ic t</w>
provi ders</w>
C H</w>
we alth</w>
im ag
compl exes</w>
inté gré</w>
e ties</w>
fu tures</w>
ow ned</w>
col on
C AR
certific ate</w>
honor able</w>
sé qu
Invest ment</w>
domm ages</w>
priv és</w>
B asi
commerci alisation</w>
at em
étro ite</w>
indi quent</w>
appreci ation</w>
M ag
A no
T é
fif th</w>
vari ables</w>
Issu es</w>
fish eries</w>
canada .gc.ca</w>
in dependence</w>
gener ation</w>
priv acy</w>
é b
expos és</w>
li s</w>
exten d</w>
oc curr
satis faire</w>
É qui
contrô les</w>
s on
bil ité</w>
E gyp
lim iter</w>
dom icile</w>
propos ées</w>
lear n</w>
incorpor ated</w>
répon dants</w>
démar che</w>
do or</w>
P ass
ing ing</w>
obstac le</w>
ver th
ab u
Qu ality</w>
considér ablement</w>
par all
extra ordinaire</w>
Di ff
v ité</w>
verth eless</w>
nom s</w>
améric ain</w>
attach ed</w>
D .
contin ent</w>
co opér
bud sman</w>
iss ait</w>
th u
dou anes</w>
invol ve</w>
direc ted</w>
fer red</w>
pai r</w>
head ing</w>
star ted</w>
é mission</w>
ban ks</w>
acc éder</w>
re placed</w>
proch ain</w>
ext rem
assu jet
S UR</w>
P U
sum mer</w>
raci ale</w>
s ond
Bel gique</w>
affir mé</w>
complain ant</w>
exemp tion</w>
dra wn</w>
effecti vement</w>
É tant</w>
rec ycl
organiz ational</w>
valid ité</w>
géographi que</w>
dig ital</w>
sé jour</w>
effectu és</w>
ide as</w>
nor thern</w>
mo t</w>
S o</w>
sû r</w>
reconna ître</w>
cons entement</w>
o zone</w>
al located</w>
D istr
M é
n ur
clin ical</w>
e br
B et
Gu atem
É valuation</w>
ch ev
in gu
consci ence</w>
enseign ants</w>
Cul ture</w>
re sidents</w>
li ability</w>
Pr acti
du les</w>
acquit ter</w>
Ro ad</w>
in sul
it ée</w>
R ed</w>
suiv ent</w>
3 4
L ear
ap e</w>
ti veness</w>
man ie</w>
M er
Pers ons</w>
F ree</w>
recru itment</w>
Su dan</w>
om b
pers ist
fic es</w>
in o</w>
radio diffusion</w>
De part
L aw
V ene
n esses</w>
Nor way</w>
fi duci
th west</w>
tour ism</w>
spe ed</w>
d an
Syst ems</w>
b anc
d é</w>
t ourn
men aces</w>
franç aise</w>
O R</w>
fic it</w>
ab road</w>
rédu it</w>
Obj ecti
perfecti onnement</w>
Mic ro
M s</w>
l our
M ENT</w>
accord é</w>
targ eted</w>
tion ally</w>
réalis é</w>
travaill ent</w>
demonstr ated</w>
Sup pl
au lt</w>
contribu ting</w>
onn é</w>
pro che</w>
rej ected</w>
san ds</w>
auth or
M AN
Ano ther</w>
accum ul
recogni ze</w>
dis ability</w>
pre gn
extrê mement</w>
at l
T ob
10 ,
manufac tur
eas y</w>
chois ir</w>
quar ter</w>
disponib ilité</w>
accompag n
In cre
Gr âce</w>
Gr ande</w>
G L
Analy sis</w>
pério des</w>
ul l</w>
en ship</w>
Scienti fic</w>
flo or</w>
elec toral</w>
er aient</w>
internation ally</w>
M I</w>
constat é</w>
sou tenu</w>
Déc ision</w>
Classi fication</w>
1. 5</w>
a po
o to</w>
all em
Pi erre</w>
W al
t ête</w>
struc tion</w>
v end
aî t</w>
E P</w>
élec tricité</w>
orient ations</w>
initi ated</w>
compos é</w>
O .</w>
per form</w>
Em erg
O ECD</w>
Th ose</w>
H R
r ait</w>
Tou te</w>
inter governmental</w>
m asse</w>
entrepren eurs</w>
is ées</w>
sou ght</w>
compét entes</w>
K B</w>
th ly</w>
demonstr ate</w>
techn ological</w>
Ac tiv
priv ées</w>
ow nership</w>
bri dge</w>
IT Y</w>
continu era</w>
K az
inv ité</w>
worksh ops</w>
heal thy</w>
Res olution</w>
mal gré</w>
Priv acy</w>
ple ine</w>
univers al</w>
lu m</w>
Mad ame</w>
ent entes</w>
identi fying</w>
calend rier</w>
trad uction</w>
UR E</w>
lo ro
en dum</w>
fail ed</w>
Mark et</w>
Mol do
particip ated</w>
re forms</w>
vér itable</w>
isl am
è tement</w>
peri odic</w>
Im migration</w>
matéri aux</w>
al ties</w>
P endant</w>
Y our</w>
ful f
réc ente</w>
offici els</w>
a tre</w>
pow er
lim itation</w>
mort alité</w>
cris es</w>
off ences</w>
a trices</w>
chec k</w>
améric aine</w>
j un
f res
mou vement</w>
friend ly</w>
extrem ely</w>
198 1</w>
esti val</w>
endr ait</w>
journ ée</w>
aut our</w>
déf i</w>
ann ul
regrou p
enti ty</w>
th es
back ground</w>
indic ates</w>
Victori a</w>
compl et
ain ts</w>
pré voy
lo st</w>
G h
dev aient</w>
épo que</w>
Austri a</w>
ment ation</w>
ci ties</w>
co op
Chair person</w>
bi ologique</w>
m él
facil ement</w>
der a</w>
a it
sm enti
restaur ant</w>
fur n
a .
mot eur</w>
su smenti
dynam ique</w>
val id</w>
Libr ary</w>
Comm unities</w>
onn age</w>
Un der
fel t</w>
cy cl
ci des</w>
re ve
appro ches</w>
S e</w>
Bang lad
at o
catastroph es</w>
pass ant</w>
L iste</w>
po isson</w>
gr ants</w>
s qu
N RC</w>
En cour
industri elle</w>
threat s</w>
4 7
particip ent</w>
suppli es</w>
inform atique</w>
modi fied</w>
m oun
infir mi
equ ity</w>
dro gue</w>
Fr anc
charg ed</w>
del iver</w>
P eter</w>
budg etary</w>
Organ iz
adver se</w>
E ur
Stand ard</w>
bir th</w>
consac ré</w>
g ence</w>
flu x</w>
requér ant</w>
fix e</w>
comp il
Ren seignements</w>
équip ements</w>
pap ier</w>
Re ques
musi que</w>
Ré seau</w>
ré action</w>
C amp
end ors
public ité</w>
distribu ted</w>
F il
r ance</w>
pét role</w>
AC T</w>
ol der</w>
T it
exprim é</w>
fer ro
Islam ic</w>
Dis crimination</w>
fédér ales</w>
pê ches</w>
Su ite</w>
-------- --------
Stu dies</w>
read ing</w>
voy ag
b an</w>
coordin ated</w>
ac he</w>
de p
Sp anish</w>
e v</w>
éri a</w>
min orities</w>
e ded</w>
ici ans</w>
dispu te</w>
inst amment</w>
out lined</w>
Guatem ala</w>
manufac turing</w>
I voire</w>
bri ef
ra i</w>
reç ues</w>
le ver</w>
b us</w>
quick ly</w>
ax ée</w>
É R
exclu sive</w>
AG E</w>
se v
si xième</w>
h aps</w>
estim ations</w>
uni versity</w>
professionn elles</w>
un g</w>
c ell</w>
out standing</w>
ind ex
fo rec
5 9
cli ent
aéri enne</w>
0 7
emb all
G al
un employment</w>
étrang ère</w>
program mation</w>
Infrastruc ture</w>
ch al
reven ues</w>
ch lor
sp i
ti an</w>
mark ed</w>
ph r
appare il</w>
prélimin aire</w>
S et
arrang ement</w>
cour riel</w>
P rés
Sen ior</w>
In come</w>
n .
amélior ations</w>
insc rits</w>
Cer tain
Cont ents</w>
2. 4</w>
fi able</w>
octro i</w>
ty p
Im prov
télé communications</w>
vr aiment</w>
ad ing</w>
int ol
inc enti
de tec
fir m</w>
Rom ania</w>
migr ant</w>
cl air</w>
lat est</w>
palestini en</w>
g ol
ser vent</w>
employ eurs</w>
exp ul
blo od</w>
lic ens
Pl ans</w>
sent ence</w>
I s</w>
favor able</w>
accid ent</w>
Est ablis
consider ing</w>
Tur k
Banglad esh</w>
accep ter</w>
D A
car di
Distr ict</w>
requ ises</w>
ry th
l ecture</w>
ograph ical</w>
H om
T .</w>
strong ly</w>
N et</w>
é vo
sep tième</w>
en jeux</w>
expl an
AN CE</w>
un anim
ex cl
carb one</w>
g g
N ATI
v an</w>
R appelant</w>
ber g</w>
mé th
f oun
transfer red</w>
re b
habitu ellement</w>
Fin land</w>
dé lin
Ch ang
pres er
T U
Vene z
C I</w>
S EC
clai med</w>
fac ing</w>
Micha el</w>
ent endre</w>
é vidence</w>
th èmes</w>
î le</w>
Radi o</w>
bu ts</w>
c ard</w>
ois eaux</w>
dis closure</w>
num érique</w>
P ort</w>
ari o</w>
ver e
En ter
sol v
st ade</w>
dit ors</w>
st ood</w>
w ait</w>
manifest ations</w>
B ah
care er</w>
W o
v otes</w>
échantill ons</w>
Proc ess</w>
mon o
scre ening</w>
ro les</w>
Nor v
experi enced</w>
proch aines</w>
considé rer</w>
simul tan
suff isant</w>
C adre</w>
Pro duction</w>
inv ités</w>
voy ages</w>
barri ers</w>
ti r</w>
S an</w>
00 7</w>
én um
some times</w>
J .
tob acco</w>
t on
lis ts</w>
Trans ports</w>
e ves</w>
Canadi ennes</w>
musi c</w>
Li ens</w>
éri r</w>
Cz ech</w>
S D
bi d
arg uments</w>
Mil itary</w>
N u
Pe ace
dec line</w>
r ent
On ly</w>
enh ancing</w>
ue la</w>
Pol and</w>
maxim ale</w>
carri ère</w>
sugg est</w>
mon étaire</w>
Cro wn</w>
J ames</w>
lim ité</w>
M A</w>
Cour riel</w>
ar ance</w>
Moldo va</w>
st op</w>
men é</w>
G DP</w>
nom mé</w>
cht one</w>
vers ement</w>
respon dents</w>
Ho sp
ê t
di ed</w>
deman deur</w>
govern ing</w>
inter net</w>
volun te
Fun ding</w>
rac isme</w>
cl é</w>
aci d</w>
decre ase</w>
inter n
st aff
dis cre
M A
ten eur</w>
ab us</w>
dra w</w>
incid ent</w>
Au tric
mak ers</w>
fac es</w>
bi ologiques</w>
alis ée</w>
www .c
jeun esse</w>
re iter
ther ap
amén agement</w>
Man ager</w>
prim aire</w>
Gaz a</w>
Particip ation</w>
ordin ary</w>
Mad rid</w>
prior itaires</w>
and ed</w>
modifi ée</w>
measu red</w>
argu ment</w>
B ell</w>
cro ss
excep tions</w>
É S</w>
se ems</w>
G iv
k en</w>
AL E</w>
ré sumé</w>
im pression</w>
de vice</w>
ON N
plen ary</w>
TI C</w>
valu able</w>
S em
direc ts</w>
teach ers</w>
adv anced</w>
Activ ités</w>
simil aires</w>
Uti lis
Dis tribu
P as
Ar t</w>
Norv ège</w>
S truc
Th rough</w>
pre me</w>
contribu e</w>
gro s</w>
E v
n in
mi lieux</w>
G é
Govern or</w>
Asi an</w>
réglement aires</w>
aff airs</w>
appel é</w>
ld wide</w>
mondi alisation</w>
Car aï
rivi ère</w>
fac ile</w>
car bur
f ur</w>
cli matique</w>
10 1</w>
E .
s ays</w>
enn a</w>
B oth</w>
men u</w>
cont empor
g ave</w>
ali tion</w>
AN N
S én
v ont</w>
Q ue</w>
déplo i
de vez</w>
Contribu tions</w>
PI B</w>
del ay</w>
couver ture</w>
judg es</w>
all ou
spécialis ées</w>
pléni ère</w>
expl ained</w>
ass es</w>
es ia</w>
fé rer</w>
1 4.
Rou manie</w>
e igh
Moy en</w>
cons is
vit esse</w>
m ère</w>
médec ins</w>
Gaz ette</w>
fr uits</w>
Chap itre</w>
formul ées</w>
appl ying</w>
B ib
N AT
con version</w>
G l
acul ture</w>
Com man
Trav el</w>
star ting</w>
S hi
Recommend ation</w>
am ine</w>
limin ation</w>
l ec
Res ource</w>
Autric he</w>
arm ées</w>
func tioning</w>
piè ce</w>
établi t</w>
remerci er</w>
archit ecture</w>
O rig
pil ote</w>
TI C
Dru gs</w>
ar ising</w>
Rec alling</w>
struc tural</w>
9 00</w>
contribu ent</w>
stress ed</w>
mi d</w>
considé rés</w>
parl er</w>
help ing</w>
ré el</w>
oll ic
becom ing</w>
K no
G O</w>
IT É</w>
val s</w>
inf érieur</w>
v es
pré visions</w>
opti mis
ho l</w>
fé min
Ky oto</w>
Caraï bes</w>
initi ale</w>
Ph ase</w>
Bo li
ex primer</w>
é pi
en de
D eux</w>
ro gation</w>
R CMP</w>
rapp elle</w>
ple ased</w>
M D</w>
cont ain
ap parti
peace ful</w>
sup érieurs</w>
con vi
adap ter</w>
obj ets</w>
mort ality</w>
u rer</w>
.. ..</w>
deploy ment</w>
Li fe</w>
est y</w>
hist orical</w>
m acro
fil ing</w>
échantill on</w>
Giv en</w>
dispos al</w>
Corpor ate</w>
al and</w>
annu els</w>
s chedule</w>
raci al</w>
em placement</w>
extr a</w>
re medi
effecti fs</w>
as h</w>
enti té</w>
The ir</w>
tr ack</w>
intéress ées</w>
ne ws</w>
atti tude</w>
G ST</w>
CE D</w>
th érap
e ant</w>
employ ers</w>
évén ement</w>
s per
const ant</w>
un able</w>
UN CT
ail ing</w>
vi g
inst e
bi ological</w>
Sp ace</w>
W ar
brev et</w>
en rich
cell s</w>
E qui
Loc al</w>
Bos nie</w>
inst aur
Comm uni
su itable</w>
St anding</w>
posi tifs</w>
secon de</w>
fin ale</w>
20 1</w>
er reur</w>
des crip
in su
there by</w>
progres si
fran ch
Tr an
T B
R ica</w>
pr int</w>
lead er</w>
compéti tivité</w>
G RC</w>
ad mission</w>
visit eurs</w>
en tres</w>
organ ic</w>
produc tivité</w>
h ind</w>
wat ers</w>
infl ation</w>
u la</w>
fai bles</w>
illic ite</w>
di ab
z z
distinc t</w>
Tun is
198 3</w>
Let ter</w>
g ènes</w>
enn eté</w>
P D</w>
surve ys</w>
show ed</w>
as er</w>
IS O</w>
habit ats</w>
proven ance</w>
En tre
L y
Parli amentary</w>
é lo
V .</w>
c a</w>
re y</w>
Con ditions</w>
Geor ge</w>
na issance</w>
tl ements</w>
bur den</w>
dépu tés</w>
tex ti
pro mp
atl anti
som met</w>
P ologne</w>
let tres</w>
essenti elles</w>
receip t</w>
cou p
conc e
administr atifs</w>
parti s</w>
so ixante</w>
Stu dy</w>
Ar ts</w>
cho ose</w>
im mobili
auto chtone</w>
par k</w>
serv ant</w>
D G</w>
Consul tations</w>
proc é
fourni es</w>
UNCT AD</w>
1 10</w>
sou ver
comb ination</w>
6 0
every one</w>
8 19</w>
second aires</w>
améric ains</w>
ann once</w>
a ître</w>
Ze aland</w>
poss ède</w>
g ouverne
Innov ation</w>
Fon dation</w>
chaî ne</w>
D u</w>
G E</w>
e vi
calcul ated</w>
Par cs</w>
coun ter</w>
Po st</w>
commenc er</w>
up date</w>
Rap ports</w>
engag é</w>
Venez uela</w>
avanc és</w>
Mul ti
labor atoire</w>
ho c</w>
l ying</w>
accro issement</w>
r ich</w>
vi able</w>
in er</w>
O B
essenti elle</w>
énonc ées</w>
marg in
is ée</w>
for tement</w>
S he
fon dées</w>
mé mo
combus ti
CN RC</w>
w estern</w>
P PE</w>
cro y
invol ves</w>
le aux</w>
opérationn elles</w>
co her
s co
j a</w>
wat er
men ac
s éri
Proced ure</w>
ser vers</w>
qu ants</w>
Si x
appropri és</w>
W .</w>
graphi ques</w>
flexib ility</w>
contrô l
iss ante</w>
Oce ans</w>
té moins</w>
exempl aires</w>
expli quer</w>
G i
Ch r
as t
réc entes</w>
dic tions</w>
Fin ancing</w>
fichi er</w>
arriv ée</w>
Chin ese</w>
safe gu
rap id</w>
élarg issement</w>
PO UR</w>
reg ister</w>
cover ing</w>
itu de</w>
Bos nia</w>
S ri</w>
off res</w>
é do
arri ve</w>
UN F
e ous</w>
asi le</w>
prepar ing</w>
acc élé
ext re
T our
ari e</w>
allow ing</w>
vo ting</w>
de vient</w>
4 4
E th
Reques ts</w>
Jam a
ec .gc.ca</w>
com po
incl us</w>
Coun try</w>
OC DE</w>
iti ème</w>
œ ur</w>
dé cre
On ce</w>
ag ues</w>
T PS</w>
décl are</w>
Sou dan</w>
parlement aires</w>
physi ques</w>
ampl eur</w>
re affir
C enter</w>
p esti
ma p</w>
Fin lande</w>
S é
rel s</w>
Sy ri
pu issance</w>
E conom
ap ti
E ar
désign é</w>
G U
B ack
cum ul
Ag ainst</w>
législ atif</w>
accue ill
proli feration</w>
flexib le</w>
rég issant</w>
Vo ici</w>
institu tionnels</w>
donn ent</w>
suscepti ble</w>
T EN
dur ation</w>
ine a</w>
con server</w>
maî tr
No s</w>
limit ations</w>
un s</w>
er ons</w>
For t</w>
A ide</w>
x y
fourn issent</w>
ferro vi
Ph ot
concer t</w>
honn eur</w>
bin ding</w>
00 1</w>
arm ée</w>
im port</w>
SM Es</w>
de ad
ec t
n d</w>
AT E</w>
Addi tional</w>
N é
Si ège</w>
continu ous</w>
thou ght</w>
Tr ust</w>
He ad</w>
ministéri elle</w>
pai rs</w>
u min
conform ity</w>
p tion</w>
S TR
capit aux</w>
Reco gni
estim ate</w>
5 5
UNE P</w>
seg ment</w>
exp iration</w>
exam ens</w>
pres criptions</w>
1 60</w>
réd action</w>
Certain es</w>
evalu ate</w>
r ats</w>
constitu é</w>
d am</w>
off ert</w>
médec ine</w>
Pap er</w>
do ws</w>
br inging</w>
sec ution</w>
lear ned</w>
1. 4</w>
Com peti
det ail</w>
s age</w>
dé g
ain tes</w>
avi ation</w>
V ir
pp ing</w>
Bro ad
vi vent</w>
pr un
wid ely</w>
énonc é</w>
mes urer</w>
regis tre</w>
ret ard</w>
inste ad</w>
satis fied</w>
Program mes</w>
Kaz akh
produc tivity</w>
buil dings</w>
con çu</w>
man aging</w>
K ar
regul arly</w>
apport ées</w>
ap er
Fr ancoph
Go als</w>
ER S</w>
repres enting</w>
û ment</w>
teach ing</w>
ab ord
IT S</w>
aw ard</w>
bor n</w>
C le
K .</w>
Be au
am ination</w>
spe ak</w>
ent ale</w>
UR L</w>
lati ne</w>
un ilat
for tun
larg ely</w>
tradi tionnelles</w>
sh op</w>
pré judice</w>
Su preme</w>
gu ay</w>
an che</w>
Ch ef</w>
form ations</w>
inser tion</w>
considér able</w>
fournis seur</w>
l uc
autonom ie</w>
alleg ed</w>
P ower</w>
mach ine</w>
affec ting</w>
liv raison</w>
ut ory</w>
défin i</w>
envis ag
Meas ures</w>
technologi que</w>
col le
ex ecutive</w>
jou e</w>
fix é</w>
univer sities</w>
ib er
Dom in
K e
pr ê
bo x</w>
vis its</w>
5. 2</w>
vari ation</w>
li vre</w>
ev ed</w>
Kazakh stan</w>
har d
9 9
aci er</w>
protec ting</w>
joint ement</w>
industri els</w>
ess els</w>
it Ã</w>
gr ain</w>
boo ks</w>
indépend ants</w>
sur roun
l ou
G M</w>
v ements</w>
délég u
tern s</w>
es seur</w>
J ac
dat s</w>
wel comes</w>
Vi enna</w>
P s</w>
cu t</w>
é sie</w>
D esp
Mari e</w>
év entail</w>
comm ande</w>
Is lands</w>
sou tient</w>
in com
Tel ephone</w>
accommod ation</w>
esp agno
let ters</w>
where as</w>
end ance</w>
rec ou
ul aires</w>
estim ation</w>
a sion</w>
197 8</w>
sp ent</w>
be hind</w>
emp s</w>
Pr ai
CR A</w>
compar able</w>
remplac er</w>
pr Ã</w>
cu is
L at
nation alité</w>
utilis ent</w>
explo iter</w>
faudr a</w>
inter dit</w>
tr end</w>
sal aire</w>
vi ème</w>
cri tique</w>
N A</w>
applic ants</w>
Vi ol
observ ateurs</w>
complément aires</w>
écl air
de dic
Ad vis
indi quant</w>
puis qu&apos;</w>
comm ence</w>
My an
Be ij
rap portant</w>
Fin al</w>
indemn ité</w>
P hy
H .
cul p
serv ing</w>
N I
n ar
Myan mar</w>
encour aging</w>
ed back</w>
éc r
so vere
répon du</w>
te ams</w>
Om budsman</w>
acc r
clai mant</w>
déf aut</w>
Sim il
résul tant</w>
view ing</w>
6 7
16 .
concr ètes</w>
on y
ra y</w>
1 3.
cul tiv
facult atif</w>
Gre ece</w>
enz a</w>
N H
ur s
hib it</w>
Pre vious</w>
mo tif</w>
m ale</w>
acces sibles</w>
D o</w>
Desp ite</w>
pré server</w>
B ase</w>
Exper ts</w>
Plann ed</w>
strength ened</w>
ad visory</w>
F er
pres sions</w>
hu itième</w>
Re qui
su mer</w>
conseill er</w>
personn elles</w>
exce ed</w>
12 5</w>
r ain
ang le</w>
sal u
fil ms</w>
déci der</w>
w ai
fre edoms</w>
benef ici
M and
sou s
pos ent</w>
Beij ing</w>
accep té</w>
all ed</w>
termin ation</w>
Par ten
mo ving</w>
An g
déploi ement</w>
con jointement</w>
p y
ov ine</w>
ul ent</w>
schem e</w>
travail le</w>
deman ds</w>
1, 000</w>
Georgi a</w>
développ és</w>
sign al</w>
pers on
précis ément</w>
ni es</w>
r al
adi es</w>
atti tudes</w>
certain ty</w>
vis ites</w>
L ast</w>
lo gique</w>
enc ing</w>
P ê
I M</w>
Lan ka</w>
dangere uses</w>
s ité</w>
stu dent</w>
measu rement</w>
proxim ité</w>
Ch y
qu ête</w>
Auc une</w>
ar rest
Tan z
WP. 29</w>
correspon ding</w>
sol d</w>
E I</w>
acqui red</w>
IC T</w>
const ate</w>
combat tre</w>
Statisti que</w>
emor andum</w>
allég ations</w>
197 9</w>
vers er</w>
graphi e</w>
cap abilities</w>
N ext</w>
dispos er</w>
av al</w>
ref ers</w>
OM S</w>
re habilitation</w>
uss els</w>
f air
Pa trimoine</w>
grat u
defin e</w>
exist ent</w>
vidé o</w>
visu al</w>
E X</w>
tr o</w>
sustain ability</w>
ai des</w>
Leban on</w>
eli gi
Den mark</w>
Br ussels</w>
vari able</w>
B on
év olu
supr ême</w>
classi fied</w>
gi r</w>
ache v
en nie</w>
éc art</w>
farm ers</w>
L ine</w>
diagno stic</w>
dis aster</w>
8 7
Sever al</w>
op ened</w>
stat u
de grad
I D</w>
N O</w>
déf en
mas sive</w>
CT M
in ess</w>
don ors</w>
sol s</w>
M oun
è dent</w>
ne au</w>
enf in</w>
For m</w>
Al l
der ived</w>
exhau sti
dis placed</w>
coordonn er</w>
industri el</w>
hy per
cle an</w>
wish es</w>
elimin ate</w>
Territ ory</w>
reg ret
ex ter
S CI
con figur
av ance</w>
B rit
volon taires</w>
ici de</w>
sem ination</w>
ga ret
occu pe</w>
c ast</w>
Lic ence</w>
Int ellectu
ent ure</w>
Add ress</w>
pl ate</w>
U ru
lac unes</w>
Pri e</w>
z o
C iti
requ ête</w>
ci garet
inf ecti
ab led</w>
ré sident</w>
ais ons</w>
resol ve</w>
ban que</w>
six th</w>
12 ,
rev end
in after</w>
insp ections</w>
sub j
restric tion</w>
b a
gouvernement al</w>
expec tations</w>
C IS
pl ais
ard ous</w>
att acks</w>
formul er</w>
réus site</w>
détail lée</w>
k ept</w>
nor th</w>
tric ity</w>
I L</w>
it eur</w>
restric ted</w>
béné vo
invent ory</w>
f ar
pro stitution</w>
fut urs</w>
constitu tional</w>
Cy pr
prom ot
Ques tion</w>
here inafter</w>
enti el</w>
contrô ler</w>
4. 3</w>
x elles</w>
exig ence</w>
investi s
ethni que</w>
E li
tch èque</w>
b ac
imm eu
em ission</w>
Bec ause</w>
competi tiveness</w>
C lim
Ar ch
continu é</w>
sol dats</w>
discu ter</w>
rés istance</w>
so ft</w>
Bul letin</w>
easi ly</w>
fourni e</w>
neu vième</w>
mi que</w>
Cypr us</w>
acc el
re prise</w>
UN O
AU T
reç us</w>
lo sses</w>
titul aires</w>
vari ations</w>
ch és</w>
H or
G ender</w>
spo ke</w>
don or</w>
accomp ani
clin iques</w>
ab sten
Arc tic</w>
histori c</w>
dur ables</w>
E EC</w>
du quel</w>
norm ally</w>
ang er</w>
ber t</w>
Bru xelles</w>
Vi enne</w>
Op tional</w>
them e</w>
Reg is
capac ities</w>
Ti me</w>
f al
de vi
to ward</w>
Gu inea</w>
C lu
n ine</w>
grou p
avoc at</w>
S a</w>
D O</w>
pro te
appli quées</w>
dis semination</w>
Langu age</w>
prés ents</w>
pos é</w>
Herz ég
Govern ing</w>
associ é</w>
Pro jects</w>
Med ic
in deed</w>
uni es</w>
J er
Résul tats</w>
ographi e</w>
broad er</w>
ach ats</w>
assu me</w>
import ed</w>
consult ants</w>
cont amination</w>
Langu ages</w>
lib ération</w>
pl ain</w>
wor ldwide</w>
per mitted</w>
1 30</w>
m ouv
CANAD I
C ER
Herzég ovine</w>
organis ationn
H O
la red</w>
advertis ing</w>
Posi tion</w>
Egyp t</w>
reco gn
preven ting</w>
histori ques</w>
min ing</w>
go la</w>
Régi on</w>
tot alité</w>
Mar tin</w>
défin is</w>
contr ary</w>
comb ating</w>
f arm</w>
lo cu
compar aison</w>
fac ed</w>
ti ères</w>
In clu
Fi eld</w>
ressorti ss
symp t
Gr èce</w>
communi qué</w>
M ON
sh ares</w>
client èle</w>
pro secu
pass agers</w>
cons ists</w>
as cul
Gh ana</w>
consider ations</w>
ill age</w>
sy ner
gene tic</w>
em prun
SERVIC ES</w>
Al tern
so i</w>
help ed</w>
è n
gro ss</w>
o c</w>
dispos ent</w>
IN E</w>
Mo del</w>
IC ATION</w>
autoris ée</w>
ren contre</w>
h our</w>
ran g</w>
To day</w>
1 40</w>
mandat ory</w>
T op</w>
corpor ations</w>
liv res</w>
cir cu
pouv aient</w>
inter im</w>
z ième</w>
si c</w>
20 .
Produc t</w>
4 8
occu pied</w>
Dan emark</w>
N uclear</w>
A y
co vers</w>
fonctionn aire</w>
accompani ed</w>
T PS
P ension</w>
um entation</w>
V ari
pursu e</w>
Con servation</w>
Dro its</w>
T EC
génér ation</w>
inter venir</w>
obj ection</w>
lin ing</w>
becom es</w>
dé tection</w>
s ollic
M ess
Ed ward</w>
att endre</w>
um b
Prof essional</w>
Uru guay</w>
S écur
discipl ine</w>
mér ite</w>
pl antes</w>
neu tr
accur ate</w>
deal t</w>
su i
f light</w>
réalis ations</w>
trans lation</w>
Re porting</w>
Mal gré</w>
P WG
compar ison</w>
dep th</w>
révis é</w>
In sp
C entres</w>
remo ved</w>
om an</w>
sou th</w>
C U
vol et</w>
réglement aire</w>
S port</w>
naturel s</w>
Op port
G én
i red</w>
F A</w>
islam ique</w>
moy ennes</w>
m at</w>
ter ly</w>
moder ne</w>
parli amentary</w>
li f
enc e
per ce
sec ours</w>
Minis terial</w>
jou é</w>
dang er
Wor ks</w>
ge ographical</w>
propos er</w>
compren ant</w>
Recomman dation</w>
Citi z
e gov
encour ages</w>
pen alty</w>
att le</w>
wor th</w>
eu rement</w>
au rer</w>
C ir
Sy n
occ asi
197 0</w>
issu s</w>
ministéri el</w>
aéron efs</w>
per ç
An gola</w>
sc r
Té l</w>
ré flex
construc tive</w>
PWG SC</w>
né anmoins</w>
enab ling</w>
dec lared</w>
St ock
Sal v
enregistr és</w>
disciplin ary</w>
dé pend</w>
seul s</w>
direc tions</w>
EN CE</w>
thou sands</w>
sm aller</w>
v essels</w>
assi n</w>
ve get
phénom ène</w>
plac ements</w>
hom olog
Herz egov
nu it</w>
li que</w>
F I</w>
fr uit</w>
Cor r
n .m.</w>
Mon day</w>
des tro
por tu
re di</w>
Tran si
part ag
ati vely</w>
po ol</w>
Argen tine</w>
Bel ar
speak ers</w>
l t
pass ed</w>
sou thern</w>
âg és</w>
AI RE</w>
élector ale</w>
pl ic
acqu érir</w>
souhait ent</w>
l istes</w>
Let tre</w>
pré sid
o re
opérationn el</w>
Herzegov ina</w>
re trait</w>
bul letin</w>
charac ter</w>
surveill er</w>
um n</w>
engag és</w>
Indon esia</w>
extern es</w>
ver age</w>
ti fic
conduc ting</w>
agg reg
Cam bo
ordin ateur</w>
différ ends</w>
tr ente</w>
Sécur ité</w>
A A</w>
equi pped</w>
w arr
pr ene
10 9</w>
logici el</w>
oper ators</w>
exis ts</w>
soli de</w>
Croati a</w>
E limination</w>
di ents</w>
we ak
vol .</w>
Rec ords</w>
r ailway</w>
spi rit</w>
indépend ante</w>
SC T</w>
refl ects</w>
cel ebr
propos és</w>
Pay ments</w>
étro itement</w>
perc eption</w>
it ch
Respon se</w>
re ality</w>
s our
endr ont</w>
Slo ven
attemp t</w>
dr am
DF O</w>
éri eurement</w>
s cap
mobil isation</w>
I tali
mauv ais</w>
cor rig
encour age
tr ained</w>
it eurs</w>
DN D</w>
requi ring</w>
class ement</w>
sub vention</w>
ph ases</w>
M B</w>
tur ation</w>
entre prendre</w>
T al
G lo
mor al</w>
ch ement</w>
complet ely</w>
pr int
Initi atives</w>
ress ort</w>
TPS GC</w>
Acc ord
sol di
10 4</w>
less ons</w>
tradi tions</w>
ver sions</w>
fréqu ence</w>
prob able</w>
ev ol
den i
Mun icip
provinci ales</w>
mon ter</w>
permettr ont</w>
capit ale</w>
Pro du
jug ement</w>
dedic ated</w>
wel fare</w>
ethni ques</w>
lanc ement</w>
trad ing</w>
B as
S pending</w>
manufactu rer</w>
én or
pro uv
c œur</w>
modern isation</w>
We b
no thing</w>
Z im
f as
streng th</w>
E ven</w>
rappel er</w>
de hors</w>
pos ed</w>
annu ally</w>
pour suites</w>
Ch ur
dé placement</w>
ograph y</w>
et ro
car rier</w>
Lev el</w>
SI S</w>
Bo x</w>
handicap és</w>
H C</w>
concern ent</w>
chois i</w>
pl ing</w>
alph ab
heure usement</w>
il la</w>
ga ther
ré tro
att entes</w>
for table</w>
excessi ve</w>
Équi pe</w>
éten due</w>
solidar ité</w>
pens er</w>
cam ps</w>
CNU CED</w>
ol y
pat terns</w>
cro is</w>
m it
télé phon
Bib li
qual it
Bulg aria</w>
pro file</w>
scol aires</w>
pres ents</w>
r on</w>
Pro position</w>
F as
curr ency</w>
Y ou
RE L
Gu inée</w>
Nor thwest</w>
permet trait</w>
recueilli r</w>
ajou té</w>
J e
è ques</w>
pré fér
dang erous</w>
spécialis és</w>
Emerg ency</w>
sub sequently</w>
arti stes</w>
con ten
in vention</w>
D IS
arab es</w>
épi démi
bre ak</w>
analy ser</w>
rit ure</w>
Str eng
Res erve</w>
consi gn
mouv ements</w>
gener ated</w>
ré paration</w>
dépend ance</w>
S cot
Indi genous</w>
allow ance</w>
19 67</w>
préc é
bénéfici aire</w>
adjust ment</w>
R ight</w>
sembl ent</w>
jo in</w>
ar ity</w>
Op en</w>
lo ans</w>
fo ster</w>
mag az
Maj or</w>
utilis ateur</w>
au ses</w>
t esti
re place</w>
uti n</w>
is o
Cap ac
es po
SO CI
WH O</w>
w r
Clim ate</w>
occu per</w>
Trans fer</w>
S ar
L abor
ho sti
reço ivent</w>
tu ber
ré tablissement</w>
ci ble</w>
Argen tina</w>
diver se</w>
endro its</w>
0 9
o dy</w>
prot é
hy gi
produc ing</w>
jug é</w>
alco ol</w>
6 .1</w>
attribu tion</w>
sh el
S it
Accord ingly</w>
offici euses</w>
1 1,
exist ant</w>
sub missions</w>
sp read</w>
4 3
awar ded</w>
se where</w>
sum mari
sh ore</w>
refuge e</w>
ste el</w>
Loc ation</w>
b ons</w>
r ôles</w>
Ter ro
cohér ence</w>
dre w</w>
dé tec
Pers onnel</w>
N A
CTM R.
juridic tion</w>
Re fuge
l é
it ées</w>
00 .
décre t</w>
pho to</w>
t Ã</w>
rest er</w>
bel ong
phr ase</w>
asy lum</w>
sav ings</w>
h iver</w>
17 .
incom be</w>
uri ties</w>
intro duce</w>
ag ences</w>
reli able</w>
b le
entre mise</w>
voyag eurs</w>
ven ues</w>
fichi ers</w>
Ch ile</w>
adul ts</w>
W G</w>
success fully</w>
Institu tions</w>
vi vre</w>
bâti ment</w>
renseign ement</w>
leg ally</w>
Esti mates</w>
alis te</w>
func tional</w>
hosp ital</w>
beli eves</w>
ow ner</w>
Ex plo
spec tac
médec in</w>
D eli
B arb
13 73</w>
enter prise</w>
he avy</w>
tion ed</w>
assess ing</w>
Fin ances</w>
bound ary</w>
compag nies</w>
mé dical</w>
pe ines</w>
l ang</w>
mic ro</w>
propri étaire</w>
m ètres</w>
conseill ers</w>
tr ation</w>
ow n
com pris
posi tif</w>
transfer ts</w>
P ai
I bid</w>
potenti els</w>
compet ence</w>
w o
CN. 9</w>
N .</w>
G ener
sé ment</w>
ag o
work place</w>
fe a
ga p</w>
préc ises</w>
smo king</w>
ai mer
Kno wle
del iber
Establis h
Manufac turing</w>
v ity</w>
&apos; re</w>
w age</w>
enqu ê
ici an</w>
publi és</w>
Auc un</w>
ren voy
s amples</w>
Con struction</w>
att ended</w>
Ambass ador</w>
per haps</w>
An ti
is s</w>
recomm end</w>
juris prudence</w>
situ és</w>
off ering</w>
neigh bour
Lib an</w>
U s</w>
j ard
Croati e</w>
att ente</w>
4 9
è vent</w>
audi o
onn ée</w>
CI DA</w>
prob ably</w>
convic tion</w>
lad ite</w>
T EL
w ent</w>
d ûment</w>
alis ed</w>
Cor rec
C el
I X</w>
condu it</w>
b enz
î les</w>
P ho
staff ing</w>
us h
C eci</w>
exp and</w>
am end</w>
param ètres</w>
cre di
prof ession</w>
top ics</w>
expl ore</w>
fr anc
T H</w>
Mus ée</w>
For ms</w>
danger eux</w>
pl om
inc urred</w>
ligh ts</w>
am or
A mon
Chy pre</w>
ré fér
dou ani
équi val
illic it</w>
signal é</w>
considé rées</w>
ber g
apport é</w>
at om
off rant</w>
pl ication</w>
M ob
NAT O</w>
0 1
ph il
exp anded</w>
super fici
compos ante</w>
mach in
sc .gc.ca</w>
sev enth</w>
CTMR. 007</w>
H ong
mét é
hon our</w>
an i</w>
to w
re productive</w>
tr ag
on a</w>
id r
privil égi
method ology</w>
qual ités</w>
Hun gary</w>
i ding</w>
serv i</w>
Knowle dge</w>
Gre en</w>
Deu xième</w>
déf ici
ful fil</w>
C .1</w>
dot ation</w>
Per i
sou mises</w>
mobil ité</w>
alo gues</w>
t ested</w>
technologi ques</w>
ann exes</w>
fall ait</w>
Do ha</w>
constat er</w>
stock age</w>
contin u</w>
lo s</w>
c k
Ser bia</w>
Bulg arie</w>
jo indre</w>
UN HCR</w>
re vue</w>
H er</w>
A mé
3. 4</w>
Ex p
With in</w>
flow s</w>
broad casting</w>
inf ections</w>
administr ateurs</w>
Conclu sions</w>
intéri maire</w>
ist age</w>
5 7
es té</w>
p ass</w>
18 .
reço it</w>
regul ated</w>
Terro ris
head quarters</w>
des crib
é tiques</w>
3 .</w>
rest ent</w>
secré taire</w>
Pers onal</w>
poin te</w>
soci o
universit aires</w>
y i
Lear ning</w>
sup pression</w>
ep i
Imp act</w>
di v
hes ion</w>
resp ir
3 2
Pat ent</w>
S O</w>
vol s</w>
M ou
sur plus</w>
le z</w>
renouvel lement</w>
there of</w>
sal ary</w>
ordin aires</w>
ress ource</w>
S un
D r
s ait</w>
inclu ant</w>
gar der</w>
under stood</w>
indemn isation</w>
Fri day</w>
guarante es</w>
contr adic
C in
exper im
re pose</w>
h am</w>
academ ic</w>
A G</w>
sever e</w>
mé d
compos antes</w>
S Y
camp agnes</w>
PR É
progres sive</w>
di visions</w>
accor de</w>
sc en
per s</w>
ig u
ab order</w>
C. 3</w>
cotis ations</w>
expres sément</w>
ré col
re médi
œuv res</w>
sub paragraph</w>
t ér
oc ation</w>
dr y</w>
V O
as tal</w>
retur ned</w>
gr and
de venu</w>
appe ared</w>
b all</w>
g y
Reg ul
r ail</w>
st ed</w>
cle an
accept ance</w>
périodi que</w>
C r
UC TION</w>
depend ing</w>
Sm ith</w>
correc tion</w>
par avant</w>
mo dule</w>
ne arly</w>
num éro
déb ou
prec ed
F S</w>
associ ée</w>
mon thly</w>
min or</w>
b ound</w>
Str as
soli des</w>
quanti tés</w>
S ans</w>
custom er</w>
Com b
ré elle</w>
sc ène</w>
us al
sel l</w>
J eux</w>
è tent</w>
é rées</w>
m 2</w>
trans mettre</w>
échel on</w>
ob serve</w>
cir cons
it ables</w>
oc ols</w>
3. 5</w>
trav er
g ame</w>
Amé li
ot y
inf érieure</w>
en sive</w>
T É
expl ain</w>
v 01</w>
onc tion</w>
necess arily</w>
appli quée</w>
de voir</w>
fi gh
00 ,000</w>
cy cles</w>
t ait</w>
phot os</w>
ra f
exter ne</w>
g ent
radi ation</w>
accue illi
D U
sal aires</w>
mon etary</w>
logici els</w>
d less</w>
répon d</w>
depos it</w>
maj eure</w>
sais ie</w>
ab outi
envoy er</w>
Stras bourg</w>
8 6
co operate</w>
intég rés</w>
Belar us</w>
adul t</w>
c ence</w>
inter actions</w>
afric ains</w>
sond age</w>
vois ins</w>
wh ite</w>
bal anced</w>
M ot
US A</w>
pay é</w>
ti tu
journ al</w>
conn ected</w>
Ré sumé</w>
ES T</w>
personn elle</w>
prof iter</w>
Integr ated</w>
M AT
om en
wee k
exp ect</w>
consul t</w>
m em
hand ling</w>
réguli ère</w>
blan c</w>
norm alement</w>
fin ition</w>
f ou
réus si</w>
bâti ments</w>
organis ées</w>
trans fers</w>
as ters</w>
at ories</w>
Hong rie</w>
highligh ted</w>
fisc ale</w>
Rich ard</w>
mémo ire</w>
Nig eria</w>
usal em</w>
relev ance</w>
r d</w>
con vo
bru t</w>
ili zation</w>
197 7</w>
spr ing</w>
Po in
alis ées</w>
Salv ador</w>
p assi
autom ne</w>
Val ue</w>
rel ate</w>
en su
compét ents</w>
isl and</w>
ref us</w>
é man
tou che</w>
approfon die</w>
C AN</w>
re vision</w>
g lis
assu mer</w>
UN ECE</w>
A I</w>
T M</w>
f it</w>
si fs</w>
ait i</w>
ré elles</w>
lin k
mondi aux</w>
Co st</w>
rac ism</w>
A viation</w>
provinci ale</w>
top ic</w>
expres sions</w>
great est</w>
foli o</w>
crit ère</w>
oper ated</w>
dang ers</w>
élev ées</w>
ch ain</w>
joint ly</w>
TI R</w>
min ér
b ed</w>
app ing</w>
Azerb ai
remo val</w>
ag grav
É gyp
ter ie</w>
ch air</w>
ret ourn
li re</w>
Reg istration</w>
Amon g</w>
rest re
V IS
est ation</w>
har v
T re
rej et
désign és</w>
de au</w>
dis semin
4 6
tis sus</w>
Med iterran
su m</w>
ann ex
Gén ér
défin ies</w>
w al</w>
situ ée</w>
al ise</w>
out i</w>
opérationn elle</w>
S G</w>
réalis ées</w>
g as
ren dus</w>
accel er
ad eur</w>
in age</w>
aut rement</w>
Rom a</w>
donn ant</w>
coun sel</w>
gro ss
fondam ental</w>
co hésion</w>
I G
vis a</w>
bro ch
aéro port</w>
loc k</w>
w all</w>
L akes</w>
pl ur
10 8</w>
PU B
labor atory</w>
Ser bie</w>
sugges ts</w>
met al</w>
ad o</w>
shor t
deman deurs</w>
six ty</w>
cho sen</w>
S us
ouv r
déplac ées</w>
Wat er
prop ag
20 13</w>
diminu é</w>
clin ique</w>
Mo ro
add resses</w>
emphasi zed</w>
H TM
cop yright</w>
con fusion</w>
systé matique</w>
admis sibilité</w>
Indon ésie</w>
m onn
P P
Li thu
cc o</w>
po table</w>
AT S</w>
in c</w>
ambi ti
C. 2</w>
Z él
d op
POR T</w>
s ens
Mat eri
AR TIC
prohib ited</w>
minist er</w>
exclusi vement</w>
sais i</w>
u k</w>
H all</w>
certain ly</w>
Intellectu al</w>
Pê ches</w>
Hel p</w>
intéress ant</w>
seas on</w>
ju dge</w>
ex er
rég ul
éc rite</w>
re change</w>
here by</w>
s li
intel ligence</w>
occup é</w>
sembl ables</w>
H ong</w>
bour ses</w>
responsabil isation</w>
Ret ur
ll ing</w>
mari age</w>
ex tradition</w>
H ô
Insp ection</w>
EP P</w>
am bass
D er
êt ements</w>
sp ap
men su
électri que</w>
Bur k
UN IT
S at
bi g</w>
automob ile</w>
veill ance</w>
tion ary</w>
mobil ity</w>
nav ire</w>
tab lir</w>
W ed
S UL
mis si
cl ô
F M</w>
il lis
13 ,
Tari ff</w>
ajout ée</w>
V EN
ci ens</w>
5 8
rem ote</w>
constr uire</w>
quali fication</w>
encour ag
e ing</w>
y an</w>
19 .
bl é</w>
bénéfici ent</w>
be ar</w>
observ é</w>
confir mé</w>
l èvement</w>
VI II</w>
certi tude</w>
associ ées</w>
Ou tre</w>
we ï
g al
sui vie</w>
S D</w>
nécess airement</w>
10 3</w>
Th ree</w>
élo ign
recouv rement</w>
trouv é</w>
reach ing</w>
pri é</w>
Y es</w>
head s</w>
bor ne</w>
In deed</w>
t um
r ul
it ablement</w>
civili ans</w>
ex act
Mediterran ean</w>
Égyp te</w>
ém erg
m am
difficul té</w>
Chil i</w>
expos ed</w>
cou leur</w>
we ather</w>
jeun er</w>
si a</w>
suppli ers</w>
CC C</w>
N ai
in corpo
ar agu
w inter</w>
é par
legi timate</w>
l â</w>
atti rer</w>
annivers aire</w>
Al ors</w>
pertin ent</w>
Colom bia</w>
AC DI</w>
vic time</w>
couv rir</w>
Zim bab
touch és</w>
facil itation</w>
att ants</w>
Rev .1</w>
fut ur</w>
MP O</w>
1 15</w>
av ions</w>
house hold</w>
A li
visit ors</w>
Con gress</w>
conclu de</w>
laun ch</w>
tin s</w>
Lo g
dynam ic</w>
ser vir
confir mation</w>
modifi ant</w>
bi an</w>
ess ence</w>
10 2</w>
frequ ently</w>
K ing</w>
f i</w>
tis ts</w>
Tel e
Zél ande</w>
chem icals</w>
idr c.ca</w>
proce ed</w>
b assin</w>
Ex emp
i ves</w>
L ac
cl aire</w>
Ré solution</w>
cré di
altern atives</w>
ti enne</w>
NATI ONAL</w>
assur ances</w>
acti ves</w>
i .</w>
perman ents</w>
for th</w>
cri tiques</w>
ri d
L IS
re p
b orders</w>
quel con
impos er</w>
HTM L</w>
T E
pren antes</w>
r in
Mo z
G ames</w>
de ep</w>
b .</w>
she et</w>
argu ed</w>
Curr ent</w>
nation als</w>
ass ain
sor t</w>
K ir
In ter</w>
Pre sidency</w>
sub jects</w>
M ur
es el</w>
g az
dé bu
10 6</w>
lo ts</w>
QU ES</w>
consac rée</w>
system atic</w>
pour suiv
propri étaires</w>
soli d</w>
ff s</w>
10 7</w>
18 0</w>
opérationn els</w>
In str
ho li
re prises</w>
cat aly
esp ér
m in</w>
ro se</w>
lo an</w>
be aring</w>
in tim
adminis tered</w>
20 15</w>
sign s</w>
w oman</w>
d ness</w>
ser re</w>
Go ods</w>
al locations</w>
métho d
déc isi
considér ables</w>
requ ise</w>
chim ique</w>
1 11</w>
b al</w>
than ks</w>
sec ret</w>
coop érer</w>
Î le</w>
im bur
appli qué</w>
s ures</w>
termin er</w>
bil ingu
ér ité</w>
remerci e</w>
ish ing</w>
avanc ement</w>
sau ve
5 6
cuis ine</w>
al ing</w>
ab ol
K ong</w>
ed ly</w>
Moro cco</w>
Né anmoins</w>
pesti cides</w>
B ot
S G
b is
parti el</w>
Autor ité</w>
i ents</w>
mét aux</w>
inc en
h im
fais ait</w>
con grat
equ itable</w>
frequ ency</w>
atmo sphere</w>
É co
recomm an
valid ation</w>
enh ouse</w>
OT AN</w>
s aison</w>
pl ays</w>
autoris és</w>
horizon tal</w>
Contribu tion</w>
la ise</w>
m 3</w>
dis mis
sensibil iser</w>
Mo d
mo ther</w>
prim aires</w>
agricul teurs</w>
join ed</w>
re ply</w>
B or
veri fication</w>
L este</w>
el la</w>
exécu ter</w>
trans mitted</w>
R A</w>
compos és</w>
Ac tivity</w>
jus tification</w>
ar chives</w>
déci de</w>
en ro
it ali
port és</w>
Z am
struc tur
RE G
ass et</w>
B CE</w>
ren due</w>
ot age</w>
tari fs</w>
vill ages</w>
manufac ture</w>
Con stitu
Q C</w>
fi ant</w>
ti mat
ÁÁ ÁÁ
Com par
ver t</w>
ten stein</w>
comm en
ic an</w>
consis ten
Institu tional</w>
G ab
eas tern</w>
al izing</w>
im pres
Elec tronic</w>
com pe
exclu ded</w>
n ette</w>
parten aire</w>
dép it</w>
C s</w>
Comm ents</w>
pro of</w>
H aving</w>
reser vation</w>
relev é</w>
he at</w>
EC A</w>
t ente</w>
197 5</w>
v rai</w>
proper ties</w>
elec tricity</w>
enti ère</w>
Develop ing</w>
M erc
Eff ective</w>
ri ve</w>
pé rer</w>
as i</w>
go es</w>
chiff re</w>
OT TA
universit aire</w>
charg er</w>
Consul tation</w>
Lis bon</w>
at ar</w>
H ST</w>
migr ations</w>
spéci alement</w>
lo y
accélé rer</w>
tr um</w>
part ager</w>
Brit ain</w>
eigh th</w>
remédi er</w>
auth ors</w>
sec toral</w>
se as</w>
T Y</w>
Cop yright</w>
un a</w>
Ar my</w>
Gé or
Burk ina</w>
F L
san g</w>
Olymp ic</w>
tis ation</w>
mo dé
t endant</w>
MIN IS
Li ech
sustain ed</w>
recogni zes</w>
ob tention</w>
Ré pon
Ã ª
lic enci
iv re</w>
tab leaux</w>
aï d
const ante</w>
b ra
compét ente</w>
constitu tes</w>
so le</w>
ap prendre</w>
Sur veillance</w>
quanti ty</w>
Stat ut</w>
é mis</w>
Be fore</w>
cô te</w>
hau teur</w>
qu et</w>
prestat aire</w>
OTTA WA</w>
EC B</w>
ne ither</w>
c k</w>
élar gir</w>
f ill</w>
distric ts</w>
sa w</w>
Oc éans</w>
UN I
ici les</w>
Sa har
reg istr
tr ical</w>
S il
alco hol</w>
aqu aculture</w>
fo i</w>
cess ation</w>
7 5
fl uctu
tari faire</w>
Zimbab we</w>
tern al</w>
a f</w>
form ats</w>
financ és</w>
rati fied</w>
Mar oc</w>
ant ation</w>
as ser
197 3</w>
reser ves</w>
scr utin</w>
défin it</w>
muni tions</w>
lingu istique</w>
UN D
Liech tenstein</w>
N OR
every thing</w>
J O</w>
hel ps</w>
victi m</w>
gestionn aire</w>
mandat es</w>
in side</w>
En h
rapid ly</w>
déf avor
wan ted</w>
adéqu ate</w>
log ements</w>
net to
accr u</w>
Fas o</w>
15 ,
l o</w>
sur vie</w>
ob servers</w>
V éri
f ils</w>
des cribe</w>
En tre</w>
rig oure
ag ence</w>
ter ont</w>
Particip ants</w>
éco systèmes</w>
timat ely</w>
MD N</w>
Fif th</w>
6. 2</w>
r ons</w>
T élécopieur</w>
MIN U
Bret agne</w>
p p.</w>
Tit le</w>
UR S</w>
homolog ation</w>
print emps</w>
eng ineering</w>
réc ep
municip alités</w>
demeur ent</w>
12 3</w>
facilit ating</w>
dis charge</w>
AR C</w>
lanc er</w>
i der</w>
désign ation</w>
M H
appli qu
A re</w>
coll ections</w>
Nic aragu
quelcon que</w>
territori aux</w>
sem i</w>
véri fic
pro fil</w>
vers ées</w>
c .gc.ca</w>
14 ,
OR S</w>
integr ate</w>
197 6</w>
fiduci e</w>
c élé
Lis bonne</w>
san itaires</w>
sol de</w>
adop tés</w>
rappel é</w>
ame ters</w>
M éd
ext érieure</w>
jun ction</w>
el sewhere</w>
R ural</w>
ve ulent</w>
audi o</w>
r al</w>
N av
fix és</w>
reconn us</w>
TI NG</w>
mar ins</w>
inter view</w>
adress er</w>
icul um</w>
occup ational</w>
Indi vidu
M r
197 1</w>
pun ishment</w>
over view</w>
faç ons</w>
di ments</w>
Recommend ations</w>
particip e</w>
investis seurs</w>
L and
st one</w>
E thi
elim ination</w>
dé riv
r ence</w>
Géor gie</w>
Au jourd&apos;</w>
Ad op
anticip ated</w>
TR AN
S AR
fr ame</w>
inter views</w>
visib les</w>
er cial</w>
per pe
for ums</w>
equ ally</w>
endors ed</w>
fon ci
volon taire</w>
examin ées</w>
sc én
f oundation</w>
AC E</w>
pil otes</w>
solidar ity</w>
G all
ext érieures</w>
M édi
univers elle</w>
jou ent</w>
préoccup é</w>
définiti ve</w>
diff iciles</w>
judg ment</w>
par cs</w>
w are</w>
entraî ner</w>
Cro ss</w>
g lo
TV H</w>
spir itu
prov ed</w>
nin th</w>
orient ed</w>
conform er</w>
si gne</w>
vie illis
fa une</w>
T AB
Con grès</w>
tot alement</w>
dé montré</w>
atlanti que</w>
i ra
ves sel</w>
te en</w>
trans porteur</w>
dec ade</w>
signific ative</w>
mar ge</w>
Indi ens</w>
am is</w>
7 7
lég ères</w>
Char les</w>
inf o</w>
M IS
réalis ée</w>
v ations</w>
Itali an</w>
fe ature</w>
ré ci
B U
s érie
pro mul
B ern
p el
Techn ologies</w>
au paravant</w>
I I
am i</w>
alleg ations</w>
rembour s
T ES</w>
rob i</w>
ari os</w>
B ER
si n</w>
cour rier</w>
mété oro
détaill ées</w>
ron de</w>
6 5
port ées</w>
vot er</w>
trim estre</w>
réflex ion</w>
lon gueur</w>
Equi pment</w>
précé demment</w>
har m</w>
P oll
T P</w>
bil an</w>
gl y
l ot
an o
coll ect</w>
diff user</w>
L am
Co ordonn
aci de</w>
pl af
Th urs
Corr .1</w>
human ité</w>
se em</w>
Mal i</w>
contr acting</w>
Sen ate</w>
achiev ements</w>
Nai robi</w>
air port</w>
p rece
e te</w>
plaign ant</w>
Pro secu
C rit
Con sumer</w>
chil d
entre prene
g aps</w>
Pre par
F estival</w>
si des</w>
oc y
me ets</w>
a head</w>
k istan</w>
suffis ante</w>
sub i</w>
Con ventions</w>
remo ve</w>
ré pression</w>
progress er</w>
ré ussi
G ul
occ urs</w>
conver gence</w>
ouver tes</w>
Consi dér
Distribu tion</w>
b ritannique</w>
t ants</w>
att ack</w>
Pri x</w>
Qu and</w>
v ary</w>
nomin ations</w>
l or</w>
T N
bri ef</w>
rap porteurs</w>
quar ante</w>
Vol un
signific ance</w>
cer a</w>
ell s</w>
ay ed</w>
seu il</w>
lingu istiques</w>
je une</w>
U .</w>
sh o
Ne vertheless</w>
civ il
minu te</w>
pap ers</w>
dem ic</w>
Azerbai jan</w>
a ths</w>
ow ing</w>
en see</w>
d ating</w>
e c</w>
aliné as</w>
h ot
ad ication</w>
A K
discrimin atory</w>
thir ty</w>
subsidi ary</w>
Ar rang
I V
campai gn
exemp t</w>
arrê té</w>
inclu sive</w>
fortun ately</w>
multi pli
cop e</w>
anci enne</w>
chang é</w>
Sub ject</w>
R R
asp ir
mandat s</w>
Fin ancement</w>
U V
Wh ite</w>
Euro pé
UNF PA</w>
Ar men
matéri els</w>
dr inking</w>
ci bles</w>
administr ateur</w>
fabric ant</w>
au dits</w>
ig ne
dépos ée</w>
ARTIC LE</w>
enz y
aper çu</w>
Som maire</w>
Benef its</w>
eu di</w>
sup prim
avoc ats</w>
sep h</w>
Dis armament</w>
An ti</w>
RO M</w>
fi li
â tre</w>
fo ods</w>
advant ages</w>
laiss er</w>
destin ée</w>
S. C.</w>
béné fices</w>
vers é</w>
mén ages</w>
Territ oires</w>
o li
audi ences</w>
O ui</w>
lu min
accep tation</w>
cap ables</w>
An ne</w>
P SC</w>
a e
Propos al</w>
pollu ants</w>
Jo seph</w>
rub rique</w>
Thurs day</w>
B ir
ang laise</w>
rel ates</w>
Sloven ia</w>
at aires</w>
aéri ens</w>
rés ol
goslav ie</w>
H arb
Ar r
Peop les</w>
Princip les</w>
soci eties</w>
em pris
divul gation</w>
Treat ment</w>
n ant</w>
play ing</w>
L et</w>
Tr avai
médic ale</w>
n ul
gener ate</w>
Thom as</w>
carbur ant</w>
j i</w>
sib ly</w>
divi ded</w>
You goslavie</w>
ant érieure</w>
er reurs</w>
r am
prépar atoire</w>
oni al</w>
c ote</w>
géné tiques</w>
di lu
P L</w>
dis cours</w>
heure ux</w>
3 60</w>
Excell ence</w>
s ory</w>
perpe tr
re imbur
M aster</w>
regar dless</w>
in her
M en
Comm ercial</w>
passeng er</w>
For mat</w>
soldi ers</w>
feu illes</w>
dis abled</w>
H E
y eux</w>
trans mis</w>
em ail</w>
révél é</w>
16 ,
t s
assain issement</w>
comport ements</w>
B I
marri age</w>
fi quement</w>
lib res</w>
M éti
al er
Wil dlife</w>
conjoin te</w>
mo indre</w>
T B</w>
dispu tes</w>
v ar
travaill é</w>
R ailway</w>
Con sequently</w>
Al ex
th res
hom es</w>
p étro
Minis tres</w>
resol ved</w>
coll aborer</w>
innov ations</w>
trait ées</w>
w an</w>
termin é</w>
p H</w>
L ong</w>
arg o</w>
Th an
trou bles</w>
t old</w>
int érieure</w>
précéd entes</w>
I l
erro r</w>
fi ables</w>
h r
communic ate</w>
phil os
per mission</w>
res istance</w>
t él
cro ire</w>
IN D
concern é</w>
équi valent</w>
N GO</w>
Sel ection</w>
cont ents</w>
enc oun
urb ain</w>
O U</w>
t ack
mati s
b out</w>
i ting</w>
R I</w>
T ax
ç a</w>
b a</w>
Willi am</w>
it aux</w>
fix er</w>
Laur ent</w>
compos ed</w>
sur g
arr y</w>
fl éch
Yu goslav
qu est</w>
gre en</w>
ren for
Mr s.</w>
M P</w>
C ou
Procu reur</w>
sp her
Pl ace</w>
Yugoslav ia</w>
Com pu
A d</w>
hol m</w>
N e</w>
defau lt
G RO
a w</w>
log istique</w>
correc tement</w>
occurr ence</w>
m ous</w>
util ité</w>
cré és</w>
S R</w>
syn thèse</w>
configur ation</w>
cap ability</w>
per çu</w>
authori zation</w>
it arian</w>
re placement</w>
T AL</w>
Speci fic</w>
satis fais
fabric ants</w>
log ical</w>
tuber cul
vers al</w>
dom mage</w>
doub t</w>
ed onia</w>
defin itions</w>
st ands</w>
com portant</w>
Ste ph
ju ven
stric t</w>
coordin ate</w>
sen sible</w>
al umin
Nicaragu a</w>
d ites</w>
i ères</w>
Priv ate</w>
P ot
eligi bility</w>
i ors</w>
y e</w>
Wed n
tax payer</w>
Ex ternal</w>
discipl ines</w>
rem is</w>
Sit uation</w>
défin itions</w>
délin quants</w>
Opport unities</w>
sémin aires</w>
Sel f</w>
s avoirs</w>
exerc ices</w>
conn ex
Méti s</w>
1 12</w>
draf ting</w>
beli eved</w>
sup primer</w>
Que en</w>
inter medi
exig er</w>
Comp ag
dép istage</w>
ter ait</w>
déc ou
expul sion</w>
Hum an
Win dows</w>
b ag
gén étique</w>
spati ale</w>
Ch all
under lying</w>
ligh tly</w>
bat eaux</w>
Q atar</w>
c .
renew al</w>
ak er</w>
Régi me</w>
S M</w>
mentionn és</w>
r assembl
dign ité</w>
contr aintes</w>
ence in
ver si
vend redi</w>
ét o
communi qués</w>
Res p
Franç ais</w>
op tique</w>
perm its</w>
stat utory</w>
to m</w>
minis ters</w>
Four th</w>
SI D
lem en</w>
2 nd</w>
arri ère</w>
Sou thern</w>
renew able</w>
COMM IS
Comm entaires</w>
Chr ist
part ements</w>
S ources</w>
arb on</w>
R AP
re ductions</w>
6 6
lib ell
po uss
déliv rance</w>
G E
autor iser</w>
D ani
tol erance</w>
eng ine</w>
ss ement</w>
obj ect</w>
pos ted</w>
mi e</w>
guarante ed</w>
In formal</w>
influ enza</w>
Bal k
plac ing</w>
A O</w>
1. 0</w>
l ist
mo ved</w>
ch air
G A</w>
d ons</w>
augment e</w>
luc rati
gen u
trouver ez</w>
fi re
ID RC</w>
av ion</w>
mul tin
tri p</w>
verb al</w>
man ager</w>
lo ir</w>
decre ased</w>
xi èmement</w>
Wedn esday</w>
tari f</w>
restaur ants</w>
as ts</w>
substanti ally</w>
o grap
colle agues</w>
Au tre</w>
t .</w>
acc used</w>
5. 3</w>
b ill</w>
A venue</w>
inqui ry</w>
recip ient</w>
manu el</w>
Phy s
indic ating</w>
ap port</w>
form é</w>
ment ally</w>
foc using</w>
affir m
uni versité</w>
Chem ical</w>
individu els</w>
e ast</w>
ri ons</w>
mari times</w>
re sidential</w>
ér ations</w>
S uc
arri ver</w>
l undi</w>
w on
y ou
Co opération</w>
ne ts</w>
Terroris m</w>
Su iv
assur ant</w>
pré ven
d ress
EP A</w>
engag ées</w>
L AN
voul ons</w>
espo ir</w>
ell ers</w>
cont rer</w>
ign es</w>
favor ables</w>
tionn ement</w>
compro mis</w>
gh ts</w>
FN U
en ver
espagno l</w>
R am
Qu &apos;</w>
nation ality</w>
citiz enship</w>
war ning</w>
consult ative</w>
in direct</w>
reti rement</w>
Lithu ania</w>
Doc umentation</w>
e di
ax é</w>
B lack</w>
4. 4</w>
civi les</w>
G ren
No w</w>
cam p</w>
re mettre</w>
20 4</w>
atmosph ère</w>
périodi ques</w>
p asse
-- -</w>
fac ul
Tu esday</w>
we apon</w>
bless ures</w>
regar ded</w>
fer met
12 2</w>
pop ular</w>
ing éni
N R
Exper t</w>
h c</w>
satis fait</w>
pi p
spati ales</w>
révis ée</w>
Depart mental</w>
Sub stances</w>
get ting</w>
IT E</w>
recens ement</w>
cl auses</w>
k i
produ isent</w>
sor tie</w>
su n
ressortiss ants</w>
ach eter</w>
ame works</w>
quar tier</w>
mar che</w>
approuv és</w>
Com mon
ri ver</w>
dé pass
Deli very</w>
ay e</w>
integr al</w>
charg ement</w>
pre ad</w>
ail ed</w>
T ru
fi bres</w>
Qu ant</w>
candidat ure</w>
org ans</w>
déci deurs</w>
trans l
Ad resse</w>
ES C</w>
compt abilité</w>
Clu b</w>
incenti ves</w>
cre di</w>
Ac tu
Coordin ator</w>
catastroph e</w>
ach ing</w>
is sez</w>
CR C</w>
shi p
N am</w>
atta quer</w>
join te</w>
out put</w>
compl éter</w>
Slo vé
A E</w>
S har
pho sph
constr aints</w>
protoco l</w>
organis ed</w>
AR D</w>
assur é</w>
ul sory</w>
attein ts</w>
ma isons</w>
depend s</w>
V olume</w>
re dev
Hosp ital</w>
con junction</w>
or ateurs</w>
manufactur ers</w>
ex pe
fe edback</w>
cro issante</w>
inst aurer</w>
fl ot
appar ent</w>
prof its</w>
IN FORM
off enders</w>
ing re
Oc cup
he ar</w>
liter ature</w>
ant érieures</w>
trouver a</w>
terroris te</w>
Investi g
sou mise</w>
sib lement</w>
R ot
r usse</w>
inten sive</w>
oeu v
Slové nie</w>
Organiz ations</w>
Pur su
fondament ale</w>
potenti ally</w>
wi der</w>
te enth</w>
refer ences</w>
Com pl
ét endre</w>
combus tion</w>
Syri an</w>
et es</w>
renouvel ables</w>
es comp
T R</w>
prépar é</w>
pertin ence</w>
législ ative</w>
Or dre</w>
ent ary</w>
glob alization</w>
Ju dg
maîtr ise</w>
PAR TI
at us</w>
ar ise</w>
raisonn ables</w>
lucrati f</w>
fri ends</w>
trans frontali
inv entaire</w>
1 000</w>
annu elles</w>
Lt d.</w>
tain ment</w>
ou i</w>
conting ents</w>
v ant</w>
clo ser</w>
semin ars</w>
r ain</w>
G S</w>
vol umes</w>
lo giques</w>
territori ales</w>
se at</w>
mor ning</w>
minim al</w>
B our
éc ologique</w>
au gh
run ning</w>
re tenue</w>
compar ative</w>
calend ar</w>
M ONU
H ere</w>
mar qu
considér ations</w>
it or</w>
Ch arg
limit ées</w>
ear nings</w>
C. 5</w>
Fr aser</w>
w in</w>
examin és</w>
L DC
under ing</w>
juris dictions</w>
ou red</w>
préc ision</w>
bir ds</w>
appe als</w>
par king</w>
senti ment</w>
shi ft</w>
lit tér
g ent</w>
ari ties</w>
impli que</w>
usu al</w>
institu tionnel</w>
cré ée</w>
inter gouvernementales</w>
mix te</w>
in sufficient</w>
ind ice</w>
µ g</w>
c â
démocrati ques</w>
20 12</w>
F a
justi fied</w>
Bi o
tak ings</w>
k es</w>
car c
établiss ant</w>
roy ale</w>
Ex change</w>
Dro it</w>
prepar ations</w>
Ku wait</w>
situ ated</w>
procé dés</w>
n esty</w>
r are</w>
Fo rest</w>
conven tional</w>
urg ed</w>
Ber lin</w>
ici ens</w>
Th ail
par ameters</w>
consommat eur</w>
Comm ittees</w>
suff ering</w>
succ e
sel ect</w>
influ enc
practi tion
vi abilité</w>
centr ales</w>
k y</w>
P IC
ag i
ban des</w>
8 0
protoco les</w>
investig ate</w>
B iss
Sup plement</w>
sum ed</w>
Stock holm</w>
Basi c</w>
dri ven</w>
ST A</w>
viol ences</w>
not ably</w>
impos ées</w>
Ch o
B. C.</w>
affec tés</w>
ol ine</w>
We apons</w>
arti sti
ré ellement</w>
12 1</w>
extre me</w>
ig g
retur ns</w>
fin ally</w>
col onne</w>
Mal ay
infr ing
ad ed</w>
adjust ments</w>
contamin ants</w>
orient ale</w>
m ill
AS S
travaill ant</w>
citiz en</w>
call ing</w>
si zed</w>
tri als</w>
rec re
de fici
k l
po l</w>
For mation</w>
new ly</w>
dec ades</w>
ren voi</w>
ambi que</w>
dou ard</w>
S pr
ten sions</w>
Pro gress</w>
n. f.</w>
cont ac
prior itaire</w>
Thail and</w>
Dur ant</w>
appel ante</w>
bran ches</w>
ign ty</w>
rel èvent</w>
7 0
com prises</w>
t ell</w>
bien fais
Tro is</w>
Con c
ouver ts</w>
dé libér
des c
con tiennent</w>
lev ée</w>
conna ît</w>
la v</w>
alle l</w>
M L</w>
0, 00</w>
En quête</w>
propri étés</w>
acc ru
tr ying</w>
numéro s</w>
Moz ambique</w>
Common wealth</w>
seri ously</w>
nor ms</w>
schem es</w>
eu tiques</w>
p ill
gr ati
H and
ak ia</w>
Sec teur</w>
publi ée</w>
Hon dur
haz ardous</w>
ain eté</w>
comb attants</w>
quot as</w>
s h</w>
éventu ellement</w>
T est</w>
exce eding</w>
recou rir</w>
partic ules</w>
S W
es pread</w>
ple as
Gr ands</w>
organ iques</w>
Pan ama</w>
pr o</w>
H ear
s ors</w>
4. 5</w>
thé matiques</w>
thes is</w>
cap ture</w>
produ ites</w>
mor ale</w>
déplac ements</w>
for ty</w>
dép ôts</w>
Fu ture</w>
cou vre</w>
Tra ff
Go od</w>
respon dent</w>
signal er</w>
in ary</w>
conv inc
acc réd
Simil arly</w>
diplom atic</w>
différ ente</w>
m o</w>
Agricul tural</w>
8 9
fisc ales</w>
pl uri
onn iers</w>
el ev
for ment</w>
c af
W est
H en
bienfais ance</w>
Des ign
Orig inal</w>
l ent</w>
compl ètement</w>
cré anci
remplac é</w>
oc é
default .asp</w>
co astal</w>
par as</w>
M ay
D ig
wh at
Elec toral</w>
Y oung</w>
cor ro
duc t</w>
li a</w>
Wh it
ed ge</w>
su c
gent lemen</w>
g auche</w>
véri fications</w>
collabor ative</w>
Som alia</w>
M a</w>
play ers</w>
fourn itures</w>
2, 5</w>
Mich el</w>
pour suit</w>
électri ques</w>
D V
fi ants</w>
vot é</w>
4 50</w>
it a</w>
IC E</w>
re action</w>
D R</w>
si ves</w>
re ts</w>
dési gne</w>
br anch</w>
adi ly</w>
IP C</w>
E very</w>
S c
déb it</w>
thè ses</w>
tax able</w>
h ect
offici ellement</w>
gro w</w>
ferrovi aire</w>
ath le
mo dules</w>
T op
adequ ately</w>
Azerb aïd
fres h</w>
F ile</w>
milli ard</w>
a pour</w>
speci fy</w>
p es
dé montrer</w>
excep tional</w>
V ille</w>
ac o</w>
CR DI</w>
3 50</w>
campaign s</w>
adj ac
urg es</w>
re viewing</w>
ab ond
explan ation</w>
CB SA</w>
d ited</w>
prison ment</w>
charg ées</w>
aff ér
su st
nat ur
Hist ori
norm ale</w>
ét al
tain e</w>
expli qué</w>
envoy é</w>
ar tists</w>
them es</w>
occup ent</w>
consisten cy</w>
cont ex
au to</w>
mul ticul
over sight</w>
in sec
ende av
on ais</w>
ajou te</w>
197 4</w>
clari fy</w>
séri eux</w>
viol ent</w>
adap ted</w>
accompl i</w>
Compag nie</w>
combin aison</w>
financ é</w>
intégr ante</w>
cont est
ent am
E duc
dign ity</w>
perform ances</w>
évi dent</w>
rec ti
atta ques</w>
ju dic
L ignes</w>
M embre</w>
produc er</w>
Ann ée</w>
H aï
fourn issant</w>
vis ited</w>
dis tor
g lu
b it</w>
condu ire</w>
pl age</w>
ti eth</w>
A ward</w>
sub ven
voc ational</w>
hôp itaux</w>
exec u
2 e</w>
pat tern</w>
Pho to</w>
entraî ne</w>
To k
eu tenant</w>
com bler</w>
gu ides</w>
ev entu
l ay</w>
il ton</w>
évalu é</w>
in jur
S ir</w>
enjo y
de priv
qu ad
péri l</w>
In spec
déc rites</w>
conç us</w>
Hist ory</w>
ro alimentaire</w>
du al</w>
réc ents</w>
Joh n
Reg istry</w>
attén uation</w>
e en</w>
pris ons</w>
imp ér
gran ting</w>
dri ve</w>
acces so
plais ir</w>
sol ely</w>
Cer tific
9 6
p â
arbitr age</w>
exig ent</w>
Po s
exc ess</w>
remar qu
Ambass adeur</w>
13 5</w>
C inqui
P O</w>
Dur ée</w>
3 0.
ow ners</w>
f alls</w>
citoy enneté</w>
AC P</w>
congrat ul
lu x
care fully</w>
arm ing</w>
emball age</w>
vo it</w>
répon dent</w>
vot ed</w>
par cours</w>
sais ir</w>
su me</w>
trad u
territori ale</w>
effectu e</w>
IC S</w>
2. 0</w>
mondi ales</w>
or a</w>
b act
survi val</w>
man n</w>
Azerbaïd jan</w>
ab sol
sc ru
Competi tion</w>
Ex pend
éventu els</w>
pertin ente</w>
Pr int</w>
ach em
dra wing</w>
stream ing</w>
Per u</w>
C B</w>
direc trice</w>
af ter
si èges</w>
imp ôts</w>
see ks</w>
brief ing</w>
Alg eria</w>
V in
uni forme</w>
Z one</w>
ad vised</w>
IL O</w>
a b</w>
hy bri
m ères</w>
H al
4 16</w>
evalu ated</w>
mati n</w>
inclu t</w>
détaill é</w>
work force</w>
ch ent</w>
Rel ease</w>
T .
ro ll</w>
souver aineté</w>
op hi
1 13</w>
é rée</w>
hau ts</w>
ab ore</w>
20 20</w>
a quie</w>
Ph one</w>
déf endre</w>
berg ement</w>
17 ,
i on
accompli r</w>
R M
H aiti</w>
Ko weï
fond ement</w>
col our</w>
dec lar
ann on
vieillis sement</w>
remar quer</w>
mag istr
Agre ements</w>
Manu el</w>
T itre</w>
12 4</w>
strong er</w>
sub regional</w>
dépos er</w>
Inst ance</w>
compro mise</w>
sign es</w>
dri ving</w>
cham ps</w>
vo ice</w>
ré ser
s lightly</w>
n euro
refl ète</w>
vi du</w>
T ex
L itu
ad er</w>
h ands</w>
fin ds</w>
wid espread</w>
F abr
Appl ic
ew er</w>
scienti sts</w>
crip t</w>
surroun ding</w>
S H</w>
Regul atory</w>
por no
francoph ones</w>
Ri o</w>
z en</w>
arti fici
U ganda</w>
perform ing</w>
op ia</w>
bénévo les</w>
it ons</w>
Pursu ant</w>
pro secution</w>
industri elles</w>
cu tting</w>
co ast</w>
É N
Ex pl
ac com
ti mi
rel les</w>
Comp liance</w>
Stat ute</w>
Lou is</w>
aut és</w>
under takings</w>
D RO
extr action</w>
t elecommunications</w>
Mon go
re min
an ne</w>
ox ide</w>
Vi et</w>
h es</w>
Ap pro
ic on
mon d</w>
de aths</w>
ad y</w>
im prisonment</w>
Pri orities</w>
K h
dro ite</w>
conn ue</w>
cher cher</w>
o v</w>
clô ture</w>
justi fier</w>
fr ameworks</w>
pa tho
ill ness</w>
difficul ty</w>
par as
accum ulation</w>
inter esting</w>
ob taining</w>
am ph
propos es</w>
In struc
répon dant</w>
défin ie</w>
dro me</w>
FNU AP</w>
Mad am</w>
prison ers</w>
og o</w>
Co ast</w>
acknowledg ed</w>
Th er
stabil isation</w>
tis su
gre enhouse</w>
ail les</w>
coun t</w>
archit ec
géographi ques</w>
du ire</w>
oper ator</w>
Hondur as</w>
confir m</w>
L C
G I</w>
exp ir
fin ales</w>
indi vidu</w>
r av
con fin
intég rées</w>
199 0s</w>
m eu
u tes</w>
me d
amend ing</w>
inter face</w>
cigaret tes</w>
s c</w>
obj ects</w>
attén uer</w>
consoli dated</w>
great ly</w>
c ited</w>
ag issait</w>
présent ations</w>
reason ably</w>
chi ment</w>
annivers ary</w>
Biss au</w>
Vo tre</w>
curr iculum</w>
foun ded</w>
sovere ignty</w>
land scap
S AR</w>
str u
ven cy</w>
de pend</w>
Ex port</w>
TB S</w>
stu died</w>
suffici ently</w>
p pe</w>
ex erce</w>
A th
po ul
d â</w>
ve ille</w>
pré con
Law rence</w>
E ss
contr aign
ch amp
or ph
AS FC</w>
naturel le</w>
reser vations</w>
fores ts</w>
mentionn ées</w>
H RC</w>
ass isting</w>
Koweï t</w>
Fol low</w>
res ts</w>
mor ph
st y
atmosph érique</w>
col umn</w>
auton ome</w>
Eng ineering</w>
.ht m
wil dlife</w>
ass isted</w>
nour riture</w>
adop ting</w>
posi tives</w>
CF P</w>
accord ingly</w>
1. 6</w>
TR O
o i</w>
assign ment</w>
tu red</w>
respec ting</w>
des criptions</w>
voul u</w>
aci ón</w>
S es</w>
entraî né</w>
pic ture</w>
Journ ée</w>
a o</w>
produc tions</w>
N ami
M T</w>
Litu anie</w>
D j
ins cri
machin ery</w>
alis tic</w>
des ir
respecti fs</w>
. 3</w>
so in</w>
it enti
w illing</w>
new spap
indi ennes</w>
foot note</w>
fa ith</w>
passeng ers</w>
G am
Cat eg
comp tables</w>
Over view</w>
B A</w>
li tion</w>
I A
di esel</w>
co ff
Re venu</w>
ti rés</w>
sémin aire</w>
Medic ine</w>
ap porte</w>
sexu els</w>
1 16</w>
ot a</w>
revend ications</w>
over come</w>
exp ense</w>
cro issant</w>
bilatér aux</w>
s and</w>
dégrad ation</w>
answ ers</w>
sou l
par ental</w>
défici ence</w>
rev anche</w>
miti g
p ain
emb ar
show ing</w>
le aving</w>
No ti
enti rely</w>
ten e
T ai
ad ding</w>
t ar
netto y
Nouvel les</w>
tol érance</w>
pro sper
F ish</w>
per taining</w>
ref use</w>
certi fied</w>
on ing</w>
2. 6</w>
uni form
convainc u</w>
proc essed</w>
inter pr
withdra wal</w>
pé d
Produ its</w>
Don ald</w>
sen sibles</w>
sal les</w>
blan chiment</w>
G EN
re pli
EM ENTS</w>
illic ites</w>
m ées</w>
Tour ism</w>
Objecti fs</w>
moder nes</w>
TO TAL</w>
D ès</w>
ll er</w>
Slov akia</w>
comm and</w>
do ses</w>
p ed</w>
o la</w>
tot ales</w>
conclu t</w>
ag ements</w>
Rec e
ch eurs</w>
P il
Bul l</w>
18 ,
Ve ter
V en
intéress é</w>
N S</w>
land ais</w>
compar ativement</w>
monn aie</w>
Pub lish
enni al</w>
dem i</w>
enti elle</w>
iss ements</w>
B ack</w>
5 3
provi der</w>
attein tes</w>
Éco le</w>
Ve hic
valid ity</w>
dis play</w>
pon ent</w>
stre et</w>
mag n
re pos
co hesion</w>
Ethi opia</w>
par allel</w>
E sc
pare dness</w>
Broad casting</w>
satisfac tory</w>
re conciliation</w>
p. ex.</w>
Requi rements</w>
z er</w>
prévo ient</w>
Val ley</w>
C lin
mi di</w>
quali fiés</w>
ordin ateurs</w>
com fortable</w>
correspon dent</w>
tex ts</w>
N AF
hi er</w>
S ha
municip alities</w>
mot or</w>
P EN
l its</w>
solv abilité</w>
im pe
di o</w>
ac ute</w>
Pré c
B lo
indi quées</w>
ér in
c ab
x x
organis és</w>
so red</w>
mi le</w>
expéri ment
mati c</w>
con tenus</w>
in adequate</w>
nég lig
Trav aux</w>
é ma</w>
ais ie</w>
O J</w>
compr ise</w>
suffis antes</w>
Com plain
Reg ina</w>
K i
utilis ations</w>
mot eurs</w>
dis asters</w>
appuy é</w>
sign ing</w>
Sy m
inter val
fe ed</w>
financ ed</w>
tox iques</w>
U M</w>
gu er</w>
c ue</w>
ide al</w>
1 17</w>
P ow
PUB LI
ryth me</w>
dis h</w>
comp ulsory</w>
Coll ection</w>
Appl ications</w>
tox ic</w>
Pro m
Mon tene
B est</w>
v êtements</w>
ag as
on ally</w>
7 20</w>
Poin ts</w>
re pas</w>
c .-
assu med</w>
7 .1</w>
negoti ation</w>
sup érieures</w>
envis age</w>
fer ti
contr ast</w>
Alg érie</w>
197 2</w>
publi ées</w>
v in</w>
conclu ding</w>
ec ological</w>
diversi fication</w>
Leg isl
Cap e</w>
f asse</w>
CO P</w>
b ét
prom oted</w>
ens ures</w>
Qu el
car ds</w>
With out</w>
accoun table</w>
semin ar</w>
Ac adem
elec tric</w>
h arm
1 14</w>
acc red
Malay sia</w>
m ur
acces sibilité</w>
dro p</w>
formul aires</w>
lab el</w>
6 4
sembl able</w>
ani an</w>
00 0.00</w>
mid dle</w>
.c a.</w>
Bibli othèque</w>
spo use</w>
respon ding</w>
lo is
exclusi vely</w>
T AR
enc ad
An t
chann els</w>
pré sidente</w>
v i</w>
apparti ent</w>
CI C</w>
sol vency</w>
offici ers</w>
coun selling</w>
og en
fav ourable</w>
matern elle</w>
PRO GR
adjust ed</w>
Fac il
G as</w>
bl ack</w>
N on
Lat via</w>
us ine</w>
É douard</w>
trans fé
rec our
inter active</w>
Back ground</w>
f ère</w>
nam ed</w>
ét age</w>
terres tres</w>
T aking</w>
dép asse</w>
Slov aquie</w>
tionn ellement</w>
Over all</w>
Har mon
renew ed</w>
Oper ation</w>
médic ament</w>
eff lu
V A</w>
S K</w>
approu ver</w>
M el
C alls</w>
rédu ite</w>
ré jou
consul tant</w>
reques ting</w>
Ret our</w>
law ful</w>
Som alie</w>
complex ité</w>
h aut
conven ed</w>
house holds</w>
Joh ann
dési r
C ali
K O</w>
pri e</w>
Lib eria</w>
étiqu etage</w>
ill on</w>
. pdf</w>
exp édi
Règ les</w>
sp ices</w>
dé jeuner</w>
adop te</w>
famili ales</w>
AP PL
r h
auth enti
Ear th</w>
secu red</w>
beau ti
b y
uni ème</w>
porte feuille</w>
tro ops</w>
mo vements</w>
el ing</w>
examin ée</w>
Re gar
an ese</w>
ent ering</w>
appoint ments</w>
Sing apo
eth ics</w>
espér ons</w>
ég ales</w>
re fin
T elecommunications</w>
1, 5</w>
is sion
Rec ord</w>
6 8
W L
V ol</w>
R SS</w>
gé nie</w>
certain ement</w>
sign er</w>
Tr in
Me tho
w ind</w>
Arc tique</w>
or ateur</w>
acti onn
ati quement</w>
P éro
Cinqui ème</w>
ik istan</w>
Am nesty</w>
représent er</w>
garanti ss
Dis cus
dou ane</w>
qu asi</w>
lis ting</w>
P erc
simp les</w>
exclu ding</w>
comm andes</w>
N ON</w>
www. idrc.ca</w>
y es</w>
Dé cide</w>
le tins</w>
7 50</w>
work er</w>
Considér ant</w>
de par
ar isation</w>
L TD</w>
mer it</w>
sup pose</w>
ai dé</w>
Mac edonia</w>
acc él
chron ic</w>
reti rer</w>
arb res</w>
dev oted</w>
ré conciliation</w>
Com ple
ing ré
easi er</w>
cru ci
domin ant</w>
po m
resp ected</w>
autom atically</w>
g ure</w>
K in
cre dits</w>
clari fication</w>
Con f
appar aît</w>
Contin u
commiss aires</w>
opport un</w>
consac rés</w>
lead s</w>
qu e
s n
Th aï
spati al</w>
m aster</w>
Haï ti</w>
appréci ation</w>
Tro isième</w>
investi r</w>
vi es</w>
cour te</w>
vol ati
c ali
velop pe</w>
n ic
ret ail</w>
fi ent</w>
Prosecu tor</w>
précis é</w>
bibli oth
x én
Streng th
C W
dé ficit</w>
we igh
est ate</w>
descrip tif</w>
Chris tian</w>
evalu ations</w>
des ire</w>
He al
rap proch
É E</w>
pos és</w>
him self</w>
cou che</w>
scre en</w>
eth ical</w>
suff ered</w>
6 04</w>
e ven
12 8</w>
S ho
th inking</w>
maj eur</w>
grad ing</w>
b ench
PN UE</w>
INFORM ATION</w>
Glo ss
mat ur
éch app
él u</w>
at aire</w>
low est</w>
inj ection</w>
chin ois</w>
Cre ek</w>
libér alisation</w>
pre mises</w>
foc uses</w>
í a</w>
rec ording</w>
pé ti
vers ements</w>
some one</w>
C A
confir mer</w>
indemn ités</w>
génér ations</w>
ministéri els</w>
or ney</w>
acc ise</w>
pres cription</w>
D D</w>
w as
ro us</w>
12 7</w>
ré férences</w>
er o</w>
A qu
ad hé
preven tive</w>
exempl aire</w>
Analy se</w>
ré actions</w>
op ping</w>
compati bles</w>
Val eur</w>
pat h</w>
incorpor ate</w>
univer sel</w>
. int</w>
paci fique</w>
mol éc
autonom es</w>
T aux</w>
se ed</w>
hom olo
déc ouvrir</w>
me ant</w>
Human itarian</w>
Jac ques</w>
tr au
p ère</w>
no on</w>
lic k</w>
min ent</w>
100 ,000</w>
sen siblement</w>
www. ec.gc.ca</w>
vacc ination</w>
Inter governmental</w>
c.- à</w>
Montene gro</w>
Comp ens
Agr i</w>
Péro u</w>
consequ ence</w>
Est onia</w>
hou ses</w>
améric aines</w>
aband on</w>
R est
A h
ré cup
introdu ire</w>
frau d</w>
édo ine</w>
S ites</w>
Bar cel
cat alogue</w>
Lac s</w>
&apos; ve</w>
S ainte</w>
remedi es</w>
al k
E s
coordin ating</w>
Thaï lande</w>
profon deur</w>
se ules</w>
si f</w>
fu els</w>
Jord an</w>
ch asse</w>
19 60</w>
Ju d
el abor
13 2</w>
spéci fiquement</w>
5 4
éventu elle</w>
ro ads</w>
compo unds</w>
En forcement</w>
indi qués</w>
US D</w>
rou gh
Mac édoine</w>
en seignements</w>
cross ing</w>
décl arer</w>
kilom e
im mobil
calcul ation</w>
di r</w>
C all</w>
Fif ty</w>
re integration</w>
sam pling</w>
m ène</w>
Singapo re</w>
On t</w>
le um</w>
retur ning</w>
ou ts</w>
protég és</w>
regis tres</w>
ou ter</w>
T OR
them atic</w>
u ph
mean ing
appe arance</w>
réclam ations</w>
trad uit</w>
13 8</w>
conce voir</w>
toxic om
Por t
rev ê
sh ape</w>
restruc turation</w>
accom mo
étudi é</w>
rec alled</w>
part ly</w>
ti ll
Des ign</w>
Cop enh
intéri m</w>
O FF
Re affir
Turk ish</w>
Chur ch</w>
hu ge</w>
licens ing</w>
forc ing</w>
P AC</w>
f it
ig ni
famili al</w>
L U
confidenti al</w>
elec om</w>
al i</w>
rang ing</w>
Maur ice</w>
ret ain</w>
enjoy ment</w>
quanti tative</w>
amen er</w>
doc tr
di fication</w>
10 ,000</w>
m ass
5 ,000</w>
indic ator</w>
empris onnement</w>
dépos ant</w>
aw i</w>
1 18</w>
libr ary</w>
Comm ons</w>
o de</w>
par rain
dead line</w>
confidenti alité</w>
gov .
2. 2.
lég èrement</w>
c our</w>
las ting</w>
subj ected</w>
eng lo
Conse iller</w>
élec teurs</w>
autom atiquement</w>
res titu
e k
tal k</w>
is si
propor tion
ré els</w>
É T
Air port</w>
vo il
cro p</w>
O w
S R.
t rem
proj ections</w>
ell er</w>
Eur o</w>
affir mant</w>
2, 000</w>
Peri od</w>
ré ductions</w>
cou ple</w>
E cu
c esse</w>
appuy ant</w>
any one</w>
adap tés</w>
sec urities</w>
religi eux</w>
dis ant</w>
ep tions</w>
S B</w>
ol ing</w>
figh ting</w>
f en
dispar ition</w>
ch ant</w>
Work shop</w>
car s</w>
Viol ence</w>
hô te</w>
environnement al</w>
ask a</w>
mauv aise</w>
etro leum</w>
ré insertion</w>
S ales</w>
d ations</w>
avanc er</w>
T ch
M ack
ira qui
Pl at
4 2
docum ented</w>
minim ale</w>
C ap</w>
Armen ia</w>
vo is</w>
h ex
st ory</w>
Let t
k illed</w>
la isse</w>
pro hibition</w>
religi euses</w>
insc rites</w>
ori de</w>
céré mon
Prof essor</w>
peu x</w>
acqui re</w>
pl a
en ophob
complément aire</w>
Fr ais</w>
export ateurs</w>
su icide</w>
équi lib
S TI
any thing</w>
7. 2</w>
ann ulation</w>
Cont ac
Auth orities</w>
au spices</w>
bas ée</w>
des er
enver gure</w>
5 14</w>
pa tri
Direc tives</w>
ai gu
ar i</w>
Mc G
Gr ants</w>
termin al</w>
ing ue</w>
favor ise</w>
Dec isions</w>
pos sibly</w>
eco systems</w>
contribu tes</w>
éc ologiques</w>
dét ent
Proc essus</w>
me tres</w>
Bet ween</w>
ad mis</w>
qu is
fon dés</w>
Cor ps</w>
ch ir
Me asu
cons isting</w>
mat ure</w>
au str
enz ie</w>
Balk ans</w>
témo in</w>
Provi de</w>
ter y</w>
ré fléch
situ ées</w>
rev it
invest ors</w>
Retur n</w>
instaur ation</w>
tr on</w>
mar king</w>
él us</w>
appli quant</w>
di c</w>
vari été</w>
accueilli r</w>
de venue</w>
am mon
ge ographic</w>
dé cri
E SC
in hib
Ira q
v endre</w>
vers és</w>
préc isions</w>
oblig atoires</w>
dess ins</w>
Stat ements</w>
Travai l</w>
vou loir</w>
Nig éria</w>
mo stly</w>
Lett onie</w>
individu elles</w>
aw ards</w>
et own</w>
simil aire</w>
mis sionn
m L</w>
pre fer
DN A</w>
intro ducing</w>
Par agu
F lo
favor isant</w>
Harb our</w>
it res</w>
Mont éné
Ch ec
bo ards</w>
rele ases</w>
suppli ed</w>
stu pé
pu le</w>
co eur</w>
ol on
Com pre
F em
sur monter</w>
L T</w>
B h
meas uring</w>
dét éri
ent our
ch l
en largement</w>
pe l</w>
b om
w on</w>
contribu able</w>
ri ya</w>
bo î
present ations</w>
euro pa
béné fice</w>
Ham ilton</w>
eu t</w>
approuv ée</w>
ath l
ass ment</w>
il ing</w>
la g</w>
gu rer</w>
Conclu sion</w>
P ic
e ures</w>
pen alties</w>
hydro carb
ar me</w>
Parten ariat</w>
14 3</w>
conn us</w>
Pai ements</w>
app end
bu ff
sauv etage</w>
Peace keeping</w>
syndic ats</w>
ass ent</w>
spon sored</w>
El ection</w>
Cl au
reve aled</w>
superfici e</w>
Im portant</w>
p ont</w>
heal th
contin uation</w>
incorpor ation</w>
D eci
Mon aco</w>
multilatér aux</w>
Di alogue</w>
Constitu tional</w>
monit ored</w>
fonctionn e</w>
ag isme</w>
O S</w>
lo ading</w>
urb aines</w>
consul ted</w>
Monténé gro</w>
ach èvement</w>
trans it
emb ry
dam es</w>
loc ate</w>
i tin
met tra</w>
cl ick</w>
per su
pré co
P AR</w>
j ap
suppl ementary</w>
n onc
adress ées</w>
12 9</w>
intern ally</w>
belong ing</w>
Indus tries</w>
Ar mé
Grou ps</w>
consist ant</w>
accoun ted</w>
ex on
Pu bl
Sw iss</w>
ve ur</w>
install ed</w>
ang u
Est onie</w>
deploy ed</w>
kin ds</w>
beli ef</w>
6. 3</w>
pre judice</w>
COMMIS SION</w>
D im
ã o</w>
dot és</w>
pré sidents</w>
suff it</w>
E F
E I
rel ess</w>
gu ests</w>
plac er</w>
et al</w>
D on</w>
C ent
Ac tual</w>
Pro tec
ax és</w>
stand ardi
pl esse</w>
él ève</w>
Mo der
H. E.</w>
20 ,
pre sident</w>
men és</w>
ins ist
U sing</w>
pre sidency</w>
rece ives</w>
advoc acy</w>
I cel
P ren
Capac ity</w>
ur ance</w>
conc entrer</w>
Speci es</w>
ul timately</w>
exec ution</w>
g one</w>
main s</w>
affir mer</w>
Uni versal</w>
précéd ents</w>
Ho c</w>
Bu d
c ils</w>
horizon t
Micro soft</w>
Struc ture</w>
r attach
in i</w>
tic k
oppos ed</w>
conting ent</w>
dé crire</w>
rel le</w>
Cam er
é tri
c eci</w>
E G
mél ange</w>
bénéfici é</w>
In dependent</w>
vis iter</w>
go s
M essi
suppli er</w>
squ are</w>
frau de</w>
PM A</w>
Gre en
for th
me ur
2 1
cust ody</w>
o gram
D own
Mari time</w>
hospit als</w>
B élar
direc tor</w>
13 3</w>
Identi fication</w>
noti fied</w>
cré e</w>
Gall ery</w>
6 3
f ewer</w>
mis sing</w>
indic ateur</w>
bure auc
ani um</w>
col d</w>
V AL
f ts</w>
kilom ètres</w>
Can cer</w>
ro ot</w>
lis ation</w>
au d</w>
poss éd
Ex peri
subsi dies</w>
sc op
inv asion</w>
pos sibilities</w>
indi quée</w>
Propos ed</w>
rel ax
Budg etary</w>
int ends</w>
medic ine</w>
arbitr al</w>
G ene
A k
tr ain
rec eption</w>
pop ul
AS E</w>
pa th
merc ure</w>
ri enne</w>
W OR
7 9
Air lines</w>
touch ées</w>
Reg istr
b ath
mar in</w>
É thi
trans porteurs</w>
tr ans</w>
up per</w>
In s
clu b</w>
W he
plac é</w>
bot tom</w>
S N
résul te</w>
AUT ONU
Compens ation</w>
mo derni
AD N</w>
essenti ally</w>
absolu ment</w>
r ated</w>
comm ission
AUTONU M</w>
Dar fur</w>
ro w
prof essions</w>
pén ales</w>
F ull</w>
C SA</w>
minis terial</w>
Cre dit</w>
arri val</w>
T en
R N
Oper ating</w>
cho ices</w>
c es
Mal ta</w>
hôp ital</w>
l .</w>
Compre hensive</w>
Excell ency</w>
Paragu ay</w>
per du</w>
S mo
ad hér
poss èdent</w>
cour ants</w>
fonctionn er</w>
Mal aisie</w>
A ge</w>
Pe ti
m ers</w>
rul ing</w>
an om
utili zation</w>
assi mil
Accoun tability</w>
is ement</w>
ato on</w>
dom ain</w>
6 9
l adies</w>
Cali for
F aire</w>
ass ister</w>
Pri ority</w>
v ast</w>
rej eté</w>
de tection</w>
T ext</w>
Mo sco
pres erve</w>
noti fy</w>
inform atiques</w>
H A</w>
A Y</w>
break fast</w>
UN CI
quot a</w>
concl us</w>
médi ation</w>
clam ation</w>
tre es</w>
labor atoires</w>
progres sion</w>
mobil iser</w>
ﬁ n
datab ases</w>
ar rest</w>
att aque</w>
restaur ation</w>
progressi vement</w>
D ep
aci des</w>
1. 3.
Bélar us</w>
caus é</w>
at al</w>
ex changes</w>
li able</w>
europa .
engag ée</w>
Qu ar
dec lined</w>
ré examen</w>
R H</w>
xén ophob
lac s</w>
certific ats</w>
go t</w>
automob iles</w>
St ation</w>
deni ed</w>
pré servation</w>
ob tenues</w>
graph y</w>
pr endra</w>
occid entale</w>
déc ennie</w>
E co
écr an</w>
oc éans</w>
El ections</w>
sou plesse</w>
bact éri
r ation</w>
explo it
bio diversity</w>
entraîn ement</w>
nom més</w>
speci fications</w>
Au tom
command ant</w>
tiss ement</w>
compar e</w>
Refuge es</w>
o ise</w>
Wh y</w>
help ful</w>
eg al</w>
l un
offer tes</w>
1, 2</w>
contract antes</w>
genu ine</w>
constr u
&apos; ll</w>
describ es</w>
autoris ées</w>
Publ ication</w>
hypo thèse</w>
AN D
hi riya</w>
Déc ret</w>
onn ements</w>
estionn aire</w>
lib rement</w>
produ ite</w>
chann el</w>
consist ently</w>
17 0</w>
MONU C</w>
fisc aux</w>
v aut</w>
bu y</w>
Sau di</w>
aux ili
k in</w>
inter gouvernemental</w>
beauti ful</w>
el low
médic ales</w>
vac ances</w>
Represent atives</w>
gouverne ur</w>
correspond ance</w>
H ill</w>
uti ves</w>
H az
mol ec
wit nesses</w>
hygi ène</w>
législ atifs</w>
1 19</w>
ne ig
in capacité</w>
n one</w>
In uits</w>
systé mati
Per sp
nég atifs</w>
Deu xièmement</w>
Qu i</w>
00 0
rog en</w>
Issu e</w>
insp ir
Jama hiriya</w>
analy tical</w>
EM B
D ub
AIN C</w>
A sp
b arg
di ent</w>
introdu it</w>
prosp érité</w>
éventu elles</w>
typ ically</w>
bilingu al</w>
Pro t
un certainty</w>
immédi ate</w>
Ser ies</w>
visib ilité</w>
serv ants</w>
esti c</w>
V an</w>
H au
É qu
ur a</w>
4 .</w>
harm ful</w>
5. 4</w>
ali an</w>
re as</w>
8. 2</w>
Em ail</w>
Princip es</w>
Ren ew
Gul f</w>
félic iter</w>
lingu istic</w>
fer ont</w>
considér ant</w>
Éthi opie</w>
impl ic
approu ve</w>
différ ent</w>
design ation</w>
V EL
Accoun ts</w>
oly mp
mer ely</w>
TR A
organis ms</w>
st ar</w>
do w</w>
respon ded</w>
clo sing</w>
biotechn ologie</w>
p ne
m â
Am ster
E O</w>
p h</w>
Av ail
Re form</w>
O P</w>
Gro w
9 02</w>
m erg
oxy de</w>
interpre ted</w>
cor ré
Direc tors</w>
adap t</w>
recip ients</w>
protég ées</w>
i ous</w>
péd ago
x y</w>
désign ée</w>
carri ers</w>
F ER
journ aux</w>
s avons</w>
prin ted</w>
int érieures</w>
organ ise</w>
0. 5</w>
produc teur</w>
Res id
de teri
autoris ations</w>
SO R</w>
gi bles</w>
psy chi
Steph en</w>
fréqu emment</w>
&apos; Ivoire</w>
rend ent</w>
sk illed</w>
Tr ad
mech an
vi ande</w>
restruc turing</w>
power ful</w>
M on</w>
some what</w>
manu al</w>
er nal</w>
accur acy</w>
renforc é</w>
negoti ating</w>
ax ées</w>
exprim ées</w>
me at</w>
pour rez</w>
B E</w>
amélior é</w>
M iss
ref user</w>
vers ée</w>
forec ast</w>
adv ances</w>
Contac tez</w>
Lond res</w>
ar chi
addi tionnels</w>
In tel
Ch er
net tement</w>
l an
Dar four</w>
por tera</w>
D EM
D at
prepar atory</w>
Amster dam</w>
in validité</w>
constitu tionnelle</w>
fermet ure</w>
us ses</w>
vulnér abilité</w>
re me
è se</w>
h i</w>
È RE</w>
succ essi
19 ,
Pol ici
Diff er
appropri ations</w>
sti pule</w>
conna issent</w>
fix ation</w>
Fre e
Armé nie</w>
sugg éré</w>
Th ir
ré nov
ré adaptation</w>
Procu rement</w>
entr av
S her
An gl
proced ural</w>
f rapp
for êt</w>
ô mes</w>
di d
ev olution</w>
cher che</w>
haut ement</w>
allem and</w>
gar çons</w>
Off icers</w>
hop ed</w>
tis me</w>
wal k</w>
souha iter
R C
9 0
ve ter
Manu al</w>
autor ise</w>
recueilli es</w>
Rou ge</w>
R ound</w>
Mad agas
re porter</w>
appel ée</w>
prote in</w>
ER E
Op in
M ach
pregn ancy</w>
Sask atoon</w>
te au</w>
tent ative</w>
lo v
consult atifs</w>
az ote</w>
tab led</w>
dis turb
intol érance</w>
lo se</w>
form ing</w>
ap h
complex ity</w>
tan gible</w>
T arg
re tention</w>
pour suivi</w>
consac rées</w>
u al</w>
p in
ajust ement</w>
rem un
Mon ter
safegu ards</w>
Mark eting</w>
ap point</w>
Ay ant</w>
connex ion</w>
Govern ance</w>
spec trum</w>
chro mo
br ings</w>
dép ens
ra w</w>
im per
in désir
K el
banc aire</w>
Head s</w>
link ages</w>
Practi ce</w>
M arg
Madagas car</w>
reç ue</w>
polici ers</w>
Mo vement</w>
D al
No ting</w>
main streaming</w>
fair ly</w>
ai dera</w>
Enter prise</w>
n ative</w>
st ab
accesso ires</w>
con tenues</w>
re jet</w>
div or
pos ées</w>
ord ered</w>
public ly</w>
Inter est</w>
14 1</w>
vari e</w>
stupé fiants</w>
sur faces</w>
int ent</w>
3 rd</w>
sou ci</w>
inter ro
Au ditor</w>
s aurait</w>
oty pes</w>
chap .</w>
bre ach</w>
issu ance</w>
P IC</w>
join ts</w>
Polici es</w>
Consi deration</w>
isol ated</w>
ex act</w>
miti gation</w>
sexu elles</w>
de viennent</w>
chauff age</w>
Occup ational</w>
prece ding</w>
occup ant</w>
N ep
proce eding</w>
c ens
mi ques</w>
gener ations</w>
thres hold</w>
De velop</w>
Ou ganda</w>
Ap p
ch loro
on e
exp anding</w>
j a
id en
COM P
environ ments</w>
compét ent</w>
har c
reconn ue</w>
se ats</w>
F unds</w>
satell ites</w>
grand ement</w>
aî nés</w>
reme dy</w>
quotidi enne</w>
tri ed</w>
19 68</w>
re ux</w>
détermin és</w>
con tres</w>
Pro jets</w>
j um
èg ue</w>
Sub committee</w>
inten sité</w>
defin ing</w>
N &apos;</w>
constat ations</w>
Off ices</w>
grav ité</w>
absor ption</w>
ra ff
sur viv
combusti ble</w>
b ic
ap art
j ac
9 8
N F
sch ol
spe ech</w>
att ache</w>
seg ments</w>
prévoy ant</w>
N ature</w>
M ir
establish es</w>
out reach</w>
Mar k</w>
M ech
sk in</w>
Sub section</w>
Strength ening</w>
re alization</w>
with standing</w>
terr ains</w>
perce ived</w>
oper ates</w>
dri ver</w>
Re duction</w>
an thro
ext érieurs</w>
tab agisme</w>
car go</w>
tr uly</w>
cre w</w>
Lin ks</w>
it ly</w>
esti ment</w>
12 6</w>
atis ation</w>
détermin ées</w>
phen omen
tra its</w>
organiz e</w>
beg un</w>
inf ec
énerg étiques</w>
P V
fr action</w>
nécess ite</w>
D ANS</w>
AI S</w>
prati quement</w>
co alition</w>
conc ré
v in
ri ère</w>
rati fié</w>
extr ême</w>
loo ked</w>
co operative</w>
Lu ci
att endant</w>
perf ect</w>
ven ti
er ly</w>
Ph armac
colon ies</w>
pétro li
C lick</w>
ar ticul
red ress
our selves</w>
lo g</w>
Dis ease</w>
const amment</w>
w rite</w>
provis oires</w>
O IT</w>
tun n
injur ies</w>
b aie</w>
eco system</w>
stake holder</w>
Legisl ative</w>
élec tro
ANN EX
H ousing</w>
import er</w>
éman ant</w>
D estin
es .
accep te</w>
F oc
D onnées</w>
im er</w>
systémati quement</w>
convinc ed</w>
ban king</w>
l ay
N EP
Alban ia</w>
envis aged</w>
ab eth</w>
cons éc
audio visu
M as
ref used</w>
2 20</w>
differ enti
procu rer</w>
légi time</w>
p ir
spon sors</w>
off set</w>
caract ères</w>
Dani el</w>
vi ously</w>
f ear</w>
Eth ics</w>
ir ait</w>
é preuve</w>
initi ally</w>
cro ps</w>
Mari a</w>
Web site</w>
F arm</w>
Re al</w>
gro und
Ecu ador</w>
u l</w>
s low</w>
succ ession</w>
T ox
plat form</w>
2 10</w>
déc entr
garanti t</w>
set tlements</w>
sp end</w>
pu tting</w>
far deau</w>
ran e</w>
exhausti ve</w>
Bo dy</w>
Aus si</w>
aéri ennes</w>
constitu ée</w>
allég ation</w>
Johann es
concre ts</w>
ris quent</w>
représent é</w>
de ep
Ex hibit</w>
mag ni
rou ge</w>
Deci des</w>
uni ques</w>
p ain</w>
susp ended</w>
00. 00</w>
transi tional</w>
Pur pose</w>
L as
P B
proce eds</w>
é tisation</w>
j eudi</w>
calcul er</w>
ret ained</w>
Direc trice</w>
Di eu</w>
emb argo</w>
st ore</w>
in ég
citoy en</w>
G RE
REL ATI
individu elle</w>
Eff ects</w>
gross esse</w>
consider ably</w>
W ind
attribu able</w>
appu ient</w>
Institu tion</w>
R P</w>
S ti
Co alition</w>
ban k
cour age</w>
sug gestion</w>
refl ecting</w>
2 1.
us ées</w>
desir able</w>
A wards</w>
t ap
qu ait</w>
An im
Suppl ément</w>
jug és</w>
publi er</w>
G od</w>
gro wn</w>
pay ing</w>
ho t</w>
aspir ations</w>
consul ting</w>
an ique</w>
5. 5</w>
Tunis ia</w>
dot er</w>
Ste ering</w>
he ight</w>
8 4
form ula</w>
Deleg ations</w>
la m</w>
questionn aires</w>
Re quest</w>
mix ed</w>
mor andum</w>
entre vues</w>
m ales</w>
affec té</w>
ris ing</w>
SP EC
ne aux</w>
wit ness</w>
vé ni
se paration</w>
T elecom</w>
Respon s
dé passer</w>
Tob acco</w>
Sh ould</w>
touch ent</w>
fa itement</w>
port es</w>
dé partement</w>
délégu és</w>
pu its</w>
vi vement</w>
UN ID
vo ient</w>
proj ected</w>
libell é</w>
Messi eurs</w>
ex positions</w>
er als</w>
disciplin aire</w>
L IM
govern ed</w>
att ent
sauv ages</w>
stimul er</w>
pay és</w>
M t</w>
FI A</w>
O il</w>
Acc ès</w>
L ind
L eur</w>
distribu er</w>
psych ological</w>
po t
enni es</w>
b es
R PP</w>
fer mement</w>
17 5</w>
do s</w>
com bien</w>
vulner ability</w>
Recomman dations</w>
CH R</w>
banc aires</w>
Nu tri
impos ent</w>
Practi ces</w>
m aires</w>
recomm ander</w>
u vi
absolu te</w>
bo x
ob vious</w>
Inter im</w>
en ables</w>
C are
therap y</w>
texti le</w>
Hô tel</w>
er adication</w>
N a
Ste w
mutu elle</w>
aci al</w>
délibér ations</w>
coû te
Regi ons</w>
af gh
rap ides</w>
hé bergement</w>
13 4</w>
Alber t</w>
c able</w>
8 3
harc èlement</w>
en voi</w>
b ol
install er</w>
développ é</w>
salari és</w>
par faitement</w>
sit ue</w>
san itaire</w>
Char lot
posi um</w>
em o
re pu
accommo date</w>
Consi der
diminu er</w>
march es</w>
en ch</w>
av a</w>
dépu té</w>
ard ship</w>
O D</w>
tradi tionnelle</w>
di al</w>
can al</w>
trans fér
f eux</w>
compl ementary</w>
N L</w>
sk y</w>
Tr adi
échantill onnage</w>
B order</w>
régu lier</w>
ec es</w>
sanc tion</w>
sou mission</w>
mobi les</w>
gu il
we ar</w>
T om
L M
Observ ations</w>
Po verty</w>
sw it
plac és</w>
la undering</w>
fish ery</w>
ari ans</w>
Johannes burg</w>
diplom atique</w>
y n
s ave</w>
AC TI
0 .1</w>
Employ ees</w>
del ays</w>
concern ée</w>
W D</w>
fin alement</w>
no ting</w>
mar ines</w>
manufactu red</w>
Sing apour</w>
juven ile</w>
contin ental</w>
déc ennies</w>
command ement</w>
attemp ts</w>
dét ach
ré cent</w>
le çons</w>
sh ar
on t
el se</w>
D ue</w>
fo ssi
inv est</w>
en or
in certitude</w>
Mal te</w>
a issent</w>
or i</w>
Prai ries</w>
in solvabilité</w>
DA W</w>
pack aging</w>
lab elling</w>
Objecti f</w>
TO PIC
in comb
C AD</w>
gag ner</w>
on om
meaning ful</w>
fon dant</w>
24 ,
ro tation</w>
r ares</w>
Ar mée</w>
pê cheurs</w>
li abilities</w>
2 33</w>
éto iles</w>
E B
accueill i</w>
high light</w>
gratu itement</w>
rap atri
Fabr ication</w>
w ine</w>
refus al</w>
C auc
respec te</w>
15 7</w>
atte ign
D M
fai bl
dé mon
13 6</w>
Qu elles</w>
M emorandum</w>
re vient</w>
p ili
Compu ter</w>
ret ro
A reas</w>
ent é</w>
B il
Mé tho
speci alists</w>
pre valence</w>
AI RES</w>
Un ité</w>
cu b
zer o</w>
arrê ter</w>
Reg ister</w>
approuv ées</w>
Ter ms</w>
t es
gl and</w>
classi ques</w>
deman der
ak a</w>
Iraq i</w>
vo iture</w>
w ill
character ized</w>
Discus sion</w>
es seurs</w>
prot ocols</w>
retrou ve</w>
For mul
degrad ation</w>
he av
re voir</w>
compl ic
w ished</w>
palestini enne</w>
acqu ise</w>
z b
en comp
O pen
réun ir</w>
coher ent</w>
Sén égal</w>
f illed</w>
sub séqu
port folio</w>
cohér ente</w>
g ained</w>
Oper ational</w>
pe er</w>
éc arts</w>
accept ables</w>
P un
CANADI AN</w>
bio diversité</w>
biblioth èques</w>
sul ph
rad ic
sh ap
s aine</w>
adéqu at</w>
ou bli
p a</w>
T ogo</w>
N ation
norm alisation</w>
NEP AD</w>
depos ited</w>
A W
O l
W ol
pursu ed</w>
institu ts</w>
él ég
sum mit</w>
post al</w>
parti al</w>
gos lav</w>
Mes dames</w>
ag isse</w>
compt abil
ver tical</w>
religi ons</w>
micro bi
iden tical</w>
Mon etary</w>
................................ ................................
tw ice</w>
enophob ia</w>
U l
peri or</w>
unilat ér
s aying</w>
G ri
he ur
TOPIC .html</w>
r ating</w>
certific ates</w>
ic ing</w>
mag né
Par ti</w>
NAF TA</w>
I e</w>
pri mor
chem ins</w>
dé ment</w>
insul aires</w>
ra just
dem i
c on</w>
Yu goslav</w>
Educ ational</w>
SO UR
Cer tain</w>
examin ing</w>
ographi es</w>
S EP
ack ed</w>
D S
phenomen on</w>
op hy
appropri ation</w>
w ages</w>
liti ge</w>
Fil m</w>
Ag ent</w>
b ad</w>
man dated</w>
er ai</w>
constitu ted</w>
de als</w>
Inf o</w>
dé lic
o sis</w>
ex tin
so dium</w>
indic es</w>
K O
pré férence</w>
An dre
Ap pu
texti les</w>
comm ises</w>
Tunis ie</w>
18 2</w>
CE DAW</w>
D EC
Dom estic</w>
n ée</w>
ai dent</w>
occup és</w>
n Ã</w>
w ording</w>
pack ages</w>
Noti ces</w>
insc rite</w>
in compatible</w>
ord res</w>
negoti ated</w>
environ mentally</w>
esp Ã</w>
val or
US T</w>
on ds</w>
S itu
num ériques</w>
lu es</w>
uni form</w>
reco ver
trans national</w>
lon gues</w>
M ary</w>
ot ro
hu ile</w>
communi quées</w>
or ts</w>
bal ances</w>
am as</w>
7 6
journ alistes</w>
é mie</w>
ai der
direc tes</w>
ur ge</w>
br is</w>
Alban ie</w>
cu ité</w>
Prés entation</w>
PO S
s ements</w>
loo ks</w>
g ing</w>
Categ ory</w>
UNID O</w>
So li
N ur
c tu
intermédi aires</w>
demand ent</w>
t éléc
s u</w>
Jo sé</w>
AI T</w>
hect ares</w>
Gu y
st ance</w>
Maur it
intensi fier</w>
sw ana</w>
ré p
Mus li
op ath
nettoy age</w>
practition ers</w>
14 5</w>
respec tent</w>
idé al</w>
ag on
minim ize</w>
o ke</w>
9 57</w>
Respon sible</w>
activ ation</w>
épar gne</w>
el er</w>
comm é
Fac ility</w>
E arly</w>
C SC</w>
pass ation</w>
l ake</w>
Répon se</w>
Do es</w>
comm it</w>
autom atique</w>
N ice</w>
u k
p av
Clo sed</w>
é changer</w>
addi tionnel</w>
compl ement</w>
fix ée</w>
ach ed</w>
s cor
gosl ave</w>
Ar b
deliver ing</w>
Sen egal</w>
requér ante</w>
ene ver</w>
palestini ens</w>
evi dent</w>
re pair</w>
dé tru
A CO
pres cr
tempor aires</w>
immobili ers</w>
réguli ers</w>
É ducation</w>
prec ise</w>
no w
att end
diplô me</w>
inform és</w>
probl é
ri gi
s én
rej ets</w>
plan ète</w>
Monter rey</w>
pe au</w>
W aste</w>
J O
arm é</w>
Tor ture</w>
observ ateur</w>
Scot t</w>
aqu atic</w>
consoli der</w>
Ap propri
S cre
Regis tre</w>
enab led</w>
separ ately</w>
Rob er
E quality</w>
r and
de puty</w>
Civi li
volunte ers</w>
assemb lée</w>
at ori
d ol
Oce an</w>
re sumed</w>
jug er</w>
consul té</w>
for tes</w>
where by</w>
0 1.
de ficit</w>
0. 0</w>
st at</w>
ON E</w>
ou n</w>
e dition</w>
dis cré
p ine</w>
re fu
Ur ban</w>
15 1</w>
caus és</w>
strat es</w>
ad vise</w>
fi gurer</w>
bénéfici e</w>
IN T</w>
s ant</w>
UR ES</w>
Mo ham
sou p
C AT
sat ur
qualit ative</w>
immobil isations</w>
cent aines</w>
H OM
ri c</w>
détermin e</w>
MAT TER</w>
reven ir</w>
o a</w>
bibli othèque</w>
S and
Lib éria</w>
r ss</w>
ANNEX E</w>
gi c</w>
préal ables</w>
dur abilité</w>
multilatér al</w>
Bot swana</w>
par ks</w>
compl ément</w>
H AR
La c</w>
bo ys</w>
spécialis ée</w>
v itr
ci es</w>
St atistical</w>
ib le</w>
Ac ting</w>
acces sibility</w>
z be
Fre der
G ati
3. 0</w>
expos ées</w>
ant a</w>
coordonn ées</w>
M em
T T</w>
purch ased</w>
contamin ated</w>
Commun autés</w>
Con tre</w>
Mou vement</w>
r aient</w>
appel er</w>
g ed</w>
IM F</w>
om a</w>
fam ous</w>
bre eding</w>
anci es</w>
détaill és</w>
accus é</w>
ic op
amb igu
simpli fication</w>
origin ally</w>
Conf lic
pro mis
15 5</w>
provi ennent</w>
abr i</w>
S av
bur y</w>
C it
om e
collecti ves</w>
G ES</w>
Leg islation</w>
prépar atifs</w>
bre f</w>
bil lets</w>
lati tude</w>
ad her
re n</w>
CON F.
Sén at</w>
der ly</w>
ouv rage</w>
dem ographic</w>
week ly</w>
tél .</w>
at tenti
gl ace</w>
pharmaceu tiques</w>
désign er</w>
dot é</w>
9 7
Set tlement</w>
a rest</w>
main tains</w>
calcul é</w>
ré par
i p</w>
O x
si as
pl ed</w>
Measu rement</w>
ent en
ar ités</w>
broad cas
erro rs</w>
ur ship</w>
dou bl
recycl age</w>
vacc ine</w>
scol arité</w>
OR D
judici ary</w>
déc rits</w>
fores try</w>
aven ue</w>
représent és</w>
Médi ateur</w>
you goslave</w>
ren contrer</w>
prof esseur</w>
urb aine</w>
caus ing</w>
gradu ate</w>
13 7</w>
hear ings</w>
merc ury</w>
und red</w>
Regar ding</w>
Y et</w>
quotidi en</w>
subven tionn
cent er</w>
Statisti ques</w>
entrepren eur</w>
harmon ization</w>
1 31</w>
all ons</w>
K am
ré cip
Jap anese</w>
thé âtre</w>
ter ies</w>
motiv ation</w>
fin itions</w>
m el
it ability</w>
P F
trad uire</w>
m ans</w>
neigh b
S UM
I ES</w>
ai red</w>
prom otes</w>
pr ête</w>
célé br
appli qués</w>
grati tude</w>
neighbour ing</w>
Wor kers</w>
prononc er</w>
avanc ées</w>
Accoun t</w>
har assment</w>
ke y
establish ments</w>
in aug
in timi
subs istance</w>
V ision</w>
L S</w>
benef icial</w>
appro ve</w>
T N</w>
entre pos
v ét
correc tions</w>
vari ed</w>
assemb ly</w>
aimer ais</w>
m assi
sa ou
inform el</w>
immeu ble</w>
agré ment</w>
b ord
contr aven
ult érieurement</w>
c ession</w>
re prendre</w>
Ma p</w>
ir o</w>
g el</w>
Out come</w>
comm only</w>
d ité</w>
ac king</w>
asi de</w>
C u
xénophob ie</w>
syner gies</w>
0, 5</w>
M C
voc ation</w>
accue ille</w>
L it
sub stitution</w>
institu tionnelles</w>
magaz ine</w>
conf isc
compos ants</w>
s ting</w>
refus é</w>
D un
Bro wn</w>
terres tre</w>
ch arbon</w>
ish ments</w>
N ar
dens ité</w>
Comm it
Gr ant</w>
depar ture</w>
minim ales</w>
discre tion</w>
lég ale</w>
ali ers</w>
Nep al</w>
couver ts</w>
20 2</w>
min ors</w>
Mal awi</w>
B N</w>
dirig é</w>
King ston</w>
cer ner</w>
ret omb
AR Y</w>
14 9</w>
prou ver</w>
Recogni zing</w>
Icel and</w>
réclam ation</w>
trou pes</w>
ati cs</w>
Co sts</w>
ti rées</w>
pol it
foc al</w>
négoci er</w>
es ter
contract ante</w>
adap té</w>
apparten ance</w>
pp m</w>
J U
cer em
s le
compl ets</w>
c ann
inst ant</w>
assur ée</w>
manifest ation</w>
con tenir</w>
sul f
MH z</w>
ex acti
ag en</w>
er b
attr act</w>
R EN
h r</w>
to il
forth coming</w>
farm ing</w>
3 e</w>
tom b
maxim al</w>
ouvr ages</w>
vig il
fe eding</w>
Gati neau</w>
R ac
contr actual</w>
ou vre</w>
gre ff
É v
Att orney</w>
16 5</w>
promot eur</w>
human ity</w>
Im mun
14 2</w>
pén itenti
reg imes</w>
cre ative</w>
assur és</w>
individu el</w>
l ait</w>
D H</w>
the tic</w>
se es</w>
is ely</w>
prélimin aires</w>
pu p
Î les</w>
ori enter</w>
L IN
veri fy</w>
evalu ating</w>
Mi gration</w>
appr ais
Mess age</w>
achev é</w>
aqu atiques</w>
mil k</w>
chi ef</w>
19 69</w>
mu sul
quali fié</w>
encourage ant</w>
Lead er</w>
iss ants</w>
g gl
m ac
fa ther</w>
fau te</w>
g ers</w>
Co ût</w>
entre vue</w>
san itation</w>
coher ence</w>
sé paration</w>
Re fer
Under standing</w>
contempor ary</w>
v rais
3 06</w>
É tude</w>
spher ic</w>
h o</w>
aff ects</w>
inno cuité</w>
mark et
rati onn
Mu sic</w>
phys icians</w>
v eux</w>
Obj ectives</w>
graphi c</w>
ren contres</w>
2. 7</w>
Secon dly</w>
F our</w>
won der
appar ition</w>
19 0</w>
liqui d</w>
J an</w>
guid ed</w>
J uli
hab itation</w>
E rit
es tri
benefici aries</w>
Pour quoi</w>
to ires</w>
bas é</w>
Jord anie</w>
IA EA</w>
H ou
arm ements</w>
De b
inf ected</w>
g on
Res er
quali fy</w>
dec entr
con serve</w>
Premi èrement</w>
al ti
parti ellement</w>
identi ques</w>
P ris
lit toral</w>
preser vation</w>
consac rer</w>
b o</w>
Coun sel</w>
s ée</w>
mer credi</w>
eng end
An dr
circul ated</w>
h undred</w>
matern ité</w>
facil ité</w>
D urban</w>
L ord</w>
a qui
S ul
vol ets</w>
éch ec</w>
affec ter</w>
Utilis ation</w>
us ines</w>
subm its</w>
3. 6</w>
rec all</w>
sauve garde</w>
pre ferred</w>
y o</w>
is ive</w>
min eral</w>
F MI</w>
cl av
v astes</w>
Comp anies</w>
in puts</w>
clo s</w>
recogn ised</w>
Nig er</w>
combusti bles</w>
soulev ées</w>
parti tion</w>
ad os</w>
éché ance</w>
Ex erc
C EN
Ass urance</w>
persist ent</w>
Tanz ania</w>
Chang es</w>
S N</w>
typ ical</w>
15 3</w>
mat ch</w>
f at</w>
Ob lig
visi onal</w>
vér itablement</w>
rur ale</w>
tradi tionnel</w>
dem ain</w>
J ur
Coun ty</w>
PO SI
at o</w>
Clau de</w>
fluctu ations</w>
a g</w>
Ar ms</w>
Ob server</w>
rou tière</w>
constitu tionnel</w>
er ion</w>
Part ners</w>
Palestini ens</w>
bound aries</w>
M G</w>
in forme</w>
prosp ects</w>
g ames</w>
pour tant</w>
rest oration</w>
perman entes</w>
Afgh an</w>
St or
g old</w>
Ro le</w>
Employ er</w>
lég al</w>
crimin els</w>
AN TS</w>
contribu era</w>
Grow th</w>
C arri
eu tic</w>
pl ates</w>
liter acy</w>
M ail</w>
inten tions</w>
so ir</w>
rich es</w>
2 8.
vi br
G as
On line</w>
Pal ais</w>
r at</w>
assist é</w>
infirmi ères</w>
cour ante</w>
in sé
icon que</w>
Tal ib
ré agir</w>
Pol y
compos ée</w>
ti vely</w>
Territ orial</w>
what ever</w>
fix ées</w>
encour agé</w>
intel lig
commod ity</w>
ai g
SID ENT</w>
LDC s</w>
oblig ed</w>
str ation</w>
B ag
McG ill</w>
19 49</w>
F E</w>
sépar ément</w>
dg es</w>
f ail</w>
définiti f</w>
tor at</w>
altern ate</w>
mar qué</w>
investig ated</w>
Mo ts</w>
t us</w>
di ligence</w>
c abinet</w>
ci um</w>
cons ist</w>
Commit ments</w>
Mon tant</w>
Is lande</w>
satis fy</w>
Reco very</w>
dens ity</w>
C G
Labor atory</w>
élabor és</w>
ti ré</w>
su mption</w>
g in
fum eurs</w>
TR IB
testi mon
elec trical</w>
effici ence</w>
Dig ital</w>
mét alli
Qu els</w>
s se</w>
H S</w>
Con sen
ç on</w>
cri tic
GRO U
e i</w>
abu dg
In cid
chal eur</w>
safegu ard</w>
B and</w>
urb ains</w>
vis as</w>
identi fiés</w>
b att
offer te</w>
Benef it</w>
anti ème</w>
insuffis ance</w>
Curr ently</w>
corrig er</w>
quanti ties</w>
législ ations</w>
s év
aff ord
In qui
pres sing</w>
Direc t</w>
m b
équi page</w>
agre es</w>
S ix</w>
B E
29 .
coopér atives</w>
I O</w>
remun eration</w>
per turb
g are</w>
mar di</w>
communic ated</w>
gr ains</w>
ais ses</w>
h in
avanc ée</w>
dg ing</w>
T RE
élector ales</w>
AI R</w>
it ors</w>
ré tablir</w>
abor ig
TEL US</w>
7. 3</w>
min orité</w>
mo thers</w>
conven us</w>
circons cription</w>
SC R
7 8
ent ôt</w>
gar anti</w>
ver sus</w>
credi bility</w>
pi eds</w>
iterran é
es a</w>
er res</w>
apport ée</w>
15 2</w>
W .
AM END
C. P.</w>
re alistic</w>
adap tées</w>
inv iter</w>
tre at</w>
proc ède</w>
end em
remar ks</w>
travail leur</w>
t ely</w>
Consen sus</w>
CON SUL
wish ing</w>
profon de</w>
inc iter</w>
norm ales</w>
happ en</w>
B at
ni r</w>
direc tors</w>
Ex amples</w>
prestat aires</w>
rough ly</w>
dépos ées</w>
teach er</w>
f s
p isc
sen iors</w>
ed y</w>
zi p</w>
integr ating</w>
contac ter</w>
T own</w>
exp ensive</w>
o ks</w>
explo sifs</w>
manif este</w>
fem ales</w>
atri c</w>
co l</w>
pi ece</w>
ac tor</w>
a ero
vacc ins</w>
prou d</w>
y .
T C
impli quant</w>
des ired</w>
z he
n r
peri o
dé ser
UN IF
ill us
ster ing</w>
to s</w>
c élè
fl am
Mal heureusement</w>
G .
imprim able</w>
coordonn ateur</w>
ex porter</w>
renforc ée</w>
assur ent</w>
f ères</w>
éc rites</w>
pré sum
sug ar</w>
tri b
AT TEN
concer tation</w>
som maire</w>
apti tude</w>
13 9</w>
7 4
au dit
repe ated</w>
prov en</w>
deliber ations</w>
pré judici
ear ned</w>
organiz ing</w>
br and</w>
bat eau</w>
ill égale</w>
ex hor
dépos és</w>
ag an</w>
conn ec
as king</w>
Équ ateur</w>
h us
reconna issant</w>
sal mon</w>
ré it
Gre ek</w>
convi endrait</w>
Dj ib
landscap e</w>
Econom y</w>
confidenti ality</w>
emplo ie</w>
aj out</w>
Sahar a</w>
P in
eri al</w>
récup ération</w>
sac ri
grat eful</w>
En gland</w>
Em plo
s letter</w>
apport és</w>
fo ot</w>
eventu ally</w>
be ings</w>
mono po
he b
con dem
14 6</w>
A id</w>
di xième</w>
termin e</w>
p in</w>
2 30</w>
ri ers</w>
fi abilité</w>
appar aître</w>
W ell
jard ins</w>
sit ting</w>
C eux</w>
SI DA</w>
ro ots</w>
afric ain</w>
opér ateurs</w>
AD R</w>
J EC
O ld</w>
prosper ity</w>
UN E</w>
mag as
octro y
broad cast</w>
entrepos age</w>
P .1</w>
mentionn er</w>
origin ating</w>
in du
e ply</w>
Equ ity</w>
attribu é</w>
pres ti
m p</w>
met als</w>
accor dés</w>
Registr ar</w>
&apos; m</w>
AA AA
alumin ium</w>
exacti tude</w>
16 6</w>
re vi
souha itable</w>
ou b
spon sor
bloc k</w>
conjoin ts</w>
inter dire</w>
identi fies</w>
élev age</w>
Nav ig
occurr ing</w>
shi pping</w>
chois is</w>
déc rite</w>
clu bs</w>
Po st
P ay</w>
ext ending</w>
6. 4</w>
é conom
formul é</w>
multilatér ales</w>
T ON</w>
cess é</w>
High way</w>
am ong
power ment</w>
enti els</w>
destro yed</w>
port able</w>
p l</w>
Di versi
tur ned</w>
am orti
Concer ning</w>
clu ster</w>
amen de</w>
recher cher</w>
aï que</w>
caus er</w>
car to
out puts</w>
offici er</w>
s oph
prob abilité</w>
dé pense</w>
UNIF EM</w>
R eci
maj or
9 3
Tob ago</w>
str ai
F ar
among st</w>
lois irs</w>
ing ness</w>
compil ation</w>
sympt ômes</w>
proté ines</w>
comport ent</w>
pens ons</w>
compris ing</w>
M ES</w>
ist ent</w>
inf anti
ent i</w>
rou tine</w>
ag res
modi ties</w>
attribu table</w>
boo k
Mon c
cour antes</w>
com pose</w>
re tenues</w>
isol ation</w>
caract ér
harmon iser</w>
de tained</w>
missi les</w>
habit ant</w>
eli er</w>
im pai
quit ter</w>
Up date</w>
D or
Moun tain</w>
initi ate</w>
wai ting</w>
TEC H
Inter pre
OH CHR</w>
us agers</w>
inten se</w>
N ative</w>
f ell</w>
con fort</w>
pro ches</w>
ne z</w>
sol ic
we ak</w>
OR G
Mack enzie</w>
ten ing</w>
C AP
Add. 2</w>
mo des
q l</w>
méthod ologie</w>
ren ov
b arr
w ag
tionn aire</w>
aler te</w>
f assent</w>
déc ouverte</w>
an alogues</w>
eli hood</w>
N .-
1. 7</w>
wid th</w>
APPL ICATION</w>
Rem ar
sc ore</w>
hi ér
ar sen
crédi bilité</w>
Bo ok</w>
op t
min i</w>
int ure</w>
handic ap</w>
st ored</w>
re produced</w>
me ts</w>
gr ades</w>
franc s</w>
Cambo dia</w>
ér ant</w>
ex porters</w>
8 .1</w>
Qu atri
ch oc
structu red</w>
sh are
è che</w>
modifi és</w>
su ivi
rein force</w>
anis me</w>
Wh o</w>
rédig é</w>
W ing</w>
appreci ate</w>
Pri mary</w>
fo yer</w>
ter ia</w>
paci fiques</w>
immeu bles</w>
ST AT
méd iterrané
Tari f</w>
retomb ées</w>
pl ane</w>
Hy dro
oun ce</w>
origin aires</w>
découl ent</w>
A perçu</w>
c ité</w>
Exc ise</w>
constitu ant</w>
chec ks</w>
bi entôt</w>
form ally</w>
aff ron
ust ed</w>
œ u
enregistr ées</w>
En voy
grat uit</w>
A do
C ot
exerc ent</w>
g ases</w>
Ren forcement</w>
form és</w>
inclu ent</w>
lo ve</w>
law yers</w>
rencontr é</w>
ho sted</w>
ov ascul
Bi ological</w>
S in
ge ant</w>
cycl op
pon ctu
c iter</w>
pregn ant</w>
Arab ie</w>
Talib an</w>
Vi et
pres crit</w>
deci des</w>
aéro ports</w>
adéqu ates</w>
ew s</w>
7 80</w>
Dec ade</w>
recogni zing</w>
0. 2</w>
C ur
7 3
plaf ond</w>
www. t
circu it</w>
P LO
reiter ated</w>
kl ore</w>
2 5.
famili ar</w>
append ice</w>
d inal</w>
pré vision</w>
do is</w>
commenc ement</w>
Austr alian</w>
ag i</w>
é ments</w>
Nor mes</w>
14 4</w>
Au ditors</w>
extr abudg
S ON</w>
avi k</w>
un acceptable</w>
enregist rer</w>
Un fortunately</w>
né f
nég atives</w>
représent ante</w>
Destin ation</w>
D ut
propor tionn
exploit ants</w>
t aient</w>
AL ES</w>
elec tron
Indic ators</w>
ju red</w>
not able</w>
ab str
00 2</w>
Con soli
ministéri elles</w>
minis tries</w>
évalu ées</w>
m ont</w>
DO C</w>
col oni
biotechn ology</w>
de tain
infecti euses</w>
liqui de</w>
J ér
an ten
will ingness</w>
privil eg
Djib outi</w>
B un
H Q</w>
an ch
ass istant</w>
phys ician</w>
l akes</w>
gl as</w>
contain er</w>
doctr ine</w>
élec toral</w>
congratul ate</w>
susp ected</w>
démo graphiques</w>
1, 3</w>
min ière</w>
bo issons</w>
t acti
CON SE
Guid ance</w>
threat ened</w>
em en</w>
porte use</w>
e ously</w>
Lead ership</w>
ﬁ c
t ours</w>
sub ir</w>
del eted</w>
B ar</w>
Sign ed</w>
s p</w>
medi ation</w>
P la
Opin ion</w>
ign or
Citiz enship</w>
dou ze</w>
k it</w>
exp édition</w>
br ité</w>
U pon</w>
disciplin aires</w>
A chi
Envir on</w>
6. 5</w>
b ail</w>
www. un
dé duction</w>
Pe ter
abo lition</w>
see ing</w>
Proc éd
cor rid
16 9</w>
propag ation</w>
L un
S K
Appe als</w>
encour agement</w>
A Z
2 25</w>
out line</w>
F ive</w>
U zbe
Tanz anie</w>
municip alité</w>
cro it</w>
pi eces</w>
reconn ues</w>
Proced ures</w>
grav ement</w>
trans mit</w>
C AS</w>
sou tenue</w>
reg ist
m emorandum</w>
AI EA</w>
Incre ased</w>
correspon dants</w>
P G</w>
Met tre</w>
2 4.
per dre</w>
Di versity</w>
ay a</w>
d son</w>
ali en</w>
ex hibition</w>
Communi qué</w>
T ow
y oun
happ y</w>
adv ancement</w>
reli és</w>
Arab ia</w>
v ec
tw el
or ale</w>
Fac ul
exer çant</w>
vi t</w>
plom b</w>
cou leurs</w>
Vi ew</w>
spec tre</w>
Ado be</w>
ri ez</w>
étudi ant</w>
fea sibility</w>
H ague</w>
ash ion</w>
Part nerships</w>
Arch it
ritanni ques</w>
ren onc
chaî nes</w>
SB STA</w>
en tic
Qu oi</w>
As su
benefici ary</w>
frequ ent</w>
loc ked</w>
ur anium</w>
récol te</w>
rési dus</w>
exist ait</w>
dev rions</w>
élarg i</w>
pris onniers</w>
sécur itaire</w>
allow ances</w>
N PT</w>
oci de</w>
speci ally</w>
ri re</w>
thé ori
D UCTION</w>
préci eux</w>
t élécopieur</w>
fle et</w>
O k
the ast</w>
fais aient</w>
é met
P sy
P el
F lor
2 40</w>
lat eral</w>
2 70</w>
parall èle</w>
empê che</w>
sign ée</w>
trans férer</w>
dis sement</w>
é clai
esp aces</w>
ni er</w>
autom atic</w>
ai da</w>
N W
m its</w>
iss antes</w>
AN DE</w>
cumul ative</w>
S. A.</w>
0, 1</w>
por tive</w>
arrest ed</w>
sor tir</w>
attribu ted</w>
comm entaire</w>
For mer</w>
roc k</w>
demand ant</w>
no y
fi d
er ated</w>
v éc
trav elling</w>
Pro mo
ch ur
f lights</w>
dom ad
or row</w>
m outh</w>
pres sures</w>
dé rogation</w>
as e
C 6</w>
vari ent</w>
Organ e</w>
construc ted</w>
I I.
é puis
Intel ligence</w>
ap pris</w>
P re</w>
7. 5</w>
An der
et és</w>
différ enci
sou terr
Cro ix</w>
ré pét
v ins</w>
distinc ts</w>
refer ring</w>
arm y</w>
ech es</w>
SEC TION</w>
sid y</w>
f alling</w>
déclar és</w>
fédér ation</w>
ess ay
le aves</w>
ne vertheless</w>
Six th</w>
EN TI
hom mage</w>
barg aining</w>
cré ant</w>
Li eu</w>
se iz
Cat ég
nour r
nit rogen</w>
tari f
judg ement</w>
impl ication</w>
Rec .
év ac
hum ides</w>
wr ong</w>
p ace</w>
ONU DI</w>
al ter
s olu
U p</w>
N is
adjac ent</w>
couver t</w>
licens ed</w>
carri age</w>
k er
th o</w>
rév èle</w>
refl ètent</w>
financ ées</w>
soph is
Me th
sal aries</w>
necess ity</w>
hor se</w>
francoph one</w>
diab ète</w>
Ré serve</w>
diver g
Suppl ementary</w>
im primer</w>
Det ails</w>
évi demment</w>
tr ains</w>
re actions</w>
a iss
el derly</w>
Diversi fication</w>
et t</w>
C ensus</w>
Coll ège</w>
trac king</w>
V ote</w>
Free dom</w>
compl eting</w>
profon dément</w>
broch ure</w>
politi ci
p ér
obj ections</w>
B ush</w>
unanim ité</w>
he ating</w>
enregist rements</w>
affec tées</w>
V an
enregistr ée</w>
v ite</w>
in hér
B Y</w>
ati vité</w>
per p
fur ent</w>
s low
An dor
Véri fication</w>
compar ables</w>
ex ported</w>
VI R
occid ental</w>
L ight</w>
ass ass
mél ang
Prai rie</w>
for ts</w>
contain ers</w>
smo ke</w>
thé matique</w>
st ories</w>
ég aux</w>
sau mon</w>
[...]
