, 90432498
de 63443599
the 62446705
. 60603672
of 40559590
la 33156394
and 30753935
et 29344877
des 27128534
to 26327978
l&apos; 24060672
les 22915249
à 21474489
@-@ 21426279
a 21041015
) 19832821
le 19557718
in 19516921
( 18222691
d&apos; 18036860
du 15934520
en 13798976
&quot; 10792996
for 10450061
/ 10307715
on 9327138
que 8897234
that 8857350
pour 8850981
un 8845384
dans 8573027
une 8371173
: 8264875
is 7879727
au 7669883
sur 7314774
The 7288070
est 6700914
par 6600692
; 6188108
qui 6170181
be 5958659
by 5854850
with 5762717
as 5532803
- 5290760
aux 5269546
or 4848722
ou 4507685
are 4337428
Canada 4136302
Le 3770767
an 3578597
il 3424211
from 3350130
at 3334328
plus 3316272
qu&apos; 3258591
sont 3243551
&apos;s 3174428
ce 3153071
pas 3094938
1 3029867
ont 3025530
not 3004843
• 2994291
this 2962387
Les 2962220
was 2961206
which 2769144
it 2756191
have 2686564
été 2669953
La 2618161
its 2617138
avec 2611624
will 2589969
ne 2579030
être 2477827
s&apos; 2415786
has 2359367
A 2308600
se 2232502
2 2225247
their 2164277
Commission 2154713
information 2112327
% 2076209
Nations 2011908
_ 2010545
In 2003004
n&apos; 1940197
services 1919528
all 1893436
L&apos; 1837491
I 1810572
autres 1762197
pays 1742083
also 1736150
other 1732408
3 1729303
ces 1716706
been 1715290
non 1710156
leur 1704434
y 1680123
son 1649989
international 1628774
Il 1602066
were 1590413
cette 1583156
nous 1463695
$ 1454929
United 1436395
should 1420854
entre 1387971
comme 1387000
développement 1365257
En 1346678
ses 1339592
l 1337719
4 1335437
would 1324090
2005 1316160
more 1312082
d 1297272
fait 1296121
2006 1288655
sa 1270351
Conseil 1265040
5 1255378
Committee 1252482
10 1239378
2004 1232576
such 1227848
États 1225601
article 1216264
programme 1208056
national 1201555
had 1196258
under 1191573
droits 1191405
States 1180333
can 1171466
we 1164275
s 1163844
public 1159690
one 1157456
rapport 1154455
&#91; 1154269
Council 1144993
elle 1139853
&apos; 1133143
2007 1130278
travail 1124285
This 1118118
2003 1114652
&#93; 1112526
peut 1110662
may 1099118
ainsi 1098544
It 1097523
new 1089713
vous 1086507
but 1085758
leurs 1084622
development 1077659
? 1076545
General 1063896
tous 1053634
work 1050535
Convention 1043162
they 1042271
2002 1037372
any 1033682
session 1033652
également 1033277
you 1019440
6 1011839
these 1007599
faire 997854
Canadian 991207
Comité 988102
protection 986393
2001 985776
si 972005
report 970690
European 959359
2000 957032
b 953963
application 950247
membres 949488
no 949136
sécurité 948307
même 942969
deux 942722
countries 941900
use 936892
time 930766
between 923795
part 922053
service 919308
santé 912696
into 910297
in@@ 909395
programmes 909084
mais 905686
cas 901408
than 899779
question 897808
droit 891916
activités 891744
our 891569
e 891372
ils 888867
support 884218
re@@ 874787
tout 872400
er 869524
who 866876
7 860301
action 856752
including 855777
projet 854536
15 853470
made 852696
&gt; 850694
point 847708
dont 847318
sous 847057
must 844210
out 842621
aussi 839658
doit 837850
Unies 832181
S@@ 831125
mesures 830160
questions 821129
rights 821037
12 819575
Union 818781
cadre 817451
well 813387
é 812007
situation 809382
personnes 805935
important 804607
M. 804081
there 794967
contre 794390
2008 793960
B@@ 792497
shall 789468
those 787133
place 782298
c 775864
8 774565
only 773336
général 769500
partie 767466
Dans 767370
through 766022
up 765629
11 765072
year 764786
social 762367
30 760581
if 756771
cours 751709
On 750947
M@@ 748810
afin 744431
plan 741577
conditions 741070
i 740982
mise 739073
parties 737122
C 731711
health 730041
20 727088
soit 726984
efforts 726927
était 724728
Europe 724045
9 719786
après 711087
system 708644
possible 707409
about 705634
gestion 705534
International 704122
nombre 704068
G@@ 701713
number 699933
two 697859
données 694500
compte 692216
T@@ 691909
matière 691721
ant 691692
ans 689205
sans 686909
years 680574
bien 680028
activities 679664
o 678802
Government 673970
D@@ 673533
système 670596
concernant 670198
within 668176
provide 664763
demande 661854
his 661746
some 657332
document 657225
ci 656575
femmes 654728
P@@ 653140
où 652902
enfants 652668
autre 652410
politique 648779
respect 647816
first 644374
H@@ 643729
À 641778
human 641161
Article 635552
ressources 635419
recherche 635209
people 633965
État 631924
produits 631322
Pour 631018
per 627964
N@@ 627444
1999 626945
ée 625084
C@@ 624047
Act 624019
F@@ 623859
toutes 623476
és 622783
State 621963
ent 620540
générale 620126
peuvent 620020
ées 618844
E 617858
notamment 616030
order 614396
We 613041
Office 612841
L@@ 612223
&amp; 612058
population 611656
14 609963
Nous 608635
date 608431
* 607399
R@@ 606587
process 606131
gouvernement 605955
where 605396
your 604181
doivent 604102
site 602673
politiques 598345
13 598056
women 597200
niveau 596799
level 596283
when 594918
institutions 594840
18 592186
moins 590668
over 588168
so 588151
do 587714
used 586601
un@@ 586175
internationale 585941
need 583506
paragraphe 578051
based 577445
being 576436
jour 574953
S 574576
following 572410
base 572312
us 572242
policy 571796
law 571777
processus 570600
ait 569445
t 568032
them 565719
able 565553
elles 563761
Programme 562314
resolution 562291
country 562006
provided 560344
against 560230
résolution 558699
avoir 558383
s@@ 558374
could 557248
assistance 555366
A@@ 554876
economic 552746
ing 552555
management 547823
16 547337
personnel 546946
As 545838
production 545215
avait 544198
E@@ 543535
most 542626
homme 541774
25 541385
issues 539403
européenne 538291
documents 538188
ensure 538055
measures 537704
vue 537547
children 535231
long 531369
age 530802
participation 530681
For 527416
économique 526682
Member 525929
évaluation 525300
implementation 525099
ed 523566
n 523452
both 521329
during 518270
31 518194
Health 517818
B 517634
Assembly 514533
government 513679
each 511857
sera 509579
es 509565
take 507195
formation 506636
= 506204
K@@ 505252
total 504308
17 503262
available 502289
financial 502067
section 500417
meeting 499718
avant 498291
toute 496782
make 496449
Assemblée 496241
année 495529
data 495367
résultats 494814
je 494798
he 494116
case 491120
members 491070
cet 490582
21 490056
importance 490028
Development 490024
period 489766
aide 486485
examen 486427
decision 485536
renseignements 484768
temps 484700
loi 484216
National 482542
budget 480805
Mr. 480268
décision 479558
très 478334
selon 477573
24 477464
œuvre 476925
d@@ 475165
k@@ 474756
dollars 473438
t@@ 472545
right 470300
Ontario 470165
7@@ 470030
resources 469991
5@@ 468719
al 468362
research 467191
O@@ 466430
areas 466356
19 465442
6@@ 464969
security 464553
lui 463840
particular 463263
organisations 463074
secteur 462615
continue 461239
related 461078
D 460016
b@@ 459837
o@@ 458129
000 457996
coopération 457586
community 457290
Centre 456131
Président 455985
De 455706
lieu 455416
President 452944
many 451241
notre 450199
période 448502
Un 448496
Ce 447277
same 446326
1998 445874
W@@ 445532
Secretary 445338
Loi 445206
Cette 444489
tant 443223
accès 442558
after 442443
groupe 442059
further 441931
... 441805
e@@ 441755
organizations 441214
access 438819
mesure 438748
paragraph 438597
p@@ 438143
set 436596
Une 436232
titre 435798
Groupe 435756
Service 435394
8@@ 435153
chaque 434992
V@@ 434329
trois 433827
votre 433409
Group 432242
particulier 432006
22 431965
Organisation 431926
note 428192
façon 428029
dispositions 426283
Bureau 425377
three 423819
very 423670
assurer 422366
23 421834
projets 421300
entreprises 420971
certain 420796
cent 420636
R 417437
New 416668
ons 416184
utilisation 415966
devrait 415964
before 415484
area 414452
aient 412803
environnement 411338
administration 411297
années 411242
required 411119
m 410990
50 409829
training 409767
type 409756
project 408545
ensemble 407904
Je 407522
dé@@ 406932
Board 406030
ers 405480
transport 405368
Ces 404994
local 404553
Services 404440
L 404409
position 404393
relevant 403970
vie 403790
mettre 403587
compris 403432
million 402515
Secrétaire 402457
effective 401253
g@@ 401046
personne 400353
me 400311
issue 400164
informations 400158
see 399087
organismes 398485
objectifs 398272
ate 398201
initiatives 398060
certains 397820
encore 397817
égard 397257
way 396377
Si 394927
y@@ 393600
communication 393346
domaine 392848
exemple 392832
regional 392315
what 391912
emploi 391177
Tribunal 391138
étaient 391039
cooperation 390024
&#124; 388606
prendre 387917
DE 386324
en@@ 385310
société 385074
To 384467
plusieurs 383600
c@@ 383514
review 382973
rôle 382771
If 381900
marché 381803
fois 381589
publique 381445
28 381425
qualité 381111
Minister 380289
Security 379771
impact 378064
high 377944
présent 377354
specific 377201
26 377143
I@@ 376869
conformément 376347
program 375665
basis 375303
fin 374472
taux 374292
100 374026
taken 373211
millions 372380
n@@ 371957
include 371926
Au 370844
education 370815
draft 370588
discrimination 370490
groupes 369639
27 369113
nationale 369032
market 369026
Conference 368762
nos 368563
9@@ 368553
Des 368206
world 367969
nouveau 367804
legal 365309
paix 364995
role 364836
ordre 364704
travaux 364526
because 364111
région 363772
Par 363400
h 363007
eau 362780
necessary 362551
donc 360879
business 360544
1997 360221
manière 360129
like 359641
ceux 359034
end 358838
without 358575
Parties 357729
points 357364
ré@@ 357286
an@@ 357055
how 356961
P 356748
m@@ 356241
ayant 356126
visant 355229
F 355110
fonction 354823
Republic 354132
December 353999
group 353453
Rights 353329
large 352846
violence 352435
general 352287
II 352091
4@@ 352066
vertu 351471
g 351247
future 350854
ation 350831
Human 349823
appropriate 349344
working 349238
political 349234
contrôle 348852
affaires 348448
al@@ 348443
présente 348192
2009 348030
.@@ 347701
pendant 347602
change 347584
seront 347555
voir 346871
lors 346467
nature 345672
l@@ 345328
view 344832
règlement 344318
Department 344040
However 344034
J@@ 344004
Unis 343992
now 343885
décembre 343846
h@@ 343636
http 343617
concerne 343074
held 343013
Agency 342929
M 342768
does 342574
attention 342504
effet 342083
requirements 342078
République 342029
established 341305
sector 341100
among 341074
60 340742
needs 340718
depuis 340645
r@@ 338946
relatives 338860
première 338376
f@@ 337947
di@@ 337425
justice 337035
nom 336747
regard 336676
participants 336676
financement 336086
adopted 335865
plans 335578
promotion 335183
nouvelles 335015
persons 334908
There 334787
suite 334258
results 334095
avons 334062
force 333489
trade 333402
term 333054
laquelle 332917
groups 331348
EU 331198
person 330825
29 330803
increase 330651
June 330415
soient 330304
accordance 330124
monde 330100
00 330081
besoins 328874
her 328314
different 327540
These 327461
since 327360
ations 327073
Information 326970
T 326668
whether 326235
c&apos; 325896
! 325392
0 325194
provisions 325112
rapports 325083
products 324797
Elle 324778
cases 322888
Public 322515
developing 322261
1996 322041
staff 319853
given 319514
© 318701
actions 318570
while 318345
present 318278
coordination 318170
juin 317359
accord 317281
er@@ 316603
ine 315726
party 315123
page 315009
grande 314893
initiative 314694
premier 313551
mois 313075
i@@ 313021
organisation 312672
problèmes 312446
water 311574
current 311339
At 311248
No 310956
experts 310896
contribution 310107
means 309882
avis 309745
proposed 308920
améliorer 308737
second 308423
0@@ 308394
obligations 308293
adoption 307611
p 307161
considered 306921
40 306901
Court 306805
outre 305984
full 305774
exercice 305767
fonds 305701
relations 305471
Web 304338
faut 304310
risk 303506
Parliament 303421
care 303333
savoir 303288
ar@@ 303003
2@@ 302977
subject 302871
capacity 302029
nouveaux 301416
result 301287
help 301189
canadienne 301099
seulement 300324
mis 300307
terme 300272
3@@ 300162
said 299915
sujet 299866
Gouvernement 299213
special 299093
co@@ 298721
example 298536
Re@@ 297864
Mr 297251
projects 297176
police 296967
Internet 296335
ch@@ 296035
dis@@ 295700
commerce 295422
canadien 293869
March 293433
global 293099
cause 292835
quality 292118
nouvelle 292045
état 292030
eux 291925
pourrait 291457
air 290498
ministre 290450
a@@ 290436
dépenses 290354
01 290109
addition 289414
v@@ 289342
appui 289061
www.@@ 288726
contributions 288353
ro@@ 288151
éducation 287721
control 287415
major 287075
day 286748
ai 286400
Plan 286151
inter@@ 286124
main 285916
Community 285765
moyen 285504
vers 285114
mission 285109
Parlement 285034
déjà 284908
various 284805
account 284189
mars 283433
levels 283301
Code 283230
européen 282738
certaines 281814
valeur 280993
reports 280715
aspects 279706
chez 279613
policies 279491
montant 279207
internationales 279167
September 279013
u@@ 279005
systems 278977
traitement 278913
amount 278616
May 278606
articles 278338
éléments 277972
form 277822
raison 277808
Mme 277754
Conférence 277488
instruments 277177
era 277107
due 277056
my 277043
approach 276957
Program 276940
provides 276201
é@@ 276034
environmental 276018
nécessaire 275714
World 275672
prix 275630
six 275130
relative 274698
key 274147
framework 274111
own 273773
federal 273439
agreement 273406
eu 273399
étude 273386
z@@ 273241
el@@ 272991
N 272489
k 272305
making 272282
1995 272178
collaboration 271800
septembre 271796
es@@ 271710
ts 271656
moment 271547
U@@ 271170
Ministère 270911
developed 270832
activité 270775
◦ 270742
environment 270584
objet 270238
less 270059
Research 270012
nécessaires 269957
address 269745
devraient 269586
ated 269338
costs 269186
ti@@ 269028
w@@ 268587
Report 267574
systèmes 267436
First 266968
No. 266942
obtenir 266882
sources 266663
is@@ 266651
° 266432
C&apos; 266420
D&apos; 266407
culture 266186
rate 265276
member 265139
did 265091
el 265083
sein 265068
serait 264907
terms 264468
celle 264072
techniques 263818
technologies 263805
July 263756
annexe 263650
jeunes 263179
ale 263131
ad@@ 262748
therefore 262730
Special 262447
celui 261952
consultations 261908
recommandations 261691
soutien 261612
normes 261398
produit 260989
Section 260926
received 260894
étant 260850
p. 260573
f 260486
te 260376
opérations 260208
Economic 260168
am@@ 260026
pratiques 259620
analyse 259572
progress 259407
réunion 259351
above 259105
industry 258902
tenu 258894
ter 258518
avaient 258235
auprès 258121
donné 257976
fins 257903
life 257830
common 257758
fact 257663
Ottawa 257349
April 257249
even 257211
études 257198
centre 256654
authorities 256506
Social 256411
ating 256200
1@@ 256187
programs 255538
line 255483
mondiale 255474
interest 255416
region 254860
Y@@ 254755
Association 254716
October 254342
on@@ 254030
peu 253816
entreprise 253776
u 253761
+ 253685
technical 253636
procédure 253554
Québec 253528
durable 252807
field 252425
In@@ 252267
économiques 252057
assessment 251841
juillet 251677
Management 251436
good 251219
using 251035
November 250783
Date 250694
création 250661
dialogue 250471
recommendations 250450
performance 250387
18@@ 250358
structure 250045
pris 249898
or@@ 249694
moyens 249672
décisions 249471
child 249470
cost 249380
France 249159
particularly 249131
risque 248878
funding 248783
forme 248752
heures 248591
vote 248349
small 248027
@ 247643
individual 247331
mai 247231
additional 247217
besoin 246900
im@@ 246702
ants 246560
significant 246481
avril 246419
technique 246394
jusqu&apos; 245837
legislation 245512
forces 245347
octobre 245089
domaines 244826
face 244599
employment 244296
soins 244148
then 244141
objectif 243738
G 243725
établissement 243594
intérêt 243431
found 242987
January 242779
liste 242705
effets 242604
lorsque 242547
private 241968
déclaration 241942
Z@@ 241830
lutte 241273
novembre 241170
renforcer 241165
sites 240866
value 240556
sociale 240363
direction 240281
am 240029
agenda 239956
capital 239740
communauté 239597
fournir 239544
car 239476
celles 239469
03 239332
ni 239048
armes 238966
dit 238921
capacité 238884
standards 238817
exploitation 238725
appel 238687
increased 238648
knowledge 238253
ting 238182
02 237196
concerned 237002
autorités 236833
grand 236544
Division 236232
Mission 235700
study 235657
pouvoir 235453
submitted 235165
Ã 234967
communities 234902
rules 234842
spécial 234662
goods 234556
They 234343
de@@ 233782
alors 233402
cela 233366
janvier 233282
included 233271
third 233185
consultation 233132
j@@ 233058
tax 232951
industrie 232524
final 232508
55 232256
1994 232157
▪ 232030
représentants 231923
upon 231848
Working 231732
Cour 231490
All 231384
changes 231323
existing 231301
régions 231193
request 230815
O 230736
distribution 230150
types 229849
deuxième 229849
Afrique 229747
construction 229567
food 229138
still 229132
nationales 229065
source 229057
it@@ 228787
mieux 228638
élaboration 228491
Organization 228271
1er 228087
direct 227889
communications 227351
as@@ 227340
proposition 226883
last 226777
aider 226568
hui 226549
concerning 226221
building 225584
ministère 225274
growth 225106
re 225077
nationaux 224933
family 224836
progrès 224549
income 224344
quatre 224009
land 223968
-@@ 223858
croissance 223752
organization 223669
autochtones 223291
prises 223052
society 222872
toujours 222635
Affairs 222412
develop 221805
-- 221529
04 221492
ag@@ 221366
ab@@ 221153
coûts 220990
property 220575
directive 220560
version 220408
better 220158
mandat 220088
V 219979
several 219848
potential 219623
surveillance 219477
x 219419
tel 219184
peace 219083
Agreement 218862
treatment 218270
charge 218257
05 218121
noted 218003
frais 217901
aucune 217718
co 217546
at@@ 217436
free 217391
contact 217376
Africa 217332
&apos;@@ 217066
already 216742
jours 216563
consideration 216196
best 216140
responsabilité 215947
permis 215374
four 215335
1.@@ 214998
safety 214973
principes 214658
civil 214574
agencies 214521
responsible 214513
however 214473
least 214274
improve 214123
vigueur 214069
five 214048
employés 214016
list 213830
objectives 213638
cinq 213591
suivi 213587
risques 213046
ri@@ 212802
He 212610
ici 212551
tels 212341
much 212302
stratégie 212271
35 212247
clients 211939
Other 211875
établir 211581
cultural 211386
intention 211383
problème 211167
UE 211083
membre 211070
gouvernements 211001
06 210987
discussion 210803
problems 210759
aire 210386
opinion 210272
promote 210168
règles 209525
déterminer 209353
procédures 209299
operations 209257
ac@@ 209206
dire 209102
technology 208990
différents 208535
Air 208527
centres 208398
st@@ 208182
ar 208053
demandes 208004
benefits 207996
procedures 207874
language 207859
beaucoup 207737
li@@ 207677
OF 207335
Action 207260
province 207207
proposal 207133
nombreux 206685
ap@@ 206589
Table 206388
administrative 206126
US 205858
meet 205821
Canadians 205666
Règlement 205645
ates 205577
tr@@ 205478
permettre 205460
another 205012
intérieur 204710
Ch@@ 204515
applicable 204350
item 204250
office 203933
providing 203929
agit 203861
Nord 203809
promouvoir 203782
energy 203579
zone 203564
90 203420
context 203295
45 203195
termes 203119
course 203077
response 203049
disposition 203009
effect 202912
ailleurs 202788
involved 202726
populations 202356
infrastructure 202206
status 202061
With 201854
University 201741
ONU 201703
next 201672
active 201633
donner 201619
obligation 201563
délégation 201455
provincial 201406
solution 201308
th@@ 201269
poste 201138
séance 201110
ic@@ 200861
meetings 200798
activity 200747
Aboriginal 200684
r 200539
efficacité 200278
Rapporteur 200045
apply 199584
internationaux 199538
enfant 199501
Al@@ 199009
font 198517
just 198493
purpose 198443
souvent 198256
state 198221
Regulations 197929
permanent 197791
Rapport 197695
2.@@ 197465
revenu 197242
ez 196825
practices 196753
utiliser 196578
capacités 196504
prévention 196448
principal 196399
particulièrement 196196
ante 196097
commercial 196060
analysis 195992
together 195974
An 195946
L.@@ 195578
famille 195131
fully 195083
aucun 195053
représentant 194822
provision 194482
responsibility 194329
économie 194298
régime 194290
days 194209
decisions 194133
ligne 194041
absence 194021
10@@ 193941
H 193937
em@@ 193338
référence 193215
partir 193160
publication 193093
evidence 193086
changements 192945
February 192730
exécution 192613
engagement 192606
approche 192561
regarding 192506
devant 192468
EC 192233
environ 192090
III 191829
clear 191384
aujourd&apos; 191279
annual 191189
partenaires 191037
secteurs 190988
relating 190952
58 190892
op@@ 190522
X 190449
examiner 190279
Law 190219
3.@@ 190113
Director 189953
agreed 189583
om@@ 189570
1990 189471
ted 189453
Policy 189086
sustainable 188949
marchés 188925
par@@ 188921
experience 188883
mondial 188750
occasion 188696
unique 188672
adopté 188643
become 188355
32 188305
législation 188241
exigences 187964
pré@@ 187893
conflict 187682
j&apos; 187634
permet 187527
suivants 187524
strategy 187487
oeuvre 187482
réduire 187375
texte 187221
product 187023
Canadiens 187008
condition 186897
80 186878
she 186800
33 186774
domestic 186684
Fund 186576
Fonds 186568
biens 186540
RE@@ 186468
dernier 186345
lorsqu&apos; 186257
existe 186212
authority 186134
give 185959
prise 185909
É@@ 185905
provinces 185693
efficace 185488
Secretariat 185476
foreign 185447
months 185325
per@@ 185178
février 184924
niveaux 184897
monitoring 184566
principe 184409
Alberta 184365
offre 184206
representative 183992
representatives 183890
consider 183837
especially 183831
THE 183790
Comme 183741
reported 183699
56 183644
phase 183611
court 183537
59 183459
military 183411
greater 183350
crime 183309
tenir 183208
table 183081
taking 183061
zones 183016
cannot 182594
territoire 182514
met 182508
every 182468
commission 182320
missions 182302
ie 182302
relation 182006
expérience 181947
range 181916
enquête 181601
operation 181494
Trade 181439
licence 181430
actuellement 181098
2010 181086
recent 181009
towards 180683
ET 180587
equipment 180549
observations 180473
solutions 180186
financière 180168
57 180115
le@@ 179918
principles 179884
Inc 179819
plupart 179815
evaluation 179746
Treaty 179612
employees 179546
recours 179405
substances 179392
investment 179388
continued 179339
Commissioner 179249
pratique 179087
procedure 179066
énergie 178879
identified 178831
ales 178699
conclusions 178678
low 178622
French 178588
having 178548
Agence 178381
positive 178345
grâce 178327
1993 178315
minimum 178310
effects 178261
referred 178073
fédéral 177856
5.@@ 177721
augmentation 177662
tes 177399
Total 177335
test 177267
61 177251
nécessité 177187
expected 177124
si@@ 177096
publics 176982
statement 176752
07 176640
Ils 176610
personal 176055
applications 175523
behalf 175402
ol@@ 175345
égalité 175117
con@@ 175101
agents 175074
pourraient 175045
sommes 175023
funds 175004
ville 174818
davantage 174817
et@@ 174439
often 174414
reporting 174393
matter 174361
ability 174346
comité 174244
South 173910
divers 173877
quelques 173843
Toutefois 173653
focus 173385
Environment 173313
aires 173206
ite 173187
assurance 173187
mer 173131
situations 172940
sub@@ 172810
importante 172689
IN@@ 172613
1992 172570
contexte 172486
origine 172438
réduction 172283
Toronto 172233
Santé 172228
juridique 172183
benefit 172044
sociaux 171920
official 171895
faveur 171654
présenté 171522
practice 171447
might 171192
ens 170866
70 170819
34 170485
réponse 170345
Women 170324
créer 170240
down 170199
ii 170185
planning 170023
purposes 169987
telles 169927
demandé 169834
African 169826
instrument 169674
ou@@ 169511
August 169439
reference 169346
po@@ 169315
contained 169280
propriété 169272
agreements 169052
parents 168852
partners 168755
ly 168655
natural 168496
indiqué 168354
concern 168321
conférence 168319
requested 168307
répondre 168177
civile 168117
hommes 167951
différentes 167774
pay 167668
président 167659
ement 167488
Justice 167456
bureau 167306
maximum 167266
opportunities 167236
4.@@ 167218
off 167135
maintenant 166863
Sud 166799
open 166681
bodies 166532
Forum 166462
enseignement 166399
needed 166387
parce 166352
opportunity 166250
bi@@ 166228
alinéa 166180
fonctions 166108
Annex 165835
ages 165751
priority 165739
humaines 165726
past 165414
individuals 165299
présenter 165225
across 165206
principaux 165015
08 164958
problem 164955
réseau 164927
early 164740
réunions 164463
paid 164458
Force 164406
name 164255
today 164196
transition 164132
possibilité 164064
quant 164054
ES 163950
British 163887
called 163818
marchandises 163811
CE 163742
discussions 163633
institution 163585
preuve 163488
12@@ 163213
il@@ 163164
1,@@ 162986
ur@@ 162858
sh@@ 162654
Co@@ 162588
méthodes 162543
1991 162464
financières 162387
compétences 162372
telle 162320
août 162237
allow 162222
als 162212
intervention 162026
below 162010
37 161786
débat 161663
milieu 161367
rendre 161360
intérêts 161281
36 161236
Description 161225
lequel 161055
Institute 160898
Constitution 160895
us@@ 160805
school 160733
associated 160731
durée 160611
establishment 160610
issued 160573
A. 160422
Ms. 160332
haut 160316
sens 160260
renforcement 160149
09 160135
Vous 160117
limited 160116
currently 160054
That 159984
bonne 159823
vos 159813
central 159785
Monsieur 159725
Secrétariat 159548
maintien 159522
York 159257
importants 159121
companies 159115
Amérique 159053
either 159005
rates 158982
innovation 158957
put 158849
priorités 158669
constitue 158615
K 158405
antes 158073
planification 158046
nuclear 158014
LA 157966
establish 157892
When 157891
13@@ 157891
higher 157887
man 157877
v 157824
commitment 157724
ul@@ 157716
Protection 157450
approved 157424
includes 157351
pursuant 157243
participer 157062
régional 157045
canadiennes 156994
entitled 156962
ally 156903
others 156822
mandate 156811
directeur 156683
workers 156626
post 156497
power 156406
propositions 156312
HIV 156153
75 156148
communautaire 156108
diverses 156066
find 156006
traité 155764
postes 155746
Non 155490
39 155464
financiers 155438
effort 155326
While 155277
citoyens 155269
valeurs 155241
Quebec 155168
privé 155073
contrat 154983
carried 154962
What 154946
suivantes 154824
presented 154709
light 154692
Executive 154679
done 154508
gender 154431
près 154419
613 154370
changement 154313
critères 154287
ch 154277
tions 154246
notes 154240
17@@ 154192
lois 154082
Bank 154026
62 153956
accords 153951
know 153937
comment 153884
travailleurs 153863
Selon 153763
C. 153750
joint 153692
strategic 153641
41 153473
Iraq 153294
until 153105
voie 153095
500 153035
pauvreté 152990
mo@@ 152981
One 152884
facteurs 152848
body 152806
relatifs 152785
connaissances 152751
établi 152721
English 152696
ic 152655
victimes 152610
portant 152582
ques 152559
Note 152530
men 152434
nations 152332
Regulation 152191
évaluer 152179
200 152053
company 151977
North 151946
rendement 151934
vérification 151886
début 151860
&lt; 151847
réserve 151655
Protocol 151557
e.g. 151510
addressed 151409
regulations 151323
comprehensive 151278
disponibles 151242
ad 151158
suit 151125
63 150973
suivant 150969
auteur 150968
standard 150897
rural 150892
matériel 150883
Federal 150873
ables 150843
x@@ 150797
expressed 150612
Party 150586
technologie 150577
text 150534
sociétés 150437
America 150402
vi@@ 150197
échelle 150167
forms 150095
essential 150092
former 150014
code 150010
lo@@ 149891
previous 149813
aurait 149785
dernières 149743
similar 149668
durant 149620
pl@@ 149590
follow 149527
um 149501
Membres 149471
amélioration 149426
14@@ 149308
th 149306
terrorisme 149259
ance 149235
few 149100
38 149066
delegation 148979
agriculture 148915
states 148789
54 148666
ent@@ 148663
mêmes 148451
av@@ 148422
44 148227
Q@@ 148172
électronique 148144
mes 147932
anglais 147882
challenges 147839
6.@@ 147830
young 147820
modifications 147737
nombreuses 147699
material 147564
dernière 147545
AC@@ 147373
19@@ 147341
Ministry 147325
studies 147310
48 147234
15@@ 147202
trans@@ 147130
directement 147094
conclusion 147084
liées 147064
proposals 147027
agent 146839
langues 146816
encourage 146809
liés 146678
émissions 146460
reçu 146459
economy 146429
back 146410
Directive 146376
self 146366
facilities 146310
bo@@ 146258
organisme 146180
ph@@ 146148
ec@@ 146101
objective 146070
American 146035
avantages 145927
équipe 145831
ma 145786
violations 145783
Cela 145777
bon 145664
supplémentaires 145559
langue 145436
implement 145116
principle 144992
J&apos; 144967
ity 144892
intégration 144857
understanding 144702
poverty 144678
You 144661
20@@ 144653
modèle 144645
conseil 144397
actes 144364
00@@ 144324
permettant 144323
pro@@ 144232
mécanismes 143935
overall 143751
species 143721
se@@ 143698
single 143604
ot@@ 143582
processes 143470
great 143449
conséquent 143436
troisième 143415
au@@ 143195
sorte 143143
achieve 143128
share 143128
− 143091
prepared 143054
stratégique 142965
regions 142789
organes 142694
Con@@ 142684
ob@@ 142582
appliquer 142511
Y 142466
réalisation 142394
complete 142262
formes 142189
relatif 142178
entrée 142098
avenir 141993
labour 141954
z 141909
ité 141880
far 141846
p.m. 141732
publiques 141719
tiers 141680
require 141679
reste 141662
42 141628
anti@@ 141569
lack 141526
here 141494
reduce 141420
High 141360
factors 141333
according 141155
16@@ 140805
DES 140727
Déclaration 140722
citizens 140621
chargé 140602
âge 140520
matters 140421
art 140212
ex@@ 140077
stated 139775
concerns 139756
protéger 139717
arrangements 139699
qu@@ 139590
pre@@ 139589
compliance 139589
ministères 139579
95 139374
coût 139307
réglementation 139239
décidé 139168
prévoit 139135
around 139117
directly 138916
responsable 138889
49 138800
conducted 138792
design 138735
Afghanistan 138698
mon 138531
home 138459
Mar@@ 138430
satisfaction 138294
applied 138265
commun 138171
liberté 138081
tenue 137946
decided 137596
ir@@ 137570
rule 137566
lead 137511
parmi 137474
canadiens 137383
fonctionnement 137321
media 137301
average 137184
to@@ 137176
net 137165
ous 137084
financier 137048
expression 136907
structures 136885
Direction 136857
internal 136774
Manitoba 136736
atteindre 136544
AND 136511
initial 136336
ings 136290
act 136273
real 136250
Project 136249
établissements 136171
basic 136023
designed 135974
determine 135908
Part 135807
X@@ 135804
communautés 135678
return 135613
likely 135573
ment 135552
transfer 135435
Administration 135336
Accord 135269
AIDS 135160
tri@@ 135076
criteria 135065
proposé 135002
espèces 134981
secrétariat 134923
prior 134904
indicated 134887
res@@ 134880
der 134619
faisant 134566
wide 134560
exchange 134548
positions 134383
Protocole 134311
options 134303
Forces 134178
cycle 134112
dated 134053
whole 133993
dessus 133963
stratégies 133927
China 133876
mail 133739
receive 133737
urgence 133597
car@@ 133591
vise 133590
ways 133586
De@@ 133579
possibilités 133558
délai 133542
existence 133498
convention 133485
reduction 133444
propre 133428
Bien 133414
élevé 133367
chef 133230
led 133111
conflits 133060
VIH 133018
By 132918
responsables 132912
ON 132891
En@@ 132867
aura 132861
Amendment 132720
criminal 132675
ter@@ 132486
conservation 132451
model 132450
come 132411
living 132374
values 132359
té 132287
vente 132229
prevent 132219
Saint 132146
priorities 132131
eront 132099
contribute 132068
medical 132052
porte 132020
Cependant 131968
ative 131931
faciliter 131899
Review 131881
ère 131872
\ 131863
interests 131800
statut 131784
51 131715
IS@@ 131625
sur@@ 131600
Document 131530
humanitarian 131504
prevention 131486
forward 131426
Resources 131406
terrorism 131271
CO@@ 131248
increasing 131204
faible 131198
médias 131150
convient 131113
43 130941
Ex@@ 130941
aid 130926
gouvernementales 130922
known 130875
toutefois 130744
him 130682
trouver 130662
défense 130588
ins 130581
took 130576
élaborer 130570
régionales 130411
modification 130307
investissement 130129
believe 130085
strategies 130085
importantes 129880
consultatif 129825
53 129803
content 129798
create 129756
supported 129654
64 129531
identify 129498
choix 129492
oc@@ 129481
directives 129423
fonctionnaires 129313
outside 129201
But 129068
els 128937
UN 128877
go 128860
garantir 128633
installations 128611
Home 128549
Regional 128524
description 128520
avez 128421
manner 128340
propres 128329
collectivités 128323
serious 128202
affected 128171
um@@ 128104
strengthen 128075
committed 128006
St@@ 127989
EN 127939
Some 127932
events 127865
circumstances 127805
laws 127774
faits 127764
thus 127719
IC@@ 127687
governmental 127642
juridiques 127618
transfert 127557
tableau 127465
déclaré 127423
AR@@ 127385
Saskatchewan 127369
0.@@ 127325
prévues 127311
présence 127303
patients 127276
ais 127242
documentation 127238
parts 127116
CH@@ 126867
65 126821
defined 126791
departments 126750
itself 126730
grandes 126723
Colombie 126703
tu@@ 126436
Car@@ 126381
sessions 126372
définition 126332
governments 126249
liens 126237
hours 126210
usage 126109
succès 126060
East 125980
plutôt 125828
U 125769
acts 125755
primary 125715
event 125663
série 125635
chapitre 125580
conflit 125574
ence 125491
régionaux 125480
négociations 125479
gu@@ 125472
surtout 125414
propose 125360
Ar@@ 125316
file 125287
adresse 125286
strong 125271
numéro 125216
estime 125191
utilisés 125184
conduct 125183
Under 125182
volume 125153
science 125135
52 125049
actuelle 124963
rather 124893
violation 124815
47 124813
want 124799
extent 124769
mechanisms 124734
close 124601
throughout 124595
debate 124531
completed 124464
donne 124356
supply 124353
space 124257
regular 124234
too 124214
delivery 124201
audit 124135
guidelines 124054
Initiative 124035
responsabilités 124031
devons 123980
commune 123976
competition 123931
ements 123796
relativement 123784
payment 123753
offer 123715
get 123693
employee 123603
évolution 123586
inter 123551
protect 123491
utilisé 123374
là 123348
torture 123317
associations 123308
Business 123232
Since 123200
students 123119
subsection 122887
ver@@ 122830
interne 122829
Education 122783
46 122765
ton 122702
reform 122657
consensus 122634
va 122531
UN@@ 122508
98 122491
ites 122472
Declaration 122447
guerre 122384
eaux 122343
determined 122328
7.@@ 122296
drug 122250
candidats 122130
transports 122129
etc. 122098
conseils 122095
99 122078
Food 121979
concept 121849
figure 121794
Environmental 121578
incidence 121567
méthode 121431
awareness 121367
independent 121318
materials 121277
Annexe 121252
Université 121124
prévu 121004
identification 120988
erait 120979
ary 120897
described 120892
continuer 120816
John 120788
moyenne 120785
approval 120675
demander 120603
pu 120585
association 120457
ER 120423
réforme 120302
operational 120292
LE 120264
Mais 120262
pêche 120215
Central 120130
leadership 120127
spéciale 120005
crimes 119980
accroître 119972
sélection 119965
wish 119876
clairement 119869
claim 119860
Amendement 119843
comprend 119810
étranger 119791
remain 119588
Royaume 119539
présentation 119532
Columbia 119502
échange 119501
published 119497
fédérale 119493
equal 119460
2,@@ 119446
Institut 119426
W 119391
pension 119326
sectors 119273
implemented 119241
aliments 119229
su@@ 119194
amendments 119177
yet 119104
eur 119091
intended 119072
proportion 118987
location 118964
call 118837
matières 118814
professional 118745
seul 118735
fiscal 118728
caractère 118690
times 118669
ateur 118530
methods 118480
trait 118241
During 118147
# 118137
concurrence 118126
terres 118059
ard 118050
mon@@ 118036
informed 117952
ensuring 117951
offices 117928
Chine 117859
Charter 117839
elements 117807
assist 117666
contenu 117635
ci@@ 117627
publications 117611
locaux 117552
surface 117524
contract 117495
hand 117460
partnership 117450
catégorie 117426
ure 117400
difficult 117363
end@@ 117289
man@@ 117244
sociales 117164
soumis 117145
ding 117112
ni@@ 117073
ors 116991
militaire 116983
network 116969
militaires 116744
Sous 116740
Financial 116669
simple 116640
guide 116637
Montréal 116603
short 116593
vision 116535
minutes 116521
comptes 116512
enregistrement 116487
once 116448
etc 116381
integrated 116351
crédit 116337
committee 116241
influence 116210
percent 116143
reasons 116140
accessible 116135
expert 116013
department 115991
DU 115950
centrale 115932
play 115866
sent 115757
board 115723
record 115673
team 115584
expertise 115571
Pro@@ 115559
words 115517
price 115386
whose 115324
raisons 115258
facilitate 115229
priorité 115229
réfugiés 115187
IV 115154
lignes 115076
exception 114946
scope 114848
electronic 114757
so@@ 114665
steps 114631
An@@ 114620
IT@@ 114603
97 114578
essentiel 114444
resolutions 114414
Etats 114391
participate 114388
dès 114381
élément 114290
Although 114251
views 114231
comments 114205
77 114110
climate 114103
recommended 113934
sida 113906
Our 113855
say 113842
comprendre 113807
no@@ 113786
integration 113780
uses 113746
suis 113614
démocratique 113550
letter 113468
spécifiques 113359
adopter 113353
affaire 113330
clearly 113297
élimination 113293
300 113271
sp@@ 113214
lesquelles 113188
provisoire 113185
trouve 113171
requires 113165
créé 113143
side 112988
billion 112953
collective 112947
autorité 112896
engagements 112822
rapidement 112782
consommation 112715
statistiques 112660
fundamental 112657
lettre 112642
orientation 112551
exercise 112495
locales 112473
Guide 112149
consistent 112127
Chairman 112060
located 112016
balance 111934
requests 111857
introduction 111835
chacun 111798
created 111784
ines 111765
Haut 111764
stakeholders 111692
0,@@ 111682
nucléaires 111585
markets 111492
tion 111436
red 111424
stage 111395
financing 111307
AL 111283
weapons 111272
français 111221
families 111045
appeal 110985
lesquels 110969
Meeting 110957
Banque 110939
Congo 110913
traditional 110797
regulatory 110784
PDF 110735
J. 110687
veiller 110583
client 110532
Mo@@ 110477
candidates 110455
old 110432
Kingdom 110376
br@@ 110366
implementing 110299
cl@@ 110222
do@@ 110149
semble 110119
Ro@@ 110083
resource 110042
applicant 110037
&apos;t 110033
Inter@@ 110024
examiné 110009
maladies 110003
Governments 109948
Kosovo 109924
recherches 109923
consommateurs 109914
lower 109772
applique 109719
mentioned 109697
peuples 109656
sou@@ 109633
Number 109594
gaz 109526
AM@@ 109456
route 109415
languages 109392
annex 109388
claims 109364
perspective 109315
appuyer 109306
themselves 109274
majority 109263
85 109250
responsibilities 109242
contribuer 109240
pleinement 109237
généralement 109233
traités 109168
substance 109160
paper 109088
prestations 109066
partenariat 109024
Br@@ 109006
ves 108921
follows 108918
terrain 108836
room 108818
success 108799
negotiations 108779
critical 108746
importe 108738
bring 108707
achieved 108685
travel 108658
collection 108630
be@@ 108626
always 108621
annuel 108385
CI@@ 108382
longer 108330
goals 108317
asked 108310
Uni 108309
UNICEF 108285
skills 108235
proceedings 108229
seule 108102
enne 108100
provenant 108051
Palestinian 107965
offrir 107947
sanctions 107884
Vancouver 107860
CE@@ 107838
ds 107794
physical 107771
Advisory 107752
Ouest 107733
youth 107721
along 107614
WIPO 107588
mar@@ 107582
espace 107576
investissements 107546
over@@ 107520
S&apos; 107460
Depuis 107409
habitat 107377
See 107329
com@@ 107300
System 107274
tive 107266
os 107244
enhance 107232
armed 107232
Point 107211
véhicules 107208
original 107185
quelque 107113
format 107053
représente 106995
creation 106943
ren@@ 106894
Sh@@ 106882
poursuivre 106846
organized 106756
majorité 106672
enable 106652
promoting 106643
again 106634
grands 106603
éviter 106582
recognized 106578
tribunal 106564
Ministre 106557
generally 106458
Se@@ 106448
Russie 106433
sciences 106422
Le@@ 106386
obstacles 106343
later 106342
gi@@ 106313
adequate 106300
written 106274
ents 106243
victims 106155
ATION 106151
Members 106141
secretariat 106002
statements 105996
dispose 105951
.1 105932
gens 105817
constituent 105804
humanitaire 105769
Communications 105670
undertaken 105642
AN@@ 105623
déclarations 105541
inspection 105463
i.e. 105460
pourquoi 105435
instance 105419
Industry 105414
Room 105374
destruction 105318
96 105288
ST@@ 105286
aimed 105232
paiement 105197
added 105182
tools 105136
Contact 105116
although 105000
submit 104962
Par@@ 104953
sections 104893
ise 104829
diffusion 104802
anti 104792
Paris 104769
job 104749
me@@ 104711
te@@ 104697
rec@@ 104679
pouvoirs 104665
maladie 104628
compétence 104575
option 104513
impôt 104497
femme 104496
deal 104492
maintenance 104491
Representative 104456
eurs 104435
Di@@ 104383
concentration 104354
remains 104324
Après 104322
pouvez 104274
outils 104265
web 104141
suivre 103966
Foreign 103946
profit 103862
Dr. 103840
ér@@ 103820
apporter 103778
salle 103729
micro@@ 103658
connection 103607
regulation 103561
fond 103462
relationship 103447
fl@@ 103447
learning 103419
revenus 103387
S. 103352
Nouvelle 103245
règlements 103231
strengthening 103183
meilleure 103181
IM@@ 103142
J 103116
signed 103104
conséquences 103004
800 102988
links 102958
bureaux 102788
familles 102755
B. 102721
successful 102715
trop 102710
intervenants 102672
Brunswick 102649
ER@@ 102625
effectiveness 102606
ministres 102562
rer 102558
difficile 102500
ill@@ 102357
ach@@ 102355
Hotel 102345
mécanisme 102326
ongoing 102319
covered 102303
selection 102300
specified 102274
credit 102210
indique 102150
étrangères 102147
judiciaire 102142
maintain 102119
estimated 102098
Russian 102094
élections 102092
principales 102082
suivante 102026
Vice 101964
money 101939
seraient 101839
series 101723
fin@@ 101681
mark 101627
communautaires 101605
ed@@ 101563
94 101531
résolutions 101506
ue 101496
U.S. 101493
registration 101488
cr@@ 101465
show 101447
definition 101411
sc@@ 101403
territory 101402
causes 101379
Bo@@ 101377
Département 101271
efficaces 101266
think 101257
Britannique 101248
restrictions 101226
3,@@ 101200
composition 101181
recommandation 101044
naturelles 101012
para 100866
prestation 100806
autorisation 100705
fish 100674
propos 100592
scientifiques 100580
mises 100552
produced 100521
régionale 100470
Children 100449
Communauté 100444
Tout 100357
professionnels 100316
ve 100248
territoires 100216
Asie 100211
Chief 100176
Lorsque 100172
items 100077
freedom 100063
Transport 100051
Germany 100012
pollution 100000
conference 99978
AL@@ 99954
demand 99889
passé 99887
ai@@ 99795
visit 99728
connaissance 99664
nation 99639
operating 99634
SI@@ 99491
Charte 99377
month 99180
Est 99147
enforcement 99112
immigration 99093
rapide 99070
radio 99069
why 99055
EN@@ 99035
interventions 99017
difficultés 98996
registered 98938
detailed 98923
Strategy 98913
Partie 98766
examine 98753
West 98671
all@@ 98666
1989 98556
classification 98489
traite 98452
officielles 98444
corruption 98424
installation 98401
introduced 98389
Ré@@ 98359
survey 98210
functions 98199
approximately 98161
puisse 98128
ED 98127
jamais 98109
respecter 98086
officials 98039
vehicle 98023
km 97988
ét@@ 97940
acquisition 97934
disponible 97913
dossier 97902
size 97846
requirement 97777
nord 97775
ke 97765
Safety 97760
ge 97731
extérieur 97696
voudrais 97696
Budget 97694
ités 97689
travailler 97686
res 97683
78 97662
compensation 97640
crisis 97565
gas 97515
step 97491
Tous 97459
shown 97447
portée 97446
employé 97327
transmission 97322
gr@@ 97283
effectively 97268
ex 97257
Decision 97240
investigation 97237
Voir 97224
EC@@ 97209
alisation 97187
Ministers 97180
House 96969
compared 96954
scientific 96849
agissant 96840
hôtel 96832
8.@@ 96825
assets 96746
road 96740
peoples 96724
loss 96716
supérieur 96684
ensuite 96636
industries 96563
humains 96518
improving 96479
clés 96416
autant 96377
lien 96333
Site 96327
quand 96119
leave 96117
measure 96109
alternative 96099
favoriser 96055
étrangers 96053
crise 95999
Permanent 95943
mis@@ 95923
Corporation 95918
combat 95915
territorial 95895
history 95879
principalement 95846
recommendation 95778
serve 95772
commerciales 95749
officers 95746
sufficient 95722
reason 95710
pénale 95689
cover 95554
teur 95458
users 95443
intellectuelle 95439
hotel 95378
Israel 95287
personnels 95287
ator 95269
médicaments 95238
for@@ 95193
délégations 95159
Ainsi 95099
external 95096
war 95060
€ 95031
function 94997
legislative 94995
sexual 94958
libre 94954
der@@ 94941
93 94896
ia 94880
Ukraine 94854
stratégiques 94816
ded 94761
improved 94754
scale 94735
conformité 94706
encourager 94666
border 94642
Allemagne 94628
Directeur 94611
Officer 94562
TI@@ 94557
signature 94512
According 94504
ette 94491
cependant 94294
Lake 94229
désarmement 94227
particuliers 94221
marque 94200
ente 94164
E. 94142
diversité 94119
schools 94073
réseaux 94051
ground 94041
half 94038
92 94008
carry 93966
teurs 93932
And 93834
image 93833
FC 93818
Atlantic 93774
faite 93721
insurance 93715
compter 93709
défis 93704
1987 93702
tard 93686
puis 93652
Support 93623
start 93615
indicateurs 93580
industrial 93466
Am@@ 93426
conventions 93415
rapporteur 93402
.ca 93386
ateurs 93384
week 93353
works 93320
IN 93285
bl@@ 93282
Western 93236
uniquement 93218
Th@@ 93216
Tr@@ 93140
91 93098
classe 93087
chercheurs 93083
préparation 93054
71 93013
actuel 92999
prend 92988
unit 92978
concentrations 92951
pe@@ 92945
amended 92944
1988 92940
iii 92837
notice 92827
limit 92821
Sur 92817
risks 92813
commitments 92770
caractéristiques 92768
pre 92619
mode 92558
abord 92544
connaître 92514
Jean 92505
efficient 92443
réponses 92426
réaliser 92390
ats 92359
institutional 92358
AC 92319
alimentaire 92289
supporting 92263
communiquer 92239
Agriculture 92234
ters 92226
confiance 92196
reduced 92156
transactions 92146
preparation 92134
ang@@ 92109
heure 92106
bio@@ 92086
Company 92085
apprentissage 92049
CEE 92043
entry 92042
soutenir 92041
pages 92036
ak@@ 92027
petites 92024
establishing 92020
AD@@ 91916
brought 91886
emissions 91877
paragraphes 91848
rendu 91841
D. 91768
Yukon 91661
build 91656
obtained 91648
multi@@ 91641
contient 91595
can@@ 91582
AS 91565
emplois 91458
catégories 91438
200@@ 91437
milliards 91426
est@@ 91397
River 91354
règle 91324
Criminal 91320
publié 91241
écrit 91204
normal 91165
ass@@ 91040
dix 91039
double 91038
Federation 91014
message 91012
66 90995
continues 90950
via 90912
Mc@@ 90895
migrants 90856
Northern 90850
privée 90790
equality 90751
discussed 90716
Global 90690
Technology 90640
Qu@@ 90593
déposé 90593
Official 90551
enter 90518
étudiants 90295
cor@@ 90270
bu@@ 90211
72 90178
69 90146
récemment 90136
générales 90130
Asia 90074
acte 90041
fondée 90015
euro 90003
entente 89999
directrices 89937
Ad@@ 89904
prévue 89832
For@@ 89765
listed 89754
governance 89726
scientifique 89618
seen 89617
sexes 89585
ures 89564
unité 89551
advice 89538
administratives 89538
ay 89514
hope 89503
indigenous 89465
under@@ 89396
9.@@ 89392
min@@ 89366
ique 89342
juste 89282
porter 89253
makes 89197
permettent 89196
intitulé 89181
sud 89168
cross 89125
disease 89122
souligné 89101
stabilité 89080
ho@@ 89071
tests 89055
payments 89032
election 89015
ay@@ 89013
presence 89007
mechanism 89006
observation 88989
ne@@ 88893
maintenir 88862
aircraft 88855
modifier 88840
développer 88835
manque 88833
juge 88745
résultat 88733
adoptée 88724
utile 88693
Israël 88629
auteurs 88620
quelle 88607
88 88594
Autres 88586
Fédération 88546
pi@@ 88497
‑ 88480
R. 88451
76 88433
81 88377
circonstances 88375
ies 88317
89 88289
After 88282
Authority 88269
details 88224
Arab 88160
EUR 88114
servir 88101
ouverture 88096
essai 87999
conception 87956
faites 87947
qu 87940
Japan 87913
assess 87806
1985 87749
venir 87738
website 87697
Enfin 87697
peuple 87674
CC@@ 87647
73 87634
agricultural 87609
impacts 87509
Framework 87463
Where 87457
live 87414
eligible 87413
ati@@ 87387
IT 87381
Page 87379
recently 87343
read 87327
connexes 87323
little 87318
outcome 87310
ist 87242
charges 87192
opposition 87176
partenariats 87176
distance 87157
Chapter 87106
efficiency 87092
Iran 87079
From 87075
drogues 87040
400 87039
esprit 87020
please 86985
commentaires 86955
Environnement 86920
kg 86897
Statistics 86871
environnementale 86855
prices 86852
treaty 86803
histoire 86800
look 86791
Assessment 86777
marine 86708
chimiques 86698
Panel 86679
pr@@ 86615
setting 86551
revised 86551
Cet 86549
cultures 86538
83 86463
limites 86402
reflect 86378
out@@ 86327
OMPI 86276
Employment 86238
consiste 86200
7,@@ 86150
records 86149
cancer 86115
Premières 86052
peine 86044
84 85997
Archives 85989
offers 85982
oil 85960
Réunion 85952
Gu@@ 85944
limite 85939
conséquence 85899
circulation 85881
pertinentes 85829
educational 85820
TR@@ 85781
complex 85711
he@@ 85633
complète 85570
vu 85550
cou@@ 85534
68 85532
SC@@ 85510
PR@@ 85433
82 85430
approbation 85427
arms 85401
plein 85399
.com 85375
LI@@ 85357
reasonable 85356
tic 85313
judicial 85299
going 85294
amendment 85294
Cuba 85291
agency 85276
and@@ 85257
export 85225
étape 85212
Pacific 85204
CR@@ 85182
cher 85168
sport 85166
physique 85156
enquêtes 85139
4,@@ 85137
indicate 85129
exposition 85116
indicators 85097
Accueil 85066
fi@@ 85015
applicables 85008
People 85004
recommande 84968
goal 84956
ères 84888
mener 84880
ing@@ 84877
duty 84798
death 84774
fondamentaux 84755
paragraphs 84647
origin 84618
fabrication 84615
city 84593
globale 84550
petits 84539
granted 84519
utilisées 84502
raised 84492
determination 84406
généraux 84388
ep@@ 84348
Geneva 84346
invited 84241
growing 84221
Or. 84207
participé 84158
da 84126
LES 84118
approuvé 84112
w 84109
prévenir 84095
takes 83979
concluded 83969
quatrième 83963
Version 83953
figurant 83929
conclu 83860
id@@ 83839
invite 83829
Journal 83802
Dé@@ 83788
dr@@ 83771
Pacte 83740
AS@@ 83732
leading 83716
sub 83698
AT@@ 83679
BC 83654
ators 83652
informal 83598
dépôt 83597
permettra 83548
sauf 83537
C.@@ 83520
67 83398
vis 83366
Questions 83352
jurisdiction 83339
semaine 83339
modèles 83339
pied 83300
AP@@ 83252
az@@ 83213
Summit 83198
taxes 83157
effectuer 83119
tient 82984
particulière 82965
poly@@ 82922
ain 82903
puissent 82858
L. 82846
hold 82834
practical 82817
Furthermore 82815
occupation 82812
employer 82806
utilisateurs 82637
commissions 82634
kind 82632
Such 82596
ON@@ 82565
user 82487
Q 82474
ra 82445
civils 82436
ze 82431
Indian 82425
She 82421
du@@ 82320
ig@@ 82244
processing 82156
écoles 82138
debt 82103
Représentant 82102
hi@@ 82092
présentée 82062
ane 81979
contains 81970
ten@@ 81970
ratification 81909
interprétation 81907
variety 81902
Elles 81866
www.un.org 81844
method 81835
aim 81834
separate 81808
reached 81804
resulting 81797
challenge 81692
mg 81661
trafficking 81579
component 81545
beyond 81541
Projet 81538
aware 81503
Plus 81498
useful 81451
allocation 81433
release 81419
préoccupations 81416
Conformément 81394
Traité 81382
vehicles 81381
port 81348
CON@@ 81311
followed 81270
commerciaux 81255
Implementation 81224
AP 81221
professionnelle 81175
déchets 81175
st 81170
exportation 81147
derniers 81019
accent 81008
ana 81003
Training 80979
allowed 80950
Com@@ 80943
notification 80941
Child 80890
accueil 80890
trafic 80877
attend 80870
fourni 80795
our@@ 80768
modalités 80713
presse 80674
leaders 80671
ille 80666
29@@ 80631
devait 80612
essais 80610
dessous 80602
européens 80551
dossiers 80549
fournisseurs 80548
volonté 80535
beginning 80465
left 80419
jouer 80384
stocks 80346
developments 80338
9,@@ 80320
23@@ 80288
graves 80241
ir 80219
tor@@ 80184
événements 80172
concours 80151
ches 80143
obtain 80142
voyage 80139
expansion 80126
urban 80118
train 80074
fall 80069
mm 79987
recevoir 79978
reconnaissance 79954
Per@@ 79949
class 79910
How 79883
duties 79872
agricoles 79872
producteurs 79859
migration 79841
contrats 79817
Pakistan 79768
ve@@ 79763
Genève 79747
candidate 79735
guidance 79733
author 79729
suggested 79701
sensibilisation 79689
86 79687
keep 79682
traiter 79632
reach 79614
ma@@ 79599
8,@@ 79576
taille 79545
involving 79529
1.1 79522
adhésion 79480
Cooperation 79420
petit 79404
core 79401
mines 79325
target 79262
Second 79255
révision 79229
espèce 79222
broad 79187
ten 79186
amounts 79127
donnée 79075
inclusion 79070
principale 79040
organisé 79038
fort 79027
Publications 79009
ari@@ 78948
forte 78934
nomination 78883
ING 78852
agree 78845
units 78835
Defence 78801
AR 78799
degree 78790
gouvernance 78737
euros 78716
maritime 78639
observer 78595
Branch 78594
stability 78563
ru@@ 78563
analyses 78557
soon 78527
religion 78484
réalisés 78468
ase 78442
supports 78400
mal@@ 78399
intermédiaire 78394
74 78374
conférences 78362
ley 78335
ets 78313
fair 78288
courts 78255
produce 78194
pression 78189
aspect 78158
parle 78128
produire 78114
Deputy 78113
crédits 78107
expenses 78085
ex. 78085
� 78070
humaine 78033
fo@@ 77987
acceptable 77959
top 77906
emergency 77895
placed 77891
parti 77834
Commissaire 77810
fournit 77769
understand 77763
offered 77744
ONG 77727
City 77662
ances 77661
chefs 77632
almost 77617
ology 77613
Et 77570
rémunération 77555
Joint 77546
agricole 77532
sales 77521
Please 77468
6,@@ 77450
engage 77445
Network 77401
Science 77380
parvenir 77367
possibility 77356
components 77349
Japon 77293
j 77260
specifically 77212
échanges 77187
AT 77158
haute 77143
ps 77078
IP@@ 77078
actual 77075
TRANS 77070
m&apos; 77068
totale 77022
Society 76996
infrastructures 76995
approaches 76905
Also 76896
Mon@@ 76890
tâches 76878
animaux 76846
recommandé 76843
exclusion 76817
search 76707
designated 76697
79 76661
poor 76596
Affaires 76580
pressure 76559
argent 76559
formal 76545
des@@ 76538
More 76531
Sch@@ 76502
formulaire 76499
idée 76488
represented 76445
Be@@ 76418
24@@ 76407
conduite 76403
accepted 76391
5,@@ 76354
supplémentaire 76321
continuing 76288
filed 76285
définir 76237
selected 76160
Dis@@ 76117
lieux 76096
otherwise 76032
menées 76030
ell@@ 76022
Ltd 76006
medium 75974
calls 75915
trust 75889
Un@@ 75872
adaptation 75837
station 75836
dimension 75826
AG@@ 75786
El@@ 75747
parole 75744
democratic 75742
Li@@ 75728
alité 75704
Labour 75704
fund 75694
spéciales 75669
lu@@ 75618
Island 75617
traitements 75616
sol 75605
ori@@ 75602
involvement 75596
communes 75572
contracts 75557
housing 75544
recettes 75513
appointment 75472
instructions 75435
Sommet 75413
Data 75389
observed 75383
movement 75361
IP 75358
destinés 75343
démocratie 75319
DE@@ 75305
fournis 75304
tandis 75294
elections 75203
Co 75182
Bar@@ 75167
susceptibles 75161
appointed 75157
task 75130
Work 75097
Avis 75065
pense 75064
News 75056
doing 74982
permanente 74978
fédéraux 74958
participating 74940
grave 74937
differences 74935
représentent 74935
nucléaire 74909
ennes 74896
earlier 74893
taxe 74876
suffisamment 74843
ks 74839
affect 74812
pu@@ 74795
ties 74784
Pays 74763
conforme 74759
stable 74707
quel 74674
Appendix 74609
places 74605
lot 74600
ES@@ 74589
announced 74580
ethnic 74571
interested 74542
transformation 74492
appellant 74430
abuse 74385
87 74382
procéder 74282
genre 74272
ner 74243
Mexico 74223
adopt 74221
tenant 74217
exécutif 74205
Source 74196
move 74185
Me@@ 74170
école 74153
reviewed 74148
IS 74147
pouvant 74136
Nation 74083
contenant 74076
Man@@ 74008
présentés 74007
ser@@ 74002
passer 73995
départ 73968
250 73949
PCT 73935
safe 73914
semaines 73872
improvement 73845
highly 73841
partnerships 73816
ge@@ 73789
logement 73782
Police 73774
textes 73762
containing 73758
eu@@ 73749
district 73747
répartition 73745
cap@@ 73717
lis@@ 73698
tribunaux 73682
Im@@ 73596
Can@@ 73565
significantly 73525
aw@@ 73513
Democratic 73489
shared 73449
recognition 73438
participant 73427
implications 73381
Application 73361
go@@ 73350
atteint 73346
sharing 73310
pourcentage 73289
marketing 73265
zed 73263
Portugal 73256
advance 73247
Legal 73226
secondary 73166
véhicule 73148
moi 73123
équipement 73116
pourra 73108
transparence 73106
OR@@ 73095
AN 73075
TO 73011
bank 73002
things 72977
ST 72964
commerciale 72921
recovery 72915
26@@ 72866
augmenté 72822
Sustainable 72797
respond 72795
ler 72777
delegations 72770
terre 72704
Add.1 72651
authorized 72648
EX@@ 72646
ical 72637
SP@@ 72619
danger 72565
perte 72563
PC 72549
head 72547
PE 72521
copy 72519
sujets 72516
ist@@ 72498
sexe 72493
Covenant 72490
ality 72455
examination 72422
P. 72407
acting 72387
forum 72370
Tel 72350
212 72331
campagne 72279
s.@@ 72236
unless 72232
augmenter 72206
except 72200
culturels 72186
considéré 72183
UNDP 72162
réserves 72157
prêts 72144
obtenu 72138
dû 72136
St 72133
passage 72124
identité 72078
associés 72057
Documents 72009
submission 72008
ones 71994
garde 71993
Ab@@ 71956
excellent 71921
Prince 71913
européennes 71913
Al 71906
sept 71897
éliminer 71896
Tableau 71894
accorder 71878
retour 71866
souhaite 71856
VI 71852
lumière 71840
consulter 71815
a.m. 71802
filles 71736
Adoption 71726
auxquels 71726
utilisée 71725
mass 71713
fr@@ 71711
Unit 71699
avoid 71694
king 71677
rien 71675
minorités 71648
évaluations 71636
defence 71635
CN 71616
vol 71613
don 71596
ty 71588
outcomes 71581
caused 71573
ka 71506
Afin 71503
adoptées 71466
perspectives 71464
Administrative 71422
2.1 71412
Tax 71409
appear 71406
CD 71333
negative 71327
considération 71326
mi@@ 71323
plainte 71317
3.1 71308
multi 71300
présidence 71275
che 71268
welcome 71238
visées 71168
crucial 71156
Numéro 71148
procès 71146
Treasury 71124
consumer 71118
ice 71080
consolidation 71032
category 71031
voluntary 71013
Agenda 70996
Notre 70993
Of 70990
India 70989
Or@@ 70982
30@@ 70982
Fax 70953
drugs 70948
A.@@ 70934
near 70931
meilleur 70899
Ac@@ 70889
Société 70881
onn@@ 70872
600 70868
cu@@ 70867
tin@@ 70827
premiers 70788
mal 70771
collectivité 70771
grounds 70769
Many 70765
considérée 70759
away 70744
bois 70727
Z 70683
détention 70664
PO@@ 70646
complaint 70625
operate 70606
élèves 70606
Trésor 70600
Summary 70591
.gc.ca 70558
travers 70531
findings 70519
Finally 70479
tent 70454
applies 70444
Bay 70438
paiements 70408
menace 70347
ess@@ 70333
affectation 70325
CANADA 70311
lines 70298
provisional 70295
Cor@@ 70289
acteurs 70249
businesses 70235
PA 70202
chose 70201
shows 70181
Energy 70175
Figure 70127
officer 70114
emb@@ 70114
Labrador 70113
planned 70105
achieving 70104
Use 70102
Po@@ 70074
ences 70060
opération 70041
Therefore 70024
numbers 70024
complet 70016
dés@@ 70010
cinquante 69997
exige 69972
Italy 69967
Moreover 69933
extension 69894
seek 69821
hearing 69805
effectué 69783
.org 69759
aff@@ 69747
visés 69741
Certains 69708
è@@ 69606
immediately 69602
quantité 69588
indiquer 69586
ta 69576
internes 69571
25@@ 69567
devra 69518
alia 69508
Control 69486
respective 69475
diversity 69464
link 69442
Rules 69430
index 69427
1986 69421
funded 69415
mor@@ 69415
fourth 69414
regime 69398
jobs 69394
auront 69394
comprennent 69377
partage 69375
bas 69373
closely 69359
factor 69357
exercer 69356
competent 69317
stations 69315
subventions 69261
consequences 69255
FI@@ 69227
rooms 69219
discuss 69188
CF 69187
Nouveau 69114
1.2 69109
Limited 69109
10.@@ 69080
félicite 69077
Sierra 69037
fuel 69018
considère 68989
Region 68982
pièces 68957
alimentation 68948
highest 68923
testing 68913
ECE 68894
patient 68890
vaste 68884
échéant 68882
délais 68862
collecte 68862
gouvernementaux 68858
statistics 68852
feu 68844
Evaluation 68795
Pre@@ 68772
prochaine 68747
40@@ 68744
writing 68739
DP 68738
Royal 68725
division 68724
mean 68719
vingt 68700
Lo@@ 68692
budgétaires 68673
ask 68630
ments 68602
Each 68542
arts 68516
Heritage 68457
val@@ 68425
reconnu 68397
prepare 68386
ier 68376
bases 68355
images 68350
ship 68323
longue 68317
appliquent 68286
fer 68268
tonnes 68256
hors 68229
demeure 68223
PNUD 68206
parc 68180
ina 68176
Communication 68144
ker 68143
trial 68121
Millennium 68070
transportation 68066
networks 68061
27@@ 68052
permit 68039
threat 68030
waste 68020
EM@@ 67998
anc@@ 67997
employed 67985
monitor 67977
protected 67975
Order 67950
prévus 67938
CIHR 67912
favour 67910
amendements 67908
3.2 67901
AM 67886
éc@@ 67860
28@@ 67845
concernés 67837
Fisheries 67835
Inc. 67811
Introduction 67777
capable 67771
150 67765
turn 67748
carte 67719
Products 67714
poids 67675
puisque 67620
disabilities 67618
Ressources 67594
tés 67592
instruction 67586
ended 67581
inclure 67569
competitive 67554
Pacifique 67488
chambres 67460
film 67418
COM 67393
recommends 67374
sale 67351
télé@@ 67348
worked 67328
Timor 67327
contacts 67285
ever 67280
ev@@ 67264
plant 67260
summary 67260
corporate 67255
expenditure 67248
04@@ 67241
sea 67231
categories 67218
norme 67212
immédiatement 67157
never 67148
ant@@ 67138
copies 67102
enc@@ 67095
gl@@ 67094
Nova 67093
partner 67087
ber@@ 67072
retraite 67060
senior 67036
Relations 66992
certification 66973
pos@@ 66934
unités 66917
Access 66916
actifs 66899
PRO@@ 66891
2.2 66785
reconstruction 66771
tool 66762
cadres 66746
hydro@@ 66695
destination 66686
auquel 66675
Cl@@ 66667
damage 66655
provinciaux 66637
TS 66586
répercussions 66585
siècle 66566
flow 66560
fields 66540
ologie 66539
att@@ 66529
interdiction 66462
Netherlands 66444
represent 66442
Prime 66434
potentiel 66403
weeks 66398
pouvait 66393
dealing 66392
istes 66387
Chaque 66356
Status 66332
ling 66254
though 66236
historique 66205
OSCE 66201
étudier 66186
democracy 66184
12.@@ 66183
School 66173
forest 66169
devenir 66155
vo@@ 66113
thème 66110
alization 66107
questionnaire 66082
Rule 66073
présentées 66057
ak 66048
Spain 66017
gar@@ 66002
lutter 65987
SS 65981
entire 65958
pertinents 65945
ill 65924
Italie 65917
Media 65897
coming 65853
audience 65847
focused 65825
souligne 65812
annuelle 65795
achat 65794
agir 65782
montre 65775
comités 65768
inscription 65756
Pl@@ 65737
infection 65724
électroniques 65717
Civil 65678
côté 65675
religious 65673
inform 65664
house 65619
Su@@ 65554
consumers 65550
mine 65534
girls 65517
expenditures 65514
disarmament 65503
St. 65493
ours 65466
PS@@ 65463
dette 65461
Premier 65443
ah@@ 65420
Aux 65415
chargée 65404
proactive 65384
11.@@ 65382
Même 65382
biais 65371
lives 65360
accounts 65354
imposition 65329
employeur 65309
faudrait 65289
LE@@ 65279
intégrée 65254
thank 65230
Transportation 65229
culturelles 65229
linked 65223
software 65209
previously 65205
contain 65205
IC 65125
seven 65116
motifs 65110
CF@@ 65062
Any 65055
fishing 65011
AI@@ 64981
regards 64974
subsequent 64941
mention 64928
tendance 64928
largement 64920
visite 64907
assez 64904
premières 64895
pe 64894
contraire 64889
nor 64874
Further 64869
séances 64852
extended 64848
creating 64840
sense 64798
str@@ 64783
af@@ 64775
champ 64762
plaintes 64747
rue 64716
Prevention 64712
tur@@ 64703
try 64699
reducing 64689
· 64682
chemical 64672
MO@@ 64667
sound 64664
transit 64654
consent 64652
impossible 64647
essentiellement 64647
Stratégie 64647
comply 64645
actif 64623
finance 64621
Articles 64608
liaison 64604
primarily 64524
Compte 64466
peacekeeping 64439
grant 64432
stock 64405
modifié 64379
ics 64351
exportations 64349
Strategic 64344
mé@@ 64312
Justification 64302
infraction 64265
ars 64259
allows 64257
parfois 64243
Annual 64233
nouvel 64227
managers 64217
comportement 64217
Turkey 64210
percentage 64199
50@@ 64187
His 64181
atteinte 64166
IRSC 64159
ra@@ 64154
bis 64140
exist 64123
importation 64119
acquis 64101
refugees 64089
art. 64085
tique 64072
fight 63970
usually 63927
territories 63916
Great 63905
Leone 63891
codes 63877
licences 63850
approvisionnement 63842
SE 63831
tirer 63829
multilateral 63788
exposure 63785
ouvert 63774
settlement 63756
établie 63752
bar@@ 63746
portion 63716
indication 63710
possibles 63688
mind 63680
précise 63641
online 63615
commissaire 63575
gérer 63573
transparency 63558
organisée 63557
Ireland 63544
atives 63486
RO@@ 63482
Inuit 63468
différences 63452
researchers 63450
v. 63446
availability 63439
brevets 63437
confidence 63398
ber 63387
préalable 63373
addressing 63332
Bi@@ 63319
Chair 63314
4.1 63289
virus 63279
spéciaux 63266
stress 63242
équitable 63237
enough 63223
daily 63223
facteur 63221
ture 63203
guarantee 63187
respectively 63163
doute 63156
pose 63144
messages 63129
arrêt 63076
empêcher 63065
intégrer 63046
Assistance 63045
Delegation 62992
respectivement 62979
DI@@ 62944
élevés 62935
sk@@ 62904
patrimoine 62898
TE 62870
siège 62861
ib@@ 62843
tor 62813
entendu 62812
weight 62809
Contracting 62802
stay 62799
voix 62767
secure 62762
degré 62754
limitée 62742
remboursement 62741
ade 62718
Water 62662
failure 62655
détail 62632
formulation 62618
iste 62599
simplement 62597
efficacement 62581
true 62574
SP 62567
largest 62556
corporation 62530
locale 62500
Australia 62499
utilisant 62493
innovative 62482
modern 62447
satellite 62446
villes 62442
bar 62386
entretien 62385
décrit 62381
classes 62372
loc@@ 62372
établis 62368
mainly 62354
choice 62340
Terre 62315
dirigeants 62287
iser 62278
petite 62265
Technical 62257
garantie 62256
Paragraph 62233
aller 62220
facility 62214
assure 62208
id 62206
SE@@ 62202
frontières 62128
encouraged 62107
chacune 62077
prison 62070
Day 62067
Scotia 62054
GR@@ 62041
late 62036
AD 62032
accountability 62027
century 62010
1980 62003
appropriées 62000
distinction 61999
fees 61969
limits 61966
noté 61947
CA 61922
huit 61917
SC 61912
jusqu 61877
Draft 61874
auraient 61874
refer 61867
rée 61845
ﬁ@@ 61823
NO@@ 61813
interpretation 61812
ss@@ 61800
dates 61778
delà 61776
Comment 61763
biennal 61709
qualifications 61696
fourniture 61690
Park 61650
aine 61649
CM@@ 61641
Youth 61635
let 61607
Bas 61601
AF@@ 61594
sal@@ 61572
régulièrement 61531
consumption 61513
estimates 61513
identifier 61511
SA 61505
commencé 61503
officielle 61469
Gr@@ 61465
powers 61462
minority 61451
membership 61442
payer 61434
jury 61422
immediate 61395
front 61390
ore 61367
fondé 61353
humain 61351
PE@@ 61341
David 61340
So@@ 61335
climatiques 61335
,000 61319
int@@ 61291
maison 61287
entities 61286
ago 61250
ah 61245
alement 61241
Foundation 61210
recorded 61200
Mexique 61193
immigrants 61192
Son 61176
arabe 61158
Winnipeg 61135
courses 61126
PS 61100
entités 61097
became 61086
substantial 61065
ains 61057
simply 61028
donateurs 61009
signifie 61004
raisonnable 61003
accrue 61000
adressée 60973
scheduled 60927
entered 60873
whom 60862
presque 60836
pénal 60820
computer 60789
Finance 60774
alimentaires 60764
terroristes 60760
amendement 60751
complaints 60746
urgent 60725
Dr 60717
Espagne 60660
mort 60647
opinions 60644
soumettre 60644
Directorate 60642
mental 60634
réception 60610
launched 60592
Family 60575
sions 60569
Most 60551
race 60532
Performance 60529
Customs 60521
détermination 60511
pouvons 60507
informer 60466
élaboré 60460
titulaire 60434
sûreté 60412
requis 60401
pourront 60399
Contract 60398
signé 60377
c. 60358
cré@@ 60348
presentation 60340
fifty 60338
rest 60335
hausse 60311
adjoint 60260
enterprises 60258
FOR 60256
Disclosure 60245
Type 60243
traffic 60213
producers 60204
recrutement 60202
patent 60183
Item 60183
Inde 60183
Chambre 60174
terrorist 60172
Political 60163
press 60159
vulnerable 60121
giving 60115
veut 60114
timely 60111
har@@ 60091
Israeli 60082
delivered 60073
individus 60069
Luxembourg 60049
TC 60022
den@@ 59990
Ma@@ 59971
Millénaire 59953
Reports 59939
bilateral 59915
ind@@ 59912
débats 59891
run 59880
rise 59871
spécifique 59825
Lorsqu&apos; 59803
gains 59801
tic@@ 59790
régimes 59790
procurement 59780
elected 59759
qualified 59746
budgets 59718
receiving 59693
Turquie 59693
intellectual 59656
committees 59638
Première 59611
sex 59583
plants 59518
bou@@ 59515
resident 59512
situé 59497
Crime 59496
element 59495
substantive 59450
obtenus 59448
temporary 59433
NGOs 59427
mettant 59383
Street 59380
indépendance 59375
moitié 59362
ff@@ 59360
programming 59343
Guidelines 59326
forêts 59324
assessed 59315
vital 59314
idées 59273
rou@@ 59266
commis 59249
Dépenses 59245
estimé 59228
detention 59206
biennium 59206
my@@ 59204
radi@@ 59200
budgétaire 59193
gamme 59157
appuie 59155
comp@@ 59145
lancé 59145
préparer 59141
form@@ 59137
Nunavut 59134
calcul 59110
Avec 59064
visée 59056
og@@ 59032
criminalité 59026
contribué 59024
specialized 59020
difficulties 58968
her@@ 58937
envisager 58935
host 58925
DC 58919
montants 58899
chemin 58897
infractions 58889
figurent 58885
ur 58873
proper 58868
ouest 58853
gestionnaires 58852
compréhension 58841
animal 58815
finances 58810
Irlande 58797
euse 58785
word 58775
Operations 58684
characteristics 58666
marques 58662
Salle 58659
médicaux 58655
ol 58648
africaine 58648
120 58644
isation 58629
tables 58555
700 58536
cer@@ 58524
Commerce 58510
professionnel 58508
neuf 58500
informé 58472
Year 58464
accept 58460
déterminé 58459
activement 58445
targets 58438
illegal 58436
gen@@ 58426
adolescents 58391
union 58383
ness 58377
tâche 58375
Toutes 58353
Reference 58347
tour 58333
navigation 58332
os@@ 58320
fixed 58312
Etat 58266
relief 58260
datée 58247
hard 58189
came 58176
larger 58155
EL@@ 58138
Results 58135
placement 58130
ry 58116
carrying 58072
relatively 58052
organe 58033
dumping 58025
Trans@@ 58021
déployés 57963
indispensable 57933
ajouter 57932
admissibles 57915
cal@@ 57876
supervision 57853
investments 57848
fication 57833
rurales 57816
essentiels 57801
difference 57769
payable 57748
adultes 57734
la@@ 57724
resulted 57718
Ver@@ 57718
Développement 57691
sure 57680
fer@@ 57628
responses 57625
files 57622
ain@@ 57617
Population 57593
US@@ 57585
Countries 57583
Palestine 57577
yl@@ 57568
ions 57542
garanties 57522
Care 57500
About 57494
imposed 57493
libertés 57462
ble 57460
vues 57457
Parmi 57434
ven@@ 57429
began 57416
advantage 57414
devront 57403
963 57397
chômage 57369
33@@ 57348
mots 57317
instances 57287
answer 57261
remplir 57232
Vi@@ 57224
importations 57210
express 57169
Notice 57148
représentation 57129
entier 57105
add 57092
cinquième 57082
résoudre 57061
PC@@ 57050
culturelle 57040
relève 57019
declaration 57017
rem@@ 56997
examined 56996
rées 56996
appears 56993
obligatoire 56984
accession 56982
convenu 56982
êtes 56980
AB@@ 56968
Cultural 56967
increasingly 56966
présentes 56961
étapes 56961
exemples 56952
ire 56951
intégrité 56935
twenty 56926
bro@@ 56920
corps 56914
enhanced 56908
prolifération 56904
atif 56888
trouvent 56888
closed 56870
ful 56862
enti@@ 56859
Politique 56850
Plusieurs 56837
representation 56820
Autochtones 56813
Key 56803
télévision 56800
baisse 56796
détails 56770
constitute 56744
WTO 56715
bord 56709
My 56684
pauvres 56657
vice 56654
CRTC 56644
pertes 56633
réformes 56571
régler 56555
iques 56554
endroit 56546
culturel 56498
Two 56455
socio 56450
G. 56447
represents 56445
maintained 56443
vient 56438
précis 56431
Promotion 56417
R.@@ 56389
considerable 56382
diseases 56293
officiel 56285
identity 56277
désormais 56262
economies 56247
remaining 56228
treated 56223
increases 56212
actively 56205
database 56199
Du@@ 56195
protocole 56183
finding 56158
clause 56157
souligner 56137
établies 56137
ouverte 56116
probablement 56098
Ap@@ 56089
entend 56083
élection 56079
Natural 56074
SO@@ 56047
Système 56045
Thus 56040
preliminary 56030
considers 56026
dem@@ 56024
économies 55986
réalité 55967
Notes 55962
Fr@@ 55959
déc@@ 55949
allant 55931
impose 55913
Schedule 55892
vérifier 55879
rés 55855
envers 55850
Lu@@ 55842
dose 55827
accomplis 55806
téléphone 55797
ment@@ 55785
released 55778
trends 55776
concrete 55765
Proactive 55743
tendances 55730
namely 55722
connu 55720
excellence 55704
I. 55680
transaction 55679
models 55666
cro@@ 55666
Property 55659
Gestion 55652
reflected 55616
Australie 55603
organiser 55592
ying 55590
Jo@@ 55586
armés 55575
super@@ 55554
Montreal 55550
incidences 55549
harmonisation 55546
atelier 55526
accidents 55519
indépendant 55503
somme 55501
reviews 55494
handicapées 55490
loin 55480
noter 55480
choses 55475
® 55462
Mal@@ 55443
adi@@ 55434
Bu@@ 55433
Korea 55421
chiffres 55407
uc@@ 55379
appropriée 55350
certaine 55345
meilleures 55336
tasks 55332
mat@@ 55313
avantage 55313
El 55305
OMC 55300
ists 55298
posts 55298
built 55295
euses 55288
interaction 55265
Mrs 55250
4.2 55244
sexuelle 55244
préoccupation 55243
features 55236
entes 55236
Case 55236
existants 55233
K1A 55220
fier 55211
annoncé 55198
TION 55185
banques 55176
pres@@ 55173
ending 55171
pen@@ 55155
manage 55153
35@@ 55148
served 55129
Staff 55116
ational 55096
rez 55087
ell 55031
différence 55020
actuelles 55015
atifs 54999
invitation 54989
Rwanda 54951
VI@@ 54934
Nombre 54926
occur 54923
Task 54878
sup@@ 54874
sets 54856
conf@@ 54841
TO@@ 54841
lin 54828
relever 54819
combined 54814
entièrement 54800
veuillez 54757
2.3 54750
actors 54747
collected 54746
gives 54731
DS 54716
length 54711
book 54696
exposé 54687
welcomed 54683
Corée 54676
bal@@ 54645
législatives 54630
eg@@ 54619
title 54600
él@@ 54561
outil 54559
ships 54554
performed 54546
.. 54542
heritage 54522
Switzerland 54522
administrations 54482
bénéficier 54466
ion 54453
female 54449
inscrit 54448
entrepris 54414
équilibre 54407
Ber@@ 54406
engaged 54370
courant 54330
TH@@ 54308
destinées 54301
Suisse 54280
supérieure 54280
communs 54280
aise 54273
Alliance 54261
stages 54260
Survey 54259
administratif 54248
municipal 54217
wood 54216
looking 54213
gain 54206
ther@@ 54205
incidents 54196
Recherche 54173
actually 54163
Présidente 54156
tors 54143
Revenue 54123
Following 54107
begin 54095
telephone 54095
Appeal 54069
aims 54053
conflicts 54038
décès 54028
tiendra 54016
emphasis 54007
ey 54002
Divulgation 53994
Examen 53976
chances 53962
offerts 53962
rel@@ 53955
candidat 53955
suggestions 53947
assessments 53910
poursuite 53903
eight 53893
aged 53885
civilian 53880
découlant 53833
Rome 53824
fondamentales 53823
treaties 53819
PME 53817
TV 53810
Calgary 53806
bonnes 53797
CN.4 53795
achievement 53794
diminution 53772
ju@@ 53769
fee 53751
encontre 53750
quite 53704
Middle 53694
Brazil 53683
environnementales 53683
completion 53664
CP 53659
round 53638
package 53611
chambre 53611
utiles 53599
Go@@ 53596
aries 53591
oral 53574
financer 53559
bande 53514
conclure 53487
acc@@ 53485
Paul 53434
directeurs 53415
intitulée 53390
something 53370
constitution 53364
gh@@ 53352
pilot 53350
Partnership 53337
confirmed 53330
Peace 53314
Audit 53303
suspension 53301
touchant 53296
én@@ 53289
den 53285
procédé 53285
multiple 53277
di 53267
feel 53254
mineurs 53245
sample 53233
cash 53232
dic@@ 53227
names 53204
possession 53202
accordée 53194
Col@@ 53181
Avant 53132
iv 53123
03@@ 53120
ancien 53117
ène 53111
espère 53106
German 53100
mer@@ 53100
Russia 53090
auxquelles 53086
approprié 53058
No@@ 52985
Pe@@ 52981
Robert 52980
sign 52971
statistical 52939
passe 52939
CC 52934
holding 52919
meaning 52902
integrity 52902
coverage 52881
ordonnance 52855
occurred 52843
inc@@ 52834
Insurance 52768
decide 52765
négociation 52760
mobile 52758
Latin 52752
vulnérables 52742
cour@@ 52728
ais@@ 52715
CT@@ 52709
présentent 52707
appreciation 52696
offrent 52688
ins@@ 52684
comporte 52659
Based 52651
latter 52639
Mac@@ 52636
prescribed 52628
certificat 52623
appelant 52619
IR@@ 52602
portent 52601
idea 52572
despite 52564
1.3 52564
chapter 52523
Sweden 52519
Class 52512
undertake 52495
remained 52494
Activities 52459
equivalent 52454
év@@ 52450
firms 52446
ological 52446
devices 52429
énoncés 52408
raise 52400
behaviour 52391
List 52378
Mise 52371
Côte 52361
tourisme 52345
tabac 52339
Newfoundland 52334
Commissariat 52334
38@@ 52310
examples 52295
conferences 52293
continuent 52281
purchase 52275
naturel 52272
transparent 52232
concernées 52209
improvements 52205
Over 52189
Eastern 52182
contributed 52180
Land 52176
controls 52167
pensions 52165
workshop 52163
familiale 52162
undertaking 52159
Territories 52146
résidence 52138
hom@@ 52137
extensive 52129
prévoir 52099
col@@ 52082
navires 52079
humanitaires 52069
appareils 52068
speaking 52057
deemed 52052
Orient 52042
correspondant 52039
reconnaît 52028
campaign 52026
emerging 52008
précédent 52005
liée 51991
occasions 51981
village 51959
Mor@@ 51936
fifth 51932
climat 51923
cellules 51887
Industrie 51868
enregistré 51847
heard 51844
Assistant 51839
enfance 51831
tro@@ 51825
reproduction 51823
offence 51813
Val@@ 51812
Chamber 51800
spécialistes 51794
extraordinaire 51789
up@@ 51786
longtemps 51785
ret@@ 51773
seeking 51770
prêt 51766
Third 51762
2011 51700
UNESCO 51694
équipes 51682
particulières 51669
really 51658
residence 51652
TA 51644
mutual 51631
juges 51630
zation 51626
cher@@ 51605
laid 51603
figures 51596
opening 51581
input 51562
parent 51548
Pr@@ 51538
collègues 51521
Cabinet 51502
post@@ 51472
CL@@ 51469
dispositif 51463
assigned 51459
notion 51451
LO@@ 51445
fs 51420
alone 51394
sensitive 51384
tics 51380
jeu 51359
ery 51351
valoir 51351
changed 51347
Internal 51343
raising 51342
Ho@@ 51335
Écosse 51334
controlled 51321
ot 51311
Statement 51285
mentionné 51276
Halifax 51270
bénéficiaires 51268
cre@@ 51266
Téléphone 51258
fut 51240
modes 51207
actuels 51164
determining 51163
Honourable 51156
environnementaux 51149
CN@@ 51144
résidents 51116
ac 51114
numerous 51099
Change 51096
managed 51070
populaire 51060
Museum 51057
Parks 51051
ordinaire 51041
maintaining 51002
periods 51002
ventes 50991
11@@ 50976
tariff 50968
engager 50956
proposée 50954
heart 50937
Caribbean 50934
appels 50921
Bro@@ 50917
independence 50885
ris@@ 50878
multiples 50874
prennent 50870
Demande 50825
television 50819
mettent 50819
ich@@ 50816
á@@ 50809
Kenya 50804
Lors 50801
meilleurs 50789
conformes 50785
Headquarters 50778
atrice 50770
fera 50759
constituer 50756
statistique 50754
iz@@ 50753
correspond 50746
précédente 50736
extend 50732
ver 50726
états 50713
ms 50702
honorable 50702
intéressés 50702
reserve 50691
menée 50678
1982 50672
explique 50651
We@@ 50644
sis 50640
Atlantique 50630
departmental 50628
conjoint 50611
1. 50595
effectuées 50595
3.3 50589
Ser@@ 50579
q@@ 50573
secondaire 50551
sion 50547
complainant 50543
send 50527
effectif 50500
properly 50497
âgées 50470
obstacle 50460
élevée 50423
Coordination 50403
Session 50377
ATIONS 50372
CO2 50364
ème 50358
inscrire 50333
Brésil 50326
iss@@ 50305
Medical 50290
détenus 50269
pri@@ 50246
customers 50235
continent 50235
exports 50221
DA 50214
complexe 50210
expériences 50208
CO 50196
electoral 50178
lands 50176
Common 50175
sé@@ 50172
chargés 50168
existantes 50162
Monitoring 50157
He@@ 50156
Province 50154
panel 50144
style 50142
autorisé 50139
habitants 50138
indications 50128
isme 50128
Mesures 50121
prochain 50116
rent 50115
conc@@ 50093
dimensions 50083
Sub 50076
ann@@ 50062
changing 50046
H. 50037
intergovernmental 50031
Grand 50029
raciale 50028
ski 50025
palestinien 50003
Its 50002
accounting 49973
mu@@ 49972
température 49962
effectivement 49960
Or 49947
Index 49930
36@@ 49917
cas@@ 49912
ports 49906
Cas@@ 49905
fu@@ 49889
spending 49882
Planning 49869
HR 49868
customs 49865
tiques 49861
updated 49858
compagnie 49858
chance 49855
88@@ 49850
Madame 49844
étroite 49826
Étant 49825
préciser 49806
É 49799
exploration 49796
énergétique 49787
futures 49781
Costa 49779
cm 49754
incorporated 49733
War 49730
Veuillez 49722
Capital 49719
parlementaire 49701
soutenu 49699
drawn 49697
anciens 49686
extrêmement 49685
partout 49676
investigations 49670
Main 49657
routes 49652
scolaire 49640
ban@@ 49637
Habitat 49588
porté 49588
considérablement 49581
allocated 49574
proposées 49570
aérien 49548
cul@@ 49539
Search 49514
Burundi 49505
utilise 49462
15.@@ 49437
sûr 49426
requérant 49397
marks 49393
periodic 49385
universités 49384
indiquent 49378
Area 49359
non@@ 49345
taxation 49342
complexes 49339
concepts 49336
Persons 49333
imports 49331
ateliers 49319
relationships 49310
vis@@ 49302
Her@@ 49289
visible 49276
Suède 49268
Name 49267
Sea 49263
Chairperson 49261
visent 49261
fil 49260
the@@ 49256
effectuée 49253
Sudan 49250
copie 49238
reconnaître 49226
invité 49205
Drug 49202
Do@@ 49191
± 49187
dollar 49169
Philippines 49155
appartenant 49146
2.5 49138
exemption 49134
injury 49128
destiné 49126
privés 49099
animals 49089
ee 49077
officiels 49057
éthique 49031
SM@@ 49003
acquitter 49001
contributing 48985
1984 48984
limiter 48975
revenue 48970
exposés 48965
milliers 48941
ering 48905
directed 48903
professionals 48894
intégré 48868
Au@@ 48850
bur@@ 48849
Edmonton 48845
alized 48840
remplacement 48834
recognize 48793
Programs 48782
universal 48778
experiences 48774
abilité 48758
ratio 48752
compétentes 48749
comes 48746
ideas 48729
fied 48710
pointed 48677
formule 48677
ready 48661
Add.@@ 48643
temperature 48641
enjoy 48636
temporaire 48633
Not 48609
visé 48608
traditionnels 48599
CS@@ 48596
quarter 48591
demonstrated 48586
satisfaire 48585
FAO 48571
sports 48569
continuera 48567
conscience 48559
motion 48557
Building 48537
zing 48525
Standards 48519
PM@@ 48517
liability 48493
CD@@ 48456
replaced 48455
cont@@ 48442
voies 48426
learn 48425
Rappelant 48411
malgré 48389
attached 48387
dommages 48373
vivant 48368
involve 48365
sought 48359
organizational 48355
rend 48331
sixième 48321
fine 48301
bas@@ 48294
instamment 48282
devaient 48242
ali@@ 48239
Nom 48235
Bur@@ 48214
Small 48201
Industrial 48195
Washington 48191
ici@@ 48190
privées 48170
failed 48143
storage 48141
dispositifs 48135
demonstrate 48122
accéder 48093
Sector 48089
started 48081
américain 48080
véritable 48077
budgetary 48071
offences 48059
noms 48055
Décision 48046
consentement 48045
certificate 48037
Discrimination 48022
entre@@ 48007
fisheries 48003
Bill 48003
37@@ 47996
ism 47991
generation 47975
pleine 47972
banks 47969
eraient 47955
soil 47952
directe 47950
ut@@ 47948
contrôles 47932
récente 47923
Those 47911
Ag@@ 47904
bri@@ 47875
speed 47870
extremely 47859
e.@@ 47840
canada.gc.ca 47839
variables 47821
So 47813
ellement 47807
Toute 47806
septième 47785
réduit 47750
effectués 47742
perform 47731
lic@@ 47714
5.1 47711
accordé 47700
participated 47693
répondants 47683
exprimé 47676
démarche 47640
éri@@ 47636
d. 47633
orientations 47624
mot 47619
votes 47603
targeted 47591
rap@@ 47591
constaté 47585
réalisé 47584
Gaza 47583
choisir 47560
reforms 47547
ited 47541
composé 47541
45@@ 47535
remise 47535
EP@@ 47519
plenary 47517
congé 47511
indicates 47501
cartes 47501
remercier 47494
minorities 47484
Related 47479
ders 47462
appelle 47457
travaillent 47435
digital 47423
crises 47420
tourism 47412
gé@@ 47402
clinical 47376
technological 47364
recruitment 47364
menaces 47348
Spanish 47315
Islamic 47292
modified 47290
calendrier 47287
géographique 47283
felt 47243
Team 47213
providers 47206
del@@ 47203
ang 47199
we@@ 47195
Défense 47195
Pi@@ 47193
sentence 47187
MAR@@ 47184
Risk 47183
initiated 47168
masse 47144
floor 47140
London 47120
INC 47120
défi 47096
coordinated 47094
sive 47092
PL@@ 47092
residents 47062
disability 47056
Another 47055
EL 47052
radiodiffusion 47032
al. 47018
Resolution 47016
Paragraphe 47009
UR@@ 46988
Pendant 46958
Em@@ 46939
distributed 46929
accepter 46926
Provincial 46909
cities 46900
off@@ 46900
Liens 46865
outlined 46864
AU 46797
française 46794
époque 46794
invités 46792
MC 46791
domicile 46787
équité 46782
Belgium 46765
Grâce 46764
Press 46754
lost 46749
enseignants 46748
périodes 46741
internationally 46721
plénière 46710
clair 46685
fil@@ 46670
northern 46648
catastrophes 46645
titres 46639
som@@ 46614
considering 46608
dispute 46597
lac 46593
22@@ 46564
arguments 46556
réaction 46554
ame 46547
Recalling 46544
VII 46540
adverse 46532
quickly 46522
entity 46521
séjour 46502
Issues 46497
Cal@@ 46488
facilement 46464
QU@@ 46455
strongly 46434
threats 46424
birth 46416
RI@@ 46382
air@@ 46374
Marine 46364
dus 46328
considérer 46324
dynamique 46320
argument 46313
Norway 46310
CP@@ 46304
summer 46298
aging 46295
participent 46286
COM@@ 46278
2. 46214
poissons 46212
identifying 46205
deliver 46204
easy 46198
consacré 46187
ologique 46167
AV@@ 46159
keeping 46135
entrepreneurs 46122
firm 46103
fixe 46100
draw 46096
Ko@@ 46083
log@@ 46080
AB 46052
port@@ 46031
sert 46031
background 46018
prenant 46003
courriel 45998
judges 45988
pleased 45979
Scientific 45972
entendre 45972
ew@@ 45970
Se 45961
disponibilité 45957
tre 45954
peaceful 45936
arrangement 45931
Sciences 45930
ID@@ 45920
dec@@ 45914
drogue 45883
outstanding 45879
favorable 45859
tres 45849
Your 45846
1.5 45846
quement 45843
Culture 45828
flux 45822
Grande 45816
governing 45809
latest 45808
prochaines 45798
stade 45754
ownership 45750
exclusive 45726
soixante 45720
06@@ 45718
older 45694
Communities 45680
inf@@ 45658
grants 45656
Moyen 45631
exprimer 45628
inscrits 45627
manifestations 45624
émission 45624
KB 45587
journée 45586
healthy 45569
thèmes 45567
tées 45559
Sub@@ 45524
préliminaire 45522
men@@ 45520
seems 45516
demandeur 45513
affairs 45485
explained 45479
mouvement 45475
unemployment 45452
mondialisation 45446
requises 45444
mortalité 45432
transferred 45427
College 45399
traduction 45379
workshops 45367
admissible 45356
Investment 45341
illicite 45335
Pierre 45313
étrangère 45312
MS 45311
check 45283
commercialisation 45275
formulées 45271
issant 45268
facing 45267
Red 45241
39@@ 45237
tête 45217
functioning 45211
lecture 45201
autour 45194
says 45192
GDP 45188
éd@@ 45179
OECD 45176
programmation 45168
abroad 45163
fac@@ 45152
delay 45142
spécialisées 45141
Bell 45126
sometimes 45121
ozone 45115
supplies 45108
èrent 45107
eng@@ 45097
1981 45085
édition 45081
suggest 45062
stand 45059
Letter 45059
Sal@@ 45047
Belgique 45036
Requests 45031
limité 45024
quer 45020
che@@ 45016
moteur 45011
lié 44960
racisme 44937
vol@@ 44932
ns 44929
lists 44929
ans@@ 44926
fédérales 44910
Ass@@ 44886
§ 44880
Tri@@ 44879
ax@@ 44878
perfectionnement 44868
fire 44857
équipements 44827
standing 44808
racial 44788
modifiée 44787
gave 44773
tend 44759
vraiment 44751
rappelle 44748
habituellement 44746
publicité 44736
incident 44702
stressed 44697
Rem@@ 44694
S.@@ 44694
Austria 44691
dues 44684
amples 44678
maximale 44673
carbon 44663
octroi 44661
enhancing 44649
FR@@ 44638
Given 44631
university 44629
unable 44624
arising 44623
ga 44621
biologique 44612
approches 44608
decrease 44607
dou@@ 44586
ens@@ 44573
measured 44565
NRC 44556
sw@@ 44537
évidence 44536
alism 44510
ger 44499
Systems 44499
uni@@ 44494
RE 44488
Governor 44486
exceptions 44484
facts 44475
blood 44475
roles 44474
informatique 44471
estimations 44461
disclosure 44460
Drugs 44458
aliser 44442
experienced 44438
revenues 44429
quoi 44389
douanes 44378
mené 44328
stop 44321
accident 44309
hal@@ 44307
judiciaires 44301
députés 44299
Asian 44294
Analysis 44286
structural 44283
2.4 44279
appelé 44275
¨ 44263
device 44257
Sp@@ 44251
Mu@@ 44242
tée 44241
Madrid 44226
établit 44210
professionnelles 44192
sl@@ 44185
respondents 44185
pan@@ 44169
institutionnels 44155
résumé 44153
parler 44152
êtres 44149
déclare 44149
monétaire 44133
thereby 44126
Standard 44123
wing 44122
Caraïbes 44120
formed 44117
decline 44114
tenus 44110
Renseignements 44108
correct 44102
vent 44100
Rec@@ 44097
itation 44092
pé@@ 44084
cells 44070
considérés 44059
améliorations 44058
appareil 44048
ettes 44020
abus 44002
ly@@ 43988
proliferation 43984
devez 43984
avancés 43977
Suite 43976
met@@ 43973
prioritaires 43969
numérique 43953
axée 43946
constant 43925
énoncées 43924
Market 43916
bre@@ 43913
partis 43905
Road 43901
tera 43897
becoming 43892
ententes 43888
intéressées 43883
helping 43852
counter 43832
Peter 43817
ish 43813
distinct 43804
industrielle 43800
échantillons 43793
char@@ 43783
gn@@ 43778
PIB 43776
contribue 43767
applying 43764
Immigration 43737
career 43733
voting 43723
Romania 43721
biologiques 43714
card 43712
mid 43683
hoc 43671
clé 43662
yl 43658
Réseau 43654
SS@@ 43638
honneur 43626
erreur 43618
télécommunications 43614
Kyoto 43610
UNCTAD 43608
Space 43608
papier 43602
Library 43600
primaire 43597
Process 43584
RÉ@@ 43578
sommet 43568
filing 43567
burden 43559
friendly 43555
AUX 43555
commencer 43553
facile 43514
teneur 43504
teachers 43494
Prie 43488
initiale 43484
lin@@ 43474
Évaluation 43473
prof@@ 43468
pêches 43467
ation@@ 43452
ster 43432
vont 43418
électricité 43405
ving 43404
.2 43398
Only 43392
Liste 43377
carrière 43375
tiens 43367
quelles 43332
Czech 43315
Consultations 43312
pétrole 43311
inférieur 43303
réel 43298
Ne@@ 43296
adapter 43296
Gazette 43288
q 43284
menu 43282
Infrastructure 43280
viable 43274
matériaux 43263
musique 43249
admission 43244
advanced 43220
dro@@ 43219
cop@@ 43208
CB@@ 43205
Neuve 43196
cli@@ 43195
forced 43186
screening 43184
Their 43172
starting 43171
sec@@ 43163
Financing 43157
Classification 43145
réglementaires 43138
Victoria 43125
barriers 43103
equity 43086
receipt 43074
employeurs 43072
del 43070
enjeux 43069
cy@@ 43062
por@@ 43050
Poland 43049
Chapitre 43048
ty@@ 43047
GST 43045
tobacco 43040
attitude 43033
essentielle 43027
témoins 43021
île 43015
contribuent 43011
événement 43005
ine@@ 42996
everyone 42989
claimant 42979
To@@ 42978
PM 42976
showed 42975
Radio 42971
URL 42970
conformity 42963
Quality 42959
manufacturing 42950
Finland 42949
entité 42945
fournies 42934
impression 42923
binding 42921
ys 42892
District 42870
chi@@ 42859
Guatemala 42856
poser 42851
jeunesse 42850
Through 42848
vitesse 42847
engagé 42834
historical 42826
législatif 42817
seconde 42816
Free 42813
M.@@ 42797
prévisions 42795
Bosnie 42783
owned 42781
poisson 42774
asile 42770
bringing 42760
Deux 42754
AU@@ 42744
facultatif 42744
Standing 42739
gros 42734
choose 42733
frontière 42724
schedule 42712
mère 42711
Senior 42702
expliquer 42697
reçues 42677
suitable 42666
préjudice 42666
tôt 42663
biological 42662
similaires 42659
voyages 42657
finale 42654
américains 42635
iv@@ 42632
alleged 42631
extra 42616
Plans 42602
ae 42591
fortement 42589
Transports 42588
Recommendation 42584
EA 42582
F. 42565
rapid 42559
effectifs 42556
900 42542
cell 42528
administratifs 42511
locations 42502
Norvège 42501
opérationnelles 42496
34@@ 42493
aérienne 42491
UNEP 42486
Crown 42484
médecins 42483
Vienna 42476
Siège 42476
Procedure 42467
CT 42461
Cadre 42461
tures 42449
prescriptions 42449
calculated 42412
Both 42406
nutrition 42403
mentale 42403
Chinese 42399
récentes 42394
élargissement 42392
essentielles 42389
ess 42380
armée 42376
Once 42368
PN@@ 42350
thing 42343
Bangladesh 42335
conversion 42324
Pré@@ 42321
pilote 42320
Studies 42316
PD@@ 42313
climatique 42313
comm@@ 42305
asi@@ 42298
annuels 42274
dés 42270
allowing 42252
RC 42251
compétitivité 42243
fr 42237
disposal 42233
leader 42232
Oceans 42202
ti 42198
ager 42196
IL@@ 42191
Port 42187
brevet 42183
UL@@ 42181
As@@ 42176
San 42175
faibles 42169
combination 42158
welcomes 42154
mi 42148
huitième 42148
qui@@ 42147
ica 42146
Soudan 42144
nationalité 42135
rait 42128
ampleur 42120
naissance 42119
pièce 42114
sti@@ 42111
ick@@ 42095
Nor@@ 42092
Supreme 42083
ently 42075
freedoms 42066
possède 42064
not@@ 42042
WP.29 42041
OM@@ 42031
Min@@ 42030
preparing 42025
music 42008
lie 42006
covering 41997
nes 41997
representing 41994
ered 41992
instead 41980
susceptible 41970
UK 41966
Har@@ 41964
énoncé 41964
Moldova 41962
segment 41952
compl@@ 41944
constitué 41939
preuves 41933
employers 41921
satisfied 41918
Que 41916
Bosnia 41907
inflation 41897
emplacement 41895
ISO 41888
couverture 41884
rich 41868
duration 41863
dée 41858
Net 41857
Michael 41856
devient 41849
fax 41846
track 41841
soutient 41837
architecture 41836
puissance 41835
échantillon 41832
wishes 41827
detail 41822
video 41789
montrent 41789
supérieurs 41776
Activités 41774
T. 41768
autochtone 41757
privacy 41753
lettres 41745
milieux 41740
parlementaires 41736
fondées 41730
isés 41723
concrètes 41718
spoke 41715
appropriés 41704
Sk@@ 41692
sixth 41690
latine 41686
speak 41679
85@@ 41676
10,@@ 41648
valid 41647
mortality 41635
widely 41627
Optional 41622
montré 41609
â@@ 41601
décider 41572
Roumanie 41569
Courriel 41553
considérable 41550
défini 41549
qués 41540
vivent 41539
restaurant 41531
annonce 41519
waters 41512
rédaction 41512
ministérielle 41503
involves 41489
expiration 41488
print 41483
déterminée 41471
retard 41466
désigné 41451
régissant 41431
Income 41426
limitations 41403
Military 41399
thought 41397
motif 41383
town 41378
conserver 41374
flexibility 41359
displaced 41351
ko 41349
Experts 41344
Participation 41327
Local 41299
fournissent 41280
Nos 41275
Phase 41273
rivière 41252
Funding 41249
Autriche 41247
dependent 41244
massive 41244
news 41241
objets 41240
na 41210
exemplaires 41207
hereinafter 41193
physiques 41189
accepté 41159
quée 41149
James 41144
Ri@@ 41139
flexible 41135
award 41135
préserver 41135
played 41118
update 41109
executive 41105
TIC 41098
observateurs 41089
fixé 41087
Certaines 41080
neuvième 41078
servant 41076
remplacer 41068
ays 41028
combattre 41025
IE 41024
ce@@ 41004
Territory 41000
provenance 40994
evaluate 40993
Goals 40991
819 40989
répondu 40981
fruits 40976
born 40958
ME@@ 40958
Parliamentary 40957
TPS 40955
puisqu&apos; 40955
arrivée 40942
inclus 40937
Conditions 40933
visiteurs 40927
constitutional 40926
limitation 40923
E.@@ 40922
Governing 40915
Beijing 40910
estimate 40908
jo@@ 40906
Art 40904
www.c@@ 40881
Travel 40870
Rapports 40867
orders 40853
auto@@ 40851
conçu 40851
suprême 40848
1983 40842
ira 40829
tradition 40824
internet 40824
registre 40823
pal@@ 40814
développés 40812
encouraging 40805
Ph@@ 40798
PAR@@ 40797
allégations 40784
attacks 40783
donnent 40783
précisément 40781
letters 40767
indépendants 40767
indeed 40757
P.@@ 40755
interdit 40740
reg@@ 40733
Despite 40719
corresponding 40718
RCMP 40709
SMEs 40707
largely 40688
La@@ 40687
éventail 40677
ano 40675
fichier 40673
commence 40671
learned 40670
chaîne 40659
ring 40651
apportées 40633
Parcs 40626
Production 40625
SI 40623
arrive 40618
joue 40618
continuous 40606
Du 40606
issent 40599
protecting 40592
objection 40589
Canadiennes 40572
machines 40564
indiquant 40564
spent 40548
ash@@ 40543
génér@@ 40543
import 40535
behind 40532
autonomie 40527
Voici 40513
déploiement 40512
laboratoire 40503
IF@@ 40497
fournisseur 40488
occupied 40480
ably 40477
hon@@ 40477
donors 40476
Power 40461
productivité 40456
Pologne 40447
capitaux 40438
Vienne 40436
hor@@ 40425
exploiter 40419
resolve 40417
refers 40398
contrary 40393
visits 40389
George 40378
affecting 40372
regularly 40364
serving 40364
livre 40363
advisory 40355
opened 40341
define 40328
Mi@@ 40323
iti@@ 40311
faudra 40310
requête 40308
applicants 40302
complémentaires 40302
™ 40294
comparable 40279
ow@@ 40272
Arts 40266
TI 40257
ANT 40247
résultant 40245
105 40232
ends 40228
scheme 40222
concert 40219
universities 40217
OR 40215
salaire 40194
Licence 40191
carbone 40186
classified 40181
strengthened 40172
map 40168
volontaires 40159
conjointement 40159
livraison 40151
bes 40145
défaut 40140
101 40136
ically 40126
Innovation 40125
ethnique 40118
park 40111
lat@@ 40109
night 40104
accroissement 40102
constate 40093
ologiques 40091
Ombudsman 40088
variation 40085
traditionnelles 40075
Ter@@ 40070
critique 40064
aqu@@ 40061
servent 40054
Ge@@ 40038
eliminate 40036
cut 40029
teaching 40025
sel@@ 40021
mp@@ 40020
exceed 40006
ili@@ 40004
reprise 39997
verser 39986
mesurer 39986
Fondation 39983
Is 39965
charged 39965
Contents 39957
constructive 39956
demands 39936
í@@ 39929
utilisent 39926
sold 39890
Life 39886
jou@@ 39877
claimed 39870
Corporate 39868
acquired 39854
Zealand 39850
Lebanon 39841
rapportant 39838
CNRC 39819
1,000 39810
restriction 39799
erie 39783
Lettre 39781
ford 39768
technologique 39766
accessibles 39757
Manager 39728
register 39722
bul@@ 39722
100@@ 39713
ya 39711
Monday 39696
ENT 39668
avocat 39664
formuler 39662
farmers 39661
offres 39660
theme 39658
gén@@ 39654
médecine 39644
Brussels 39639
dealt 39638
disposer 39638
GRC 39635
prostitution 39633
sy@@ 39628
détaillée 39628
résident 39616
buildings 39612
officieuses 39607
aviation 39605
Additional 39604
cur@@ 39602
interim 39600
Address 39591
offert 39575
male 39572
travaille 39571
1978 39567
encourages 39559
managing 39557
ft 39554
nu@@ 39546
américaine 39509
armées 39497
reading 39492
trend 39488
communiqué 39487
heading 39480
derived 39470
ED@@ 39465
coordonner 39465
ord@@ 39464
Paper 39449
1373 39442
donor 39437
vic@@ 39428
1.4 39426
Elimination 39412
personnelles 39398
surveys 39393
ide 39379
soldats 39378
47@@ 39368
assume 39367
05@@ 39353
existent 39346
examens 39346
ave 39340
Res@@ 39331
présents 39318
exigence 39316
Resource 39315
kept 39313
02@@ 39312
5.2 39307
Because 39300
futurs 39289
cin@@ 39286
pursue 39284
nine 39284
teams 39268
conseiller 39262
Trust 39250
CN.9 39242
ards 39232
appliquées 39228
penalty 39223
dangereuses 39210
Several 39206
tifs 39200
rehabilitation 39191
révisé 39179
Post 39178
pouvaient 39176
gross 39175
Measures 39167
signal 39166
pol@@ 39166
CS 39162
compatible 39158
ANCE 39147
Question 39145
faced 39144
OCDE 39143
Rica 39142
ha 39129
ulation 39128
Study 39121
constitu@@ 39116
Myanmar 39109
Gi@@ 39105
box 39097
conver@@ 39089
capabilities 39085
buts 39076
PI 39069
Finlande 39055
Malgré 39039
productive 39031
rest@@ 39028
declared 39024
normally 39023
Ni@@ 39022
dy 39019
DG 39018
14.@@ 39015
enfin 39015
gouvernementale 39012
rappeler 39008
Venezuela 39005
présentant 39004
permitted 38999
W. 38986
définis 38982
néanmoins 38978
mérite 38975
contrôler 38954
capacities 38953
estimation 38951
Last 38948
ront 38936
ory 38933
Center 38930
Fort 38928
reçus 38915
Patrimoine 38906
Si@@ 38901
crois 38894
productivity 38883
spirit 38860
110 38855
PR 38833
ke@@ 38831
affirme 38824
moving 38812
aides 38803
visites 38798
deployment 38775
nommé 38774
industriels 38767
geographical 38761
Sri 38760
restricted 38760
accommodation 38757
Des@@ 38751
Form 38738
historic 38737
réussite 38729
sor@@ 38726
combating 38726
easily 38719
Nuclear 38703
depth 38687
marked 38679
indemnité 38669
discuter 38665
parliamentary 38660
speakers 38658
trente 38632
wh@@ 38630
machine 38628
reality 38627
proche 38616
consists 38611
fournie 38608
électorale 38604
dépend 38603
broader 38598
lang 38590
hé@@ 38579
land@@ 38574
attempt 38573
continué 38561
Contributions 38560
makers 38555
Georgia 38550
attitudes 38542
disaster 38538
competitiveness 38537
Pal@@ 38520
Programmes 38518
EE 38502
valuable 38497
Bruxelles 38492
imported 38455
autorisée 38424
acid 38415
preventing 38403
duquel 38390
Next 38385
fying 38378
DR@@ 38376
carrier 38374
étroitement 38373
0,000 38363
résistance 38348
islamique 38338
grade 38334
Today 38329
durables 38324
proposer 38321
totalité 38313
RS 38310
V. 38303
s. 38298
écart 38297
cat@@ 38291
ely 38282
angle 38280
inventory 38275
industriel 38275
associé 38275
entr@@ 38262
Country 38251
intervenir 38248
dissemination 38243
PRE@@ 38242
Herzégovine 38241
Planned 38238
libération 38235
becomes 38233
mandatory 38224
réalisations 38210
ET@@ 38205
Final 38190
PER@@ 38186
solidarité 38170
enabling 38165
Accordingly 38148
C.3 38148
whereas 38146
Kazakhstan 38133
Aucune 38129
Telephone 38122
Aide 38122
passagers 38114
flight 38102
manufacturer 38093
seuls 38087
pa@@ 38075
expectations 38073
losses 38067
ories 38046
Islands 38042
Model 38039
sustainability 38027
moral 38023
lacunes 38021
versement 38021
student 38020
passed 38002
vely 37990
EEC 37987
joué 37977
illicit 37975
IA 37954
PWGSC 37950
Ministerial 37942
removed 37940
accurate 37938
entrer 37934
thousands 37924
aéronefs 37922
1979 37921
phénomène 37911
retrait 37905
juridiction 37899
tab@@ 37891
sol@@ 37881
Previous 37871
souhaitent 37871
comparison 37870
inspections 37868
dangerous 37864
OMS 37858
indépendante 37824
ethniques 37815
seventh 37813
viol@@ 37809
character 37808
Er@@ 37798
1967 37791
tons 37787
emission 37787
Head 37781
traditions 37780
films 37777
honour 37773
réglementaire 37769
handicapés 37753
variable 37750
CNUCED 37749
Chef 37741
moyennes 37739
Cyprus 37738
aver@@ 37738
PH@@ 37735
helped 37733
Languages 37727
genetic 37725
Ms 37720
ü@@ 37696
soi 37696
corporations 37691
titulaires 37688
ressort 37680
asylum 37674
proposés 37657
reflects 37655
Sa 37651
measurement 37646
cliniques 37641
considerations 37629
jugement 37628
Line 37625
tchèque 37609
exists 37603
banque 37601
permettrait 37591
Egypt 37575
SUR 37573
variations 37569
Bulletin 37554
shares 37539
hour 37534
comparaison 37532
ATI@@ 37524
disposent 37523
jugé 37519
conviction 37516
tenues 37515
proximité 37512
arg@@ 37510
believes 37491
grain 37491
ajouté 37487
phrase 37486
ner@@ 37477
ouvrir 37477
Greece 37475
acier 37469
tom@@ 37466
vidéo 37466
Herzegovina 37448
Projects 37436
SH@@ 37432
Records 37422
versions 37417
historiques 37411
ani@@ 37407
Even 37404
Ambassador 37404
discipline 37403
join 37399
strength 37388
rencontre 37384
entreprendre 37370
bulletin 37368
toward 37353
livres 37349
engagés 37349
attendre 37346
fonctionnaire 37338
camps 37332
completely 37329
od@@ 37324
diagnostic 37321
hum@@ 37317
âgés 37316
enregistrés 37313
vessels 37306
60@@ 37298
4.3 37296
tis@@ 37282
opérationnel 37275
concernent 37274
Forms 37258
oiseaux 37257
covers 37242
Denmark 37240
isé 37237
nothing 37233
prime 37211
translation 37211
north 37195
différends 37189
Sou@@ 37183
TPSGC 37183
160 37173
jurisprudence 37170
replace 37164
issus 37158
avance 37149
semblent 37148
habitats 37139
phases 37138
Statistique 37136
Martin 37113
incombe 37113
Marie 37106
TIONS 37104
smaller 37097
tives 37089
plan@@ 37080
tra@@ 37063
volet 37038
consultants 37024
décret 37019
rang 37012
competence 37006
age@@ 37006
Base 36999
wi@@ 36995
achats 36994
railway 36988
tation 36975
DO@@ 36971
presents 36968
listes 36949
arabes 36918
submissions 36904
C.2 36904
subsequently 36903
ub@@ 36890
solide 36889
étendue 36887
worldwide 36873
refugee 36873
Friday 36870
worth 36861
choisi 36854
qualités 36852
awarded 36851
1970 36851
excessive 36850
probable 36835
operators 36826
Del@@ 36825
commande 36817
dûment 36814
contamination 36807
rester 36807
onne 36797
Conn@@ 36796
ton@@ 36787
introduce 36786
Hor@@ 36785
fulfil 36783
advertising 36777
moderne 36774
Deuxième 36766
cœur 36757
ault 36748
sols 36748
app@@ 36727
peines 36723
EX 36721
pon@@ 36709
permettront 36708
SU@@ 36702
dedicated 36700
requiring 36698
J.@@ 36685
Lanka 36676
illes 36676
generated 36673
conducting 36668
Do 36666
Centres 36658
Time 36656
lancement 36650
Professional 36645
poursuites 36645
sixty 36638
tis 36627
secours 36624
B.@@ 36622
acquérir 36622
externes 36565
spread 36564
capitale 36558
foster 36557
intérimaire 36551
eli@@ 36548
DG@@ 36534
ths 36530
Sport 36527
perception 36526
annexes 36523
amend 36520
penser 36513
fié 36501
lessons 36490
directions 36473
currency 36471
mauvais 36465
Indonesia 36463
publiés 36455
conduit 36442
Open 36435
perhaps 36413
cooperate 36411
comprenant 36407
ises 36402
mouvements 36395
périodique 36392
invention 36383
sem@@ 36382
Argentine 36370
profile 36365
analyser 36352
surveiller 36352
existant 36346
SCT 36339
Équipe 36327
Croatia 36319
ég@@ 36313
Mag@@ 36312
alisé 36308
trained 36301
diverse 36293
cohérence 36292
Works 36288
Ste@@ 36281
FO@@ 36276
functional 36267
125 36265
Language 36254
trading 36253
Char@@ 36246
farm 36244
réparation 36244
reliable 36242
13.@@ 36238
ked 36236
ect 36227
expressément 36225
130 36219
berg 36185
signalé 36174
owner 36172
fruit 36165
annually 36162
considérées 36160
organic 36152
Ceci 36143
UNHCR 36140
fallait 36138
tif 36131
ized 36130
dehors 36126
south 36122
naturels 36112
secrétaire 36094
constater 36073
bus 36066
enn@@ 36059
reçoivent 36041
ov@@ 36040
bénéficiaire 36022
occuper 36017
ICT 36013
ena 36006
subvention 36006
equipped 35998
ut 35991
plantes 35991
AF 35985
ta@@ 35980
140 35959
incurred 35957
successfully 35953
quels 35948
vez 35942
Recommandation 35941
vivre 35939
44@@ 35934
potentiels 35928
fréquence 35920
Right 35917
Manufacturing 35917
recommend 35913
southern 35912
précises 35898
déplacement 35895
producing 35880
îles 35869
probably 35851
understood 35849
ordinateur 35847
ff 35836
Spending 35832
OL@@ 35810
Résultats 35791
und@@ 35783
za 35765
scolaires 35759
logiciel 35752
recueillir 35722
Position 35711
soumises 35708
ong@@ 35706
aménagement 35705
aborder 35698
guarantees 35697
africains 35691
Angola 35683
attended 35677
propriétaire 35674
topics 35668
paramètres 35651
ö@@ 35650
changer 35650
adjustment 35648
Ju@@ 35632
saisi 35632
Doha 35630
QUE 35630
restent 35630
cible 35624
médecin 35624
TIR 35615
oni@@ 35609
&apos;re 35601
Product 35598
heavy 35597
Indigenous 35596
books 35594
welfare 35592
gap 35587
utilisateur 35585
positif 35567
Grèce 35567
situés 35559
domin@@ 35553
lies 35552
spécialisés 35549
compétents 35540
apporté 35500
fichiers 35485
devoir 35483
XX@@ 35480
enterprise 35480
Danemark 35480
went 35479
necessarily 35477
depending 35475
qué 35474
Arctic 35471
rôles 35466
Liban 35466
explore 35453
réelle 35447
DFO 35433
Région 35428
saisie 35420
Dec@@ 35418
topic 35411
Us 35407
Sol@@ 35397
nuit 35396
composante 35393
extradition 35389
pass 35381
attentes 35376
expand 35374
ene 35374
1st 35371
WHO 35369
Te@@ 35369
adults 35367
repose 35366
loans 35364
55@@ 35362
assessing 35353
67@@ 35353
returned 35350
vols 35346
acceptance 35345
0.00 35345
devenu 35341
artistes 35330
patterns 35327
journal 35327
16.@@ 35327
regulated 35318
progressive 35317
counsel 35305
EMENT 35303
Sur@@ 35284
ard@@ 35280
severe 35278
voisins 35273
bons 35270
Within 35256
6.1 35249
assi@@ 35236
rétablissement 35234
positifs 35225
Privacy 35221
balanced 35216
explain 35210
broadcasting 35202
Field 35196
civilians 35195
provinciales 35192
Reporting 35188
ê@@ 35170
Institutions 35161
savings 35159
isée 35153
gs 35133
Guinea 35128
nearly 35112
attribution 35105
minor 35093
Top 35091
reçoit 35091
fondamental 35091
pay@@ 35066
allowance 35065
envoyer 35060
prié 35058
hereby 35056
Ibid 35050
ani 35039
arm@@ 35038
occupé 35036
modernisation 35034
hospital 35033
Argentina 35019
Proposition 35018
methodology 35016
judge 34993
transferts 34992
samples 34988
clean 34980
ail 34979
profession 34975
Value 34965
itaires 34958
soci@@ 34951
Location 34950
accorde 34944
Finances 34941
ép@@ 34938
flows 34933
a.@@ 34931
Serbia 34921
fy 34919
syn@@ 34919
bâtiment 34906
déplacées 34898
relevance 34897
Bou@@ 34877
Rev.1 34877
conseillers 34873
PI@@ 34862
dangereux 34861
offering 34860
Presidency 34858
Bulgaria 34843
expanded 34841
199@@ 34839
quantités 34838
12,@@ 34826
Por@@ 34815
salary 34804
Her 34804
répond 34802
ail@@ 34801
revision 34797
transmettre 34794
academic 34791
alli@@ 34786
Payments 34780
sait 34778
ome 34773
eds 34772
subparagraph 34758
racism 34755
are@@ 34753
legitimate 34744
BO@@ 34741
a. 34734
conclude 34732
agences 34729
médical 34724
refus 34719
Fe@@ 34708
endroits 34694
Bl@@ 34674
ERS 34669
illi@@ 34666
ums 34659
micro 34654
compagnies 34644
headquarters 34638
indemnisation 34634
def@@ 34633
jointly 34628
correction 34620
clientèle 34613
servi 34611
pool 34610
Major 34609
organisées 34608
ek 34605
associée 34601
critère 34600
appliquée 34599
Croatie 34592
Euro@@ 34588
ä@@ 34569
vol. 34566
consult 34548
inform@@ 34546
observe 34535
voyageurs 34532
Tur@@ 34521
technologiques 34521
composantes 34519
tion@@ 34513
module 34513
assumer 34513
certainly 34508
erons 34507
relate 34501
Gender 34494
mobilité 34492
tested 34491
Ger@@ 34485
Aviation 34481
ID 34479
suppression 34478
forth 34465
MD 34462
réussi 34454
ese 34453
Level 34445
monthly 34438
normalement 34422
divisions 34420
inv@@ 34419
POUR 34419
Roma 34416
Response 34408
island 34404
Ru@@ 34388
CIDA 34388
Sécurité 34382
WP.@@ 34382
ath@@ 34378
tim@@ 34378
rail 34375
104 34359
07@@ 34359
attente 34348
steel 34346
Ghana 34346
offrant 34341
majeure 34333
argued 34329
ap 34326
FP 34311
ste@@ 34309
Indeed 34297
ko@@ 34287
Musée 34286
renseignement 34281
MA 34271
confirmé 34271
Chile 34246
Reserve 34245
inférieure 34232
proceed 34227
NATO 34226
coopérer 34223
deposit 34218
administrateurs 34216
mondiaux 34212
incluant 34197
infections 34189
Droits 34182
eighth 34179
universitaires 34175
fusion 34164
définies 34164
approfondie 34150
interactions 34133
greatest 34132
Ren@@ 34131
Chypre 34124
minim@@ 34122
monetary 34121
Outre 34115
esti@@ 34114
passant 34094
connected 34093
victime 34089
Hu@@ 34080
Initiatives 34079
ré 34068
Cro@@ 34052
chosen 34034
van 34033
mariage 34024
Emergency 34021
Fifth 34018
prohibited 34007
transfers 34005
highlighted 34003
cohésion 33994
tel@@ 33993
revue 33986
mémoire 33978
expect 33952
staffing 33951
UNECE 33949
D.@@ 33943
touchés 33941
bear 33929
reaching 33913
emphasized 33898
campagnes 33881
cho@@ 33872
intéressant 33849
Rel@@ 33848
nécessairement 33826
EM 33825
3.4 33824
ecting 33814
dry 33813
demandeurs 33800
fit 33793
Climate 33789
surplus 33788
Inter 33783
HCR 33775
bound 33767
profiter 33755
brut 33745
59@@ 33744
remercie 33744
renouvellement 33744
salaires 33744
lier 33740
nationals 33738
intégrés 33734
suivent 33734
Fin@@ 33730
speci@@ 33727
operated 33719
pertinent 33715
œuvres 33708
continu 33708
CR 33703
ule 33696
borders 33695
hiver 33693
mètres 33684
dangers 33673
sum 33672
pressions 33661
Among 33643
Néanmoins 33637
vel@@ 33634
décide 33623
DND 33623
stockage 33619
futur 33601
sen 33599
visa 33597
oph@@ 33596
adult 33580
Bel@@ 33570
secondaires 33567
Green 33560
suggests 33552
3.5 33540
confusion 33539
ign@@ 33521
deep 33517
un.org 33514
centr@@ 33513
exclusivement 33505
48@@ 33501
ace 33500
désignés 33498
Hungary 33491
reply 33488
uns 33483
rendus 33479
Sans 33460
Uruguay 33456
ades 33454
claire 33447
fiscale 33445
equitable 33441
écrite 33435
prestataire 33435
compar@@ 33431
Résolution 33428
ressource 33427
personnelle 33419
thanks 33415
1977 33408
ick 33408
ha@@ 33406
Mus@@ 33405
consacrée 33404
systématique 33399
white 33394
lit 33389
permanents 33386
Help 33382
ninth 33374
rev@@ 33370
constitutes 33360
cam@@ 33354
diminué 33350
transmitted 33340
systematic 33337
ladite 33337
pointe 33336
Belarus 33326
autrement 33323
Congress 33313
Bulgarie 33308
exposed 33297
EP 33290
scène 33288
removal 33287
Institutional 33287
imposer 33276
ores 33273
launch 33267
trouvé 33263
anniversaire 33257
rappelé 33257
opérationnelle 33256
Jeux 33250
ster@@ 33248
western 33247
heads 33245
2013 33238
Hall 33237
Bal@@ 33221
automne 33220
entremise 33219
Résumé 33218
ratified 33215
élevées 33211
bearing 33200
woman 33198
ajoutée 33195
I.@@ 33189
001 33181
dynamic 33168
directs 33165
tre@@ 33157
ata 33156
échelon 33133
fe@@ 33132
attirer 33129
couvrir 33115
smoking 33113
acy 33109
reprises 33106
Serbie 33099
appliqué 33088
Autorité 33067
ile 33064
Smith 33064
Personal 33064
réelles 33059
secret 33045
K. 33044
qualification 33040
ki 33030
.htm 33028
ues 33027
sen@@ 33003
reproductive 32987
reservation 32984
solides 32965
victim 32955
~ 32951
photo 32945
ferme 32937
tendant 32935
Pension 32933
considérables 32932
bénéficient 32932
mother 32929
sort 32926
subjects 32922
Knowledge 32916
observé 32912
spring 32910
chain 32909
hypo@@ 32907
tissus 32904
ll@@ 32896
Guinée 32896
holder 32893
remote 32892
préoccupé 32872
2015 32869
workplace 32868
scrutin 32866
ox@@ 32865
Alors 32865
Statut 32863
hab@@ 32851
critiques 32848
réalisées 32846
Having 32844
customer 32844
sustained 32842
pes 32834
Mediterranean 32831
appar@@ 32828
Strasbourg 32827
navire 32824
Transfer 32817
légères 32816
VER@@ 32815
fun@@ 32813
recognizes 32802
située 32798
blanc 32796
Hong 32792
Kar@@ 32791
externe 32788
Pêches 32782
accompanied 32778
authors 32778
aéroport 32778
semblables 32771
mobility 32770
justification 32765
cotisations 32759
SERVICES 32745
payé 32745
difficulté 32741
iter 32733
tienne 32733
touche 32730
logiciels 32724
Integrated 32722
dépit 32717
adoptés 32717
sondage 32701
Before 32698
requise 32697
transporteur 32690
rendue 32689
lement 32688
solidarity 32687
administered 32683
PA@@ 32678
Gar@@ 32675
rechange 32673
ong 32669
SR@@ 32669
Conservation 32665
Lisbon 32664
mandates 32660
PP 32657
quarante 32655
compétente 32647
associées 32641
universelle 32638
war@@ 32636
Cs 32636
égale 32633
observers 32631
endorsed 32626
Nigeria 32624
rose 32620
accélérer 32616
expressions 32613
Patent 32612
lire 32609
borne 32608
donnant 32599
bâtiments 32599
Conclusions 32594
frequently 32589
alcool 32589
Mat@@ 32584
AIRE 32574
HST 32560
faisait 32554
exécuter 32553
addresses 32551
punishment 32548
laboratory 32548
entière 32539
pdf 32519
handling 32513
suppliers 32507
prenantes 32507
Disarmament 32502
17.@@ 32492
confirmation 32490
voter 32490
mou@@ 32486
Personnel 32484
provinciale 32453
contr@@ 32447
Indonésie 32441
lou@@ 32437
remédier 32436
18.@@ 32422
Learning 32418
Égypte 32417
éro@@ 32409
définit 32394
Estimates 32393
photos 32378
Sam@@ 32367
sch@@ 32363
Northwest 32363
humanité 32358
FM 32313
alize 32311
verification 32299
allegations 32299
munitions 32294
avions 32293
dotation 32292
admissibilité 32292
goes 32288
préparatoire 32282
Box 32280
dg@@ 32277
ada 32274
Gro@@ 32273
villages 32263
201 32255
occupe 32252
bs 32241
rement 32238
joined 32233
Mil@@ 32233
homologation 32229
tical 32220
gener@@ 32209
opérationnels 32202
examinées 32202
ENCE 32198
couleur 32198
elimination 32187
Leste 32187
proof 32179
visitors 32164
Three 32142
exc@@ 32136
Nairobi 32128
constante 32119
excluded 32113
Thursday 32108
districts 32105
mus@@ 32103
bourses 32098
sectoral 32095
foi 32077
élargir 32076
asset 32072
hy@@ 32067
Cost 32067
essence 32066
Hongrie 32065
sensibiliser 32065
wanted 32053
11,@@ 32050
formats 32043
Conventions 32031
Richard 32029
thirty 32028
32@@ 32025
Océans 32024
Gl@@ 32020
cycles 32011
thereof 32009
ablement 32006
subsidiary 31999
rapporteurs 31991
Comments 31991
intelligence 31983
autorisés 31983
agriculteurs 31981
neither 31965
clinique 31963
Lakes 31961
affirmé 31960
migrations 31949
--@@ 31946
facilitation 31904
propriétaires 31903
m3 31888
alternatives 31878
venant 31876
signs 31874
86@@ 31859
ides 31856
partenaire 31850
relevé 31833
totalement 31832
rapidly 31829
Kong 31819
big 31818
ish@@ 31817
N. 31817
aj@@ 31812
of@@ 31805
Olympic 31799
Games 31797
describe 31784
né 31778
GE 31775
ALE 31772
tiennent 31772
démontré 31769
Pan@@ 31758
Lisbonne 31756
Registration 31754
extérieure 31749
quelconque 31749
season 31748
99@@ 31742
HTML 31742
frequency 31727
Wil@@ 31721
08@@ 31719
discriminatory 31718
demeurent 31714
émis 31695
atory 31682
ala 31682
{ 31676
chiffre 31672
owing 31670
arrêté 31669
vrai 31658
partiel 31645
Hol@@ 31644
linguistique 31640
archives 31634
Fer@@ 31629
household 31625
Entre 31623
USA 31621
facilitating 31614
Congrès 31614
Colombia 31612
loan 31612
stri@@ 31598
difficiles 31597
properties 31589
foundation 31584
MPO 31580
Nevertheless 31579
les@@ 31575
adéquate 31568
seem 31567
judgment 31559
equally 31555
nette 31554
capit@@ 31553
partager 31553
veulent 31549
fiable 31548
57@@ 31546
Ad 31545
ose 31543
King 31538
reconnus 31534
mining 31533
back@@ 31527
ung 31519
allocations 31517
43@@ 31504
overview 31502
voire 31495
Inspection 31488
49@@ 31487
lancer 31468
brief 31465
tier 31456
apprendre 31449
déposée 31448
Yougoslavie 31446
attack 31444
gestionnaire 31430
aci@@ 31429
Corr.1 31427
potable 31421
classement 31420
3. 31419
om 31418
tan@@ 31412
quantity 31411
v01 31402
decade 31401
hyper@@ 31397
AI 31384
Yugoslavia 31368
tered 31367
tt@@ 31350
adresser 31348
heureux 31347
chemicals 31340
eastern 31327
Mer@@ 31321
ACDI 31317
extérieures 31309
ca 31308
recouvrement 31301
ass 31295
précédemment 31292
Developing 31284
plas@@ 31280
assurances 31275
aines 31272
détaillées 31262
Impact 31259
désignation 31258
Aujourd&apos; 31254
achievements 31246
UM@@ 31238
ière 31237
répression 31228
pharmac@@ 31226
avancement 31226
Morocco 31225
plaignant 31219
rats 31216
weather 31212
Britain 31211
1971 31207
weapon 31205
participe 31203
suffisant 31199
mandats 31198
isant 31197
logique 31192
harm 31177
ahead 31160
Edward 31151
anticipated 31149
min 31149
Intellectual 31138
don@@ 31134
1973 31125
solde 31124
ection 31122
interview 31121
tine 31121
aling 31108
integrate 31107
180 31079
ser 31078
Procureur 31078
Ob@@ 31069
primaires 31069
vert 31065
définitive 31063
entraîner 31059
Let 31057
cessation 31057
ress@@ 31057
diffuser 31056
progresser 31056
réflexion 31054
TVH 31054
soldiers 31050
horizontal 31049
façons 31049
Wednesday 31048
tableaux 31047
hauteur 31042
meets 31035
fabricant 31031
significance 31029
fixés 31026
volontaire 31026
Fo@@ 31008
agence 31006
doubt 31000
WH@@ 30998
auparavant 30993
tension 30990
copyright 30988
fa@@ 30984
solid 30981
collections 30977
SD 30971
reserves 30969
conformer 30969
Chili 30963
regardless 30959
vessel 30928
voulons 30918
sheet 30912
accused 30906
Rom@@ 30905
forums 30903
ronde 30901
responsabilisation 30881
vendredi 30876
tarifaire 30873
suffisante 30867
winter 30862
em 30861
dur@@ 30861
lets 30858
marriage 30858
oriented 30853
C.1 30852
côte 30848
sides 30840
1975 30839
logements 30837
everything 30826
viennent 30826
C.5 30823
bassin 30818
électrique 30816
} 30809
Aucun 30802
ech@@ 30799
financés 30795
linguistiques 30792
automobile 30780
Consequently 30778
ency 30777
ARC 30776
societies 30767
jouent 30761
OTTAWA 30751
expulsion 30747
discharge 30737
signe 30726
tarifs 30725
accru 30724
précédentes 30723
dignité 30716
versées 30716
municipalités 30712
Tariff 30702
Tuesday 30696
OTAN 30691
remove 30686
108 30685
composed 30680
phot@@ 30679
compromis 30679
discours 30675
britannique 30668
génération 30668
relates 30661
concerné 30656
believed 30650
marge 30644
electricity 30634
transmis 30634
ask@@ 30624
Selection 30618
FR 30613
pairs 30613
réalisée 30611
tal@@ 30606
significative 30606
issement 30606
territoriaux 30600
Salvador 30592
Construction 30574
strict 30573
Proposal 30566
changé 30566
nor@@ 30565
fon@@ 30564
aperçu 30553
elsewhere 30550
manufacture 30550
IB@@ 30544
feature 30543
Cross 30537
correctement 30534
trimestre 30533
subi 30529
pur@@ 30522
marins 30516
versé 30516
universitaire 30512
quent 30509
1976 30504
avocats 30495
passenger 30483
helps 30480
printemps 30477
cote 30470
medi@@ 30468
sanitaires 30468
acceptation 30466
Mrs. 30465
Consultation 30462
convergence 30461
arri@@ 30461
seuil 30460
inside 30458
laisser 30458
sang 30457
lam@@ 30447
CI 30446
collect 30441
lundi 30431
courrier 30430
organs 30429
profil 30429
disputes 30419
communicate 30414
drafting 30407
pesticides 30402
fications 30399
Italian 30397
Cap@@ 30389
survie 30382
46@@ 30381
collaborer 30377
error 30375
ECB 30374
atmosphere 30367
Principles 30367
Zélande 30363
6.2 30362
aériens 30354
nationality 30346
Maroc 30339
espoir 30338
synthèse 30334
Tél 30332
nominations 30321
écosystèmes 30318
composés 30314
investisseurs 30305
ack 30302
INTER@@ 30298
matériels 30297
Goods 30289
Effective 30275
Terrorism 30262
die 30251
Géorgie 30240
e. 30238
spatiales 30233
115 30230
inclusive 30227
espagnol 30221
Electronic 30220
Format 30203
AGE 30202
gentlemen 30198
dez 30192
colleagues 30191
generate 30188
OP@@ 30177
anglaise 30167
Recommendations 30163
Subject 30158
told 30157
homes 30156
supprimer 30155
ned 30153
BCE 30153
guaranteed 30149
Bretagne 30144
orateurs 30138
ste 30137
traitées 30132
rely 30121
ément 30120
né@@ 30120
travaillé 30118
égal 30115
regarded 30101
Comm@@ 30101
b. 30101
Activity 30098
alisme 30098
sensible 30094
appelante 30094
inquiry 30093
contents 30088
minute 30080
102 30068
consultative 30065
NE 30059
aquaculture 30058
occupational 30055
pou@@ 30054
longueur 30047
Peoples 30040
dommage 30036
rejected 30028
eries 30022
58@@ 30020
VE 30014
révélé 30011
papers 30007
Hy@@ 30002
divided 30000
exempt 29998
ancienne 29998
validation 29993
exiger 29993
13,@@ 29991
croire 29990
Excellence 29987
destinée 29981
103 29972
GU@@ 29970
saison 29970
alcohol 29968
fiées 29964
interviews 29962
20.@@ 29955
Informal 29948
disabled 29947
BR@@ 29947
mobilisation 29944
authorization 29941
coordinate 29940
pilotes 29940
aéro@@ 29940
fiables 29937
Bor@@ 29933
foods 29933
alinéas 29927
bilan 29920
ls 29918
Financement 29916
object 29913
semi 29913
fils 29898
phone 29889
vir@@ 29883
détection 29881
fiés 29880
DÉ@@ 29880
communiqués 29879
ix 29878
pas@@ 29877
Quand 29871
intensi@@ 29868
posé 29867
spécialement 29862
permission 29857
onnés 29855
rubrique 29839
19.@@ 29834
autoriser 29832
vary 29828
111 29827
amp@@ 29826
administrateur 29814
mentionnés 29812
forty 29811
globalization 29807
bridge 29801
ó@@ 29792
amis 29787
NO 29785
game 29779
CAN@@ 29774
coup 29766
moindre 29758
ministers 29753
iner 29745
106 29743
pp. 29723
definitions 29716
lis 29708
utilité 29690
Adresse 29682
terminé 29676
Contribution 29675
Commentaires 29671
p.@@ 29670
civiles 29669
tric@@ 29661
ests 29651
default.asp 29648
remis 29632
conjointe 29630
jeune 29617
posted 29612
dy@@ 29609
Ltd. 29606
ressortissants 29605
Senate 29603
Ti@@ 29600
alisée 29599
Windows 29598
erreurs 29597
Supplement 29591
coll@@ 29588
UNFPA 29584
legally 29580
configuration 29575
suffering 29560
sin@@ 29559
.... 29553
capability 29552
pending 29548
Weapons 29546
integral 29544
contracting 29544
yeux 29544
intergouvernementales 29544
bénéfices 29541
conjunction 29535
vari@@ 29533
ME 29533
définitions 29527
107 29526
Self 29524
Fourth 29522
chimique 29521
bat@@ 29510
pH 29509
bor@@ 29508
antérieure 29507
Vo@@ 29498
russe 29496
Participants 29487
soumise 29477
obtention 29470
génétiques 29466
engineering 29465
Land@@ 29461
hear 29448
ved 29445
contingents 29443
spec@@ 29432
Met@@ 29431
Dem@@ 29428
fixer 29428
Rural 29419
Surveillance 29410
Sommaire 29408
TP 29405
créés 29399
DIS@@ 29394
Yes 29392
apparent 29383
intérieure 29383
gaps 29381
seat 29380
ges 29374
diplomatic 29370
médicale 29370
tw@@ 29364
ménages 29364
anim@@ 29363
occurrence 29362
occurs 29352
aises 29343
WG 29337
Copyright 29325
verbal 29323
nation@@ 29320
fabricants 29317
MA@@ 29316
recipient 29312
métaux 29307
troubles 29304
holders 29298
plate 29298
Ministres 29298
justified 29297
divulgation 29293
fondamentale 29290
JO 29290
renewal 29286
contraintes 29284
load 29283
Sec@@ 29282
Wal@@ 29282
instaurer 29281
démocratiques 29277
compléter 29264
révisée 29251
cibles 29240
com 29239
indicating 29233
PD 29227
antérieures 29223
PSC 29216
génétique 29214
Anti 29209
polluants 29203
périodiques 29195
satisfait 29188
alities 29186
Festival 29184
engine 29181
calling 29176
logistique 29174
formé 29174
arise 29171
réellement 29165
Railway 29154
équivalent 29154
statutory 29139
tu 29139
audiences 29136
IX 29134
modifiant 29130
eligibility 29128
urges 29121
underlying 29112
indi@@ 29109
décideurs 29096
depends 29093
replacement 29089
approuvés 29088
resistance 29076
band 29069
camp 29063
ministériel 29046
engagées 29040
indirect 29037
airport 29019
Liechtenstein 29016
favorables 29016
clauses 29010
croissante 29006
Ma 29004
c.gc.ca 29000
norms 28995
examinés 28988
posed 28987
remettre 28973
CAR@@ 28970
innovations 28962
citizenship 28962
Métis 28961
étendre 28948
Joseph 28947
Situation 28946
cuisine 28933
parcs 28924
Expert 28914
appeals 28905
ecti@@ 28905
moved 28903
permits 28903
augmente 28900
work@@ 28898
White 28877
closer 28876
protocol 28873
audits 28859
External 28859
drinking 28855
substantially 28853
email 28853
candidature 28850
alis@@ 28844
individuels 28833
Coopération 28833
2nd 28832
comportements 28831
constraints 28826
Azerbaijan 28825
législative 28824
wider 28823
ections 28821
manager 28816
Treatment 28812
Madam 28810
carburant 28809
ame@@ 28808
respondent 28805
Français 28804
Syrian 28802
finally 28797
nés 28795
Télécopieur 28793
créée 28792
references 28785
Now 28782
déf@@ 28781
contre@@ 28779
pel@@ 28777
montrer 28770
Title 28768
Technologies 28768
disciplines 28765
CRC 28755
séminaires 28740
urged 28739
Charles 28735
warning 28731
arrière 28730
Committees 28726
assurant 28710
My@@ 28708
San@@ 28702
sized 28701
bel@@ 28696
taxpayer 28693
seriously 28692
exercices 28692
Consumer 28691
implique 28689
Burkina 28687
éré 28680
potentially 28679
Instance 28678
manufacturers 28674
2012 28674
raisonnables 28673
Prix 28661
attaquer 28659
IDRC 28657
ide@@ 28653
focusing 28650
voted 28645
maritimes 28637
acti@@ 28633
audio 28627
Loc@@ 28622
limitées 28606
levée 28600
decades 28591
trying 28586
reductions 28586
arriver 28585
blo@@ 28580
exp@@ 28577
Quant 28576
Ambassadeur 28573
dignity 28570
paras 28568
calendar 28563
imposées 28563
getting 28562
Thomas 28554
souveraineté 28545
essi@@ 28541
pertinence 28537
decreased 28534
continu@@ 28534
expliqué 28531
assuré 28523
ano@@ 28516
Print 28512
fiducie 28511
conventional 28509
Hel@@ 28508
notably 28507
optique 28504
morning 28503
citizen 28503
Current 28503
Indiens 28501
organised 28498
isées 28494
violences 28490
recensement 28489
préparé 28486
influenza 28478
trouvera 28478
profits 28477
Ben@@ 28474
Zimbabwe 28473
green 28468
insufficient 28467
urbain 28467
Pursuant 28458
Slovenia 28458
N.@@ 28444
TB 28437
renewable 28436
tell 28427
produisent 28426
finds 28423
tez 28423
main@@ 28417
tarif 28416
Fl@@ 28409
catastrophe 28402
retenue 28396
migrant 28391
relèvent 28391
Somalia 28389
tensions 28386
université 28385
cit@@ 28384
Télé@@ 28384
explanation 28382
GI@@ 28376
residential 28370
56@@ 28369
ev 28368
sentiment 28361
délivrance 28356
Equipment 28347
Faso 28346
extreme 28339
ron@@ 28330
vit@@ 28327
attaques 28321
lucratif 28319
atteints 28317
Coordinator 28312
gie 28300
Anne 28287
newly 28276
compromise 28271
évident 28265
URE 28259
appeared 28256
arr@@ 28246
conserv@@ 28245
prioritaire 28218
renvoi 28218
ach 28217
sovereignty 28204
éventuellement 28200
parameters 28196
cc@@ 28195
voté 28194
Stockholm 28189
trials 28184
comparative 28184
avion 28183
accompli 28179
Durant 28177
Ram@@ 28176
connaît 28175
popular 28172
SO 28170
considérations 28169
Statute 28163
sc.gc.ca 28156
west 28149
flu@@ 28135
ere 28131
officiellement 28130
unions 28128
minimal 28120
manuel 28116
Electoral 28116
Sources 28115
ney 28114
apport 28114
atoire 28113
li 28110
esse 28093
Southern 28086
F.@@ 28084
running 28083
GC 28080
1.0 28077
acheter 28072
sérieux 28072
démontrer 28061
orientale 28053
Private 28049
dons 28048
envoyé 28047
15,@@ 28040
annuelles 28040
bill 28035
Opportunities 28033
serre 28026
exceptional 28017
intégrante 28007
reaction 27999
axé 27999
onner 27995
select 27994
clarify 27987
mixte 27982
duc@@ 27979
pers@@ 27978
bout 27974
protocoles 27969
Commercial 27968
complètement 27961
différente 27961
atmosphère 27957
OB@@ 27955
mas@@ 27952
établissant 27949
shift 27947
Benefits 27946
Kuwait 27944
quartier 27928
Ne 27921
nat@@ 27919
contiennent 27918
consommateur 27914
14,@@ 27901
colonne 27891
advised 27890
défendre 27887
door 27881
sièges 27880
Specific 27869
Queen 27867
viabilité 27859
trouverez 27858
Is@@ 27856
publiée 27851
volumes 27844
tin 27841
doc 27837
précision 27836
bateaux 27827
Here 27820
At@@ 27817
cau@@ 27816
Can 27814
Delivery 27808
literature 27807
poursuit 27807
elling 27805
acide 27794
détaillé 27794
délinquants 27789
alised 27785
pour@@ 27780
investigate 27772
fondement 27764
IM 27762
signaler 27762
5.3 27758
preparations 27757
bot@@ 27757
cons@@ 27756
earnings 27752
seeks 27751
radiation 27745
retirement 27743
assainissement 27738
Cinquième 27736
Sir 27734
quotas 27732
77@@ 27729
maîtrise 27729
NE@@ 27725
amb@@ 27723
ajoute 27722
metal 27719
violent 27716
affectés 27715
invo@@ 27707
Distribution 27705
ouverts 27702
Vis@@ 27701
VIII 27700
déposer 27700
OC@@ 27694
4.4 27692
Organizations 27691
sible 27685
finales 27680
hazardous 27676
Fi@@ 27670
adequately 27669
dispos@@ 27668
output 27665
recourir 27664
feuilles 27662
Gen@@ 27644
William 27644
prisoners 27633
themes 27629
inventaire 27622
granting 27615
Every 27606
AA 27602
intensive 27595
dge 27594
Décide 27588
blessures 27582
mondiales 27582
prisons 27576
travaillant 27569
ously 27561
territoriale 27556
Similarly 27547
saisir 27546
ara 27543
ok@@ 27542
concluding 27539
Ann@@ 27539
ace@@ 27533
tering 27533
seminars 27532
east 27531
75@@ 27531
Army 27525
SR 27524
Lithuania 27512
couvre 27512
reservations 27510
jurisdictions 27510
friends 27504
évalué 27487
offenders 27477
File 27469
123 27467
Place 27463
convened 27461
adjustments 27454
fies 27451
maisons 27444
écologique 27444
comprises 27441
row 27440
comptabilité 27432
convaincu 27428
Berlin 27421
branches 27421
conduire 27409
garder 27403
carefully 27398
briefing 27398
Club 27398
espérons 27394
acknowledged 27393
entraîne 27393
remplacé 27393
sufficiently 27389
Pas@@ 27389
win 27387
justifier 27383
onal 27381
lay 27377
unies 27374
propriétés 27358
savoirs 27357
tho@@ 27348
ast 27347
Documentation 27336
Long 27333
imprisonment 27333
remarquer 27318
EU@@ 27295
centrales 27277
subregional 27274
reflète 27274
Uni@@ 27271
Commonwealth 27271
Departmental 27271
hr@@ 27270
NI@@ 27268
ole 27267
Trois 27262
récents 27260
solely 27257
Qatar 27254
drawing 27253
proposes 27246
fill 27242
sortie 27242
AC.@@ 27235
Durée 27233
décrites 27229
pattern 27227
oblig@@ 27224
bles 27218
dev@@ 27217
visited 27213
ects 27208
accomplir 27203
grow 27199
Wi@@ 27199
régulière 27192
morale 27186
illicites 27184
prosecution 27183
2020 27183
rÃ 27179
driven 27177
fournissant 27176
ham@@ 27171
wage 27170
incentives 27168
taxable 27167
financé 27166
MDN 27166
NGO 27165
willing 27158
unième 27148
pertinente 27144
voy@@ 27143
prie 27142
EPA 27132
conclut 27132
marche 27129
schemes 27128
assignment 27124
QC 27123
reviewing 27121
rare 27119
hands 27105
GN@@ 27103
construire 27096
depend 27090
Droit 27088
river 27085
Cam@@ 27079
Phone 27077
undertakings 27074
consolidated 27071
artists 27070
vocational 27067
excess 27065
Laurent 27064
nets 27062
consistency 27061
numéros 27061
adopting 27060
arbitrage 27059
normale 27057
asse 27056
fiscales 27053
renouvelables 27053
studied 27051
indice 27048
founded 27041
gam@@ 27041
Mali 27035
greatly 27028
fre@@ 27027
confirm 27006
répondent 26998
mentionnées 26996
emp@@ 26993
modules 26990
gauche 26986
sc 26985
ferroviaire 26982
déplacements 26981
branch 26980
matin 26974
amending 26973
exigent 26970
anniversary 26967
combler 26967
ishing 26961
accordingly 26958
clôture 26952
dépistage 26951
feedback 26947
falls 26945
faith 26939
returns 26939
overcome 26937
assur@@ 26925
hu@@ 26924
reconciliation 26919
passengers 26918
ARTICLE 26913
gre@@ 26910
Année 26907
respectifs 26906
faune 26904
Pen@@ 26902
112 26897
fic@@ 26895
pli@@ 26890
coastal 26883
withdrawal 26878
Oui 26871
ENT@@ 26867
ack@@ 26866
sun@@ 26854
Exchange 26850
Rio 26850
Registry 26846
DC@@ 26842
lé@@ 26838
widespread 26837
campaigns 26837
ran@@ 26831
deaths 26829
définie 26827
AG 26825
bilatéraux 26819
specify 26808
uniforme 26804
Pres@@ 26801
neuro@@ 26799
suivie 26798
SR.@@ 26796
eri@@ 26790
onné 26790
answers 26777
assisting 26776
dépôts 26773
pacifique 26764
Substances 26762
tran@@ 26761
milliard 26759
difficulty 26752
pertaining 26745
oversight 26742
players 26742
imp@@ 26742
posent 26741
fie 26735
voulu 26735
zi@@ 26724
hauts 26715
éventuels 26713
evaluated 26709
alizing 26707
ning 26705
suff@@ 26699
voice 26698
PP@@ 26695
entirely 26693
Mont@@ 26691
texts 26689
collaborative 26689
4.5 26681
analy@@ 26675
combinaison 26668
oring 26667
Cou@@ 26665
AE 26657
ama 26656
ands 26651
occupent 26648
gen 26647
accumulation 26645
vieillissement 26645
ising 26642
Slovénie 26635
particules 26634
2e 26629
sell 26623
Chi@@ 26620
cot@@ 26620
situated 26617
examinée 26615
ners 26614
ILO 26614
owners 26612
elled 26609
cited 26609
1000 26609
chercher 26605
termin@@ 26600
prati@@ 26596
déb@@ 26595
combattants 26592
refuse 26573
graphique 26570
autonome 26569
scientists 26565
ACP 26564
1974 26563
performing 26559
cos@@ 26555
sed 26549
SM 26546
fournitures 26542
répondant 26538
spo@@ 26536
plaisir 26536
validity 26534
bre 26534
reasonably 26529
intéressé 26527
réconciliation 26527
ux 26521
gro@@ 26514
seurs 26514
croissant 26507
Award 26503
TER@@ 26500
Autre 26496
capture 26478
surrounding 26467
obtaining 26466
erg@@ 26461
MON@@ 26460
débit 26460
stabilisation 26451
francophones 26451
comportant 26450
grav@@ 26445
géographiques 26445
ov 26439
stronger 26437
objects 26434
Future 26432
rit@@ 26432
performances 26431
oui 26431
COP 26428
adopte 26420
wor@@ 26418
Op@@ 26418
entraîné 26418
envisage 26416
Dès 26415
producer 26414
hôpitaux 26414
ash 26407
inclut 26407
individu 26406
CBSA 26401
disasters 26399
HO@@ 26399
Are 26398
int 26397
ots 26393
ky 26392
citoyenneté 26385
requesting 26384
colour 26380
Prosecutor 26372
cohesion 26369
secured 26364
ature 26361
ear@@ 26358
chargées 26358
Troisième 26356
Follow 26351
compulsory 26349
wall 26336
tien 26336
appuyé 26336
Basic 26332
recalled 26326
seur 26324
Haiti 26323
atténuer 26322
déficience 26321
interesting 26312
signes 26312
122 26310
sum@@ 26309
quées 26308
frame 26307
élu 26302
DI 26298
Ham@@ 26298
ordinaires 26296
tings 26288
indiquées 26285
Membre 26284
tolérance 26279
favourable 26271
operator 26269
dépendance 26263
Ke@@ 26261
suffisantes 26259
royale 26256
Taking 26252
www.ec.gc.ca 26252
visual 26249
ça 26244
µg 26237
revanche 26237
column 26236
Young 26226
slightly 26225
organiques 26219
fiée 26216
signing 26215
prévoient 26214
devoted 26209
merit 26208
séminaire 26208
ref@@ 26205
conçus 26205
atmosphérique 26200
Black 26199
emballage 26198
Sy@@ 26196
Fraser 26193
mag@@ 26182
certainement 26180
ja 26178
CAN 26174
RA 26168
ular 26164
Ville 26163
portées 26150
Ed@@ 26145
1990s 26144
CRDI 26140
TE@@ 26139
picture 26130
parallel 26129
Grands 26129
assisted 26128
combustion 26124
validité 26122
driving 26119
exerce 26116
approuver 26114
respected 26111
péril 26109
assumed 26101
Zone 26101
positives 26100
appartient 26100
phy@@ 26096
Bio@@ 26088
bienfaisance 26086
showing 26085
deb@@ 26083
Volume 26083
territoriales 26082
350 26077
GA 26075
ization 26073
Fifty 26070
contrast 26067
vérifications 26063
comprise 26058
yer 26054
subjected 26049
seminar 26045
survival 26044
auto 26044
Priorities 26032
interface 26030
op 26025
procédés 26024
ised 26010
qualifiés 26010
suffered 26009
liv@@ 26003
expense 26001
jeux 25997
descriptif 25997
Original 25989
agissait 25989
Bissau 25987
Somalie 25987
izing 25985
Michel 25977
Journée 25973
respecting 25971
contaminants 25971
doses 25970
desire 25967
sexuels 25963
mati@@ 25941
veille 25941
leaving 25939
effectue 25937
troops 25931
parti@@ 25923
Forest 25917
apporte 25917
audi@@ 25915
restaurants 25913
Thailand 25911
î@@ 25911
Algeria 25909
illness 25908
autonomes 25908
intr@@ 25906
ath 25904
sul@@ 25904
actives 25903
présidente 25901
head@@ 25900
ices 25899
enjoyment 25897
son@@ 25897
ç@@ 25894
rati@@ 25893
utilisations 25885
Wh@@ 25884
Nicaragua 25877
SG@@ 25876
Nouvelles 25872
Koweït 25872
certified 25869
concentr@@ 25868
command 25865
midi 25863
Tor@@ 25862
forests 25860
complexité 25860
negotiation 25859
exclusively 25857
Calls 25856
× 25853
outer 25852
collabor@@ 25848
publiées 25838
mann 25826
resolved 25826
FI 25813
Formation 25809
intégrées 25806
voit 25800
2,5 25795
frameworks 25794
drop 25794
parcours 25793
Île 25792
Tro@@ 25790
Uganda 25790
FNUAP 25776
Avenue 25774
MB 25768
lim@@ 25759
bed 25759
Régime 25759
saw 25756
Cre@@ 25754
mid@@ 25752
presidency 25750
serves 25748
lots 25747
Off@@ 25747
drive 25745
renewed 25744
modernes 25744
aï@@ 25743
commissaires 25741
bénévoles 25737
blanchiment 25731
tax@@ 25729
directrice 25724
ian 25718
remedies 25716
fresh 25712
compens@@ 25709
ion@@ 25707
GO@@ 25703
organisés 25700
correspondent 25689
réduite 25683
lasting 25680
bandes 25675
impôts 25675
trac@@ 25672
dégradation 25665
responding 25664
inqui@@ 25664
sole 25662
irs 25657
30.@@ 25656
désigne 25655
coast 25654
consequence 25651
FN@@ 25650
représenter 25650
dominant 25639
reintegration 25639
Competition 25638
descriptions 25634
comptables 25634
soin 25631
instruc@@ 25630
ast@@ 25630
municipalities 25629
anger 25624
financed 25621
reli@@ 25619
dépasse 25618
champs 25604
explo@@ 25599
identi@@ 25597
zo@@ 25596
exemplaire 25592
Liberia 25589
450 25588
Ses 25583
Nam 25578
bon@@ 25575
clarification 25574
interactive 25570
History 25563
demi 25559
oning 25547
65@@ 25546
Hospital 25544
apparaît 25542
TBS 25541
dor@@ 25538
anes 25532
retirer 25532
curriculum 25530
TD 25530
Back 25524
telecommunications 25520
thematic 25516
yle 25511
comparativement 25510
Cr@@ 25507
intérim 25501
pp@@ 25500
naturelle 25500
pun@@ 25492
étudié 25490
fast 25488
MENT 25487
sign@@ 25476
fasse 25471
ban 25467
Hoc 25458
Humanitarian 25457
générations 25454
Without 25453
204 25445
B.C. 25444
chinois 25443
majeur 25439
Wildlife 25434
rythme 25429
Turkish 25428
Secteur 25426
appréciation 25426
présentations 25426
inadequate 25420
ladies 25419
750 25415
Test 25413
ous@@ 25412
Coast 25410
auspices 25408
maternelle 25408
easier 25406
Intergovernmental 25405
HR@@ 25403
2.0 25402
fibres 25401
Progress 25400
processed 25399
urg@@ 25398
exceeding 25396
accountable 25394
quasi 25393
toxic 25389
électeurs 25387
signer 25382
signi@@ 25381
radio@@ 25378
ases 25376
himself 25372
alisés 25370
Bull 25366
oll@@ 25365
semblable 25365
nourriture 25363
industrielles 25354
sensibles 25354
précisé 25354
provider 25352
Territoires 25352
mono@@ 25351
listing 25350
middle 25349
meant 25340
Votre 25339
itant 25338
households 25337
cutting 25335
contenus 25324
returning 25322
universel 25319
AUTONUM 25319
compos@@ 25318
movements 25311
tirés 25309
Louis 25307
ado 25304
holds 25297
bit 25296
quanti@@ 25295
Azerbaïdjan 25288
Release 25287
GE@@ 25285
label 25280
automatically 25278
ensures 25273
Tu@@ 25271
ordinary 25270
operative 25265
dées 25264
premises 25263
suppose 25261
Bon@@ 25259
déclarer 25257
109 25256
PL 25255
Operation 25252
On@@ 25251
supérieures 25250
productions 25249
religieuses 25240
Peru 25235
inhib@@ 25234
1.6 25234
pul@@ 25229
bil@@ 25225
ger@@ 25225
atteintes 25223
USD 25220
promoted 25219
gan@@ 25218
guides 25217
preventive 25214
tro 25209
art@@ 25209
chers 25208
Retour 25205
élus 25204
aus@@ 25203
consacrés 25201
éli@@ 25200
arbitral 25195
confirmer 25195
display 25191
appointments 25191
san@@ 25179
info 25174
crossing 25172
tically 25164
conciliation 25159
lig@@ 25158
médicament 25148
atlantique 25141
Manuel 25139
eth@@ 25137
familiales 25137
cri@@ 25131
GS 25130
sensiblement 25129
adressées 25128
2.6 25127
cigarettes 25124
sil@@ 25122
ASFC 25122
introduire 25117
CFP 25116
dis 25115
ip@@ 25107
zz@@ 25101
prohibition 25099
extraction 25092
thinking 25090
placements 25089
aidé 25080
Valeur 25075
ché 25074
spatial 25073
Phot@@ 25070
ry@@ 25069
adding 25066
adjusted 25066
spouse 25060
éventuelle 25058
libéralisation 25057
nam@@ 25055
named 25054
références 25053
ender 25050
Objectifs 25049
spécifiquement 25045
TM 25044
belief 25043
machinery 25039
workforce 25039
Lignes 25036
religieux 25034
ordinateurs 25032
Agreements 25031
présidents 25031
dési@@ 25030
estate 25025
entering 25024
channels 25021
Ca@@ 25021
Revenu 25006
113 25003
path 24999
ab 24990
09@@ 24990
ca@@ 24984
ï@@ 24979
playing 24975
DO 24973
RES 24970
adapted 24969
monnaie 24968
revendications 24967
unes 24963
Broadcasting 24959
eff@@ 24953
alités 24943
américaines 24941
investir 24940
121 24926
worker 24925
ita 24920
Airlines 24919
hôte 24919
huge 24911
deadline 24910
OJ 24910
réinsertion 24909
PNUE 24908
talk 24904
substitu@@ 24904
anda 24900
Balkans 24898
formulaires 24896
avancer 24893
diesel 24892
tly 24890
16,@@ 24889
déficit 24889
retain 24876
consultant 24872
çant 24864
Good 24861
pat@@ 24858
Bri@@ 24853
MAN@@ 24851
birds 24842
CH 24839
belonging 24837
incorporate 24832
Enquête 24831
Darfur 24820
ranging 24819
enlargement 24815
provo@@ 24812
ographie 24812
Tourism 24806
atic 24805
Excellency 24803
break 24802
Ethiopia 24800
parking 24792
atténuation 24792
cad@@ 24788
réactions 24787
someone 24785
Applications 24781
oun@@ 24779
salles 24779
féliciter 24776
ched 24775
FA 24774
totales 24764
opportun 24764
vouloir 24759
Comp@@ 24757
Compagnie 24757
leads 24752
Amnesty 24752
Background 24752
seules 24750
Telecommunications 24745
ake 24744
ester 24739
master 24736
coordinating 24731
invasion 24729
prescription 24727
prejudice 24725
Att@@ 24714
Earth 24711
parental 24709
Commons 24704
terrestres 24703
peux 24699
calculation 24697
SAR 24697
END@@ 24685
Bibliothèque 24682
Lawrence 24678
sing 24677
cards 24676
emprisonnement 24672
Ordre 24668
arb@@ 24666
EST 24663
100,000 24639
toxiques 24637
chronic 24632
ecological 24627
restructuration 24621
70@@ 24618
1972 24617
accessibilité 24607
ethical 24602
officiers 24595
Constitutional 24594
killed 24593
père 24592
abandon 24590
Decisions 24588
SW@@ 24586
SD@@ 24584
sel 24581
Titre 24581
indiqués 24581
Regulatory 24571
confidential 24563
oul@@ 24562
135 24562
libres 24560
down@@ 24554
diversification 24542
commandes 24539
fraud 24537
counter@@ 24534
Beau@@ 24534
EI 24533
impu@@ 24532
réclamations 24522
ération 24516
footnote 24512
tional 24510
agr@@ 24509
Slovakia 24505
Agricultural 24504
7.1 24502
Bas@@ 24501
courte 24497
evaluations 24491
admis 24483
Engineering 24479
cultiv@@ 24478
president 24476
eter 24470
multilatéraux 24467
blé 24463
protégés 24462
témoin 24462
89@@ 24460
ancy 24458
Haïti 24457
indiennes 24456
dom@@ 24455
spéci@@ 24450
mène 24448
Qu&apos; 24435
usine 24432
Algérie 24427
approuvée 24424
Pat@@ 24420
Collection 24418
assu@@ 24417
cour 24413
advantages 24408
TER 24408
continuation 24406
Lituanie 24406
Travaux 24401
ingly 24400
traduit 24399
1960 24396
dotés 24395
Period 24388
Christian 24386
stat@@ 24380
internally 24363
arrest 24363
Budgetary 24361
simples 24361
urs 24358
66@@ 24357
basée 24353
Conseiller 24352
étiquetage 24351
dre@@ 24349
possibly 24349
chair 24346
concevoir 24345
ÉS 24337
euro@@ 24335
TOTAL 24334
surmonter 24326
accueillir 24324
devenue 24318
rejeté 24315
CIC 24313
black 24311
lowest 24308
Compliance 24307
assign@@ 24306
c.-à 24300
consisting 24298
enseignements 24294
incorporation 24290
hand@@ 24275
Chemical 24275
droite 24274
Universal 24273
automatiquement 24266
PMA 24258
MP 24254
program@@ 24249
fighting 24245
deployed 24242
opposed 24241
motor 24239
intends 24238
17,@@ 24235
complémentaire 24235
introducing 24233
Statements 24228
Overall 24226
Dialogue 24220
École 24218
légèrement 24213
MONUC 24212
penalties 24209
² 24209
quantitative 24207
houses 24205
annulation 24203
indicator 24199
10,000 24190
Tim@@ 24189
adap@@ 24186
H.E. 24182
ented 24181
5,000 24175
shape 24174
familial 24172
Refugees 24170
preparatory 24162
genuine 24161
red@@ 24161
accumul@@ 24161
Overview 24158
1,5 24153
&apos;ve 24148
custody 24142
acquire 24141
atively 24139
Corps 24139
moteurs 24138
Malaysia 24135
contributes 24128
Montenegro 24124
Deuxièmement 24120
AIN@@ 24119
ideal 24116
précisions 24113
appuyant 24111
feed 24108
ministerial 24103
formations 24093
profondeur 24089
Sa@@ 24085
2,000 24082
DNA 24070
supplied 24068
vin 24068
kinds 24067
ino 24066
pénales 24064
installed 24061
adop@@ 24059
nie 24058
add@@ 24054
Call 24054
80@@ 24053
génie 24053
registres 24052
notify 24047
Best 24047
fonctionne 24038
vast 24034
Mozambique 24030
précédents 24026
Darfour 24024
116 24022
Between 24020
marking 24016
mauvaise 24016
accounted 24014
ald 24014
liable 24004
hoped 24004
absolument 24002
wind 24000
vendre 23996
réductions 23992
Election 23986
Decides 23986
supplementary 23980
ba 23973
cesse 23970
mL 23967
execution 23965
focuses 23953
vêtements 23949
réels 23947
Macedonia 23944
Ayant 23941
merely 23940
trans 23940
librement 23940
essentially 23938
witnesses 23938
ruling 23929
savons 23927
Export 23924
Slovaquie 23924
sponsored 23921
vaccination 23921
Agri 23913
tolerance 23910
anything 23905
variété 23903
ethics 23902
consulted 23899
street 23893
instauration 23893
preserve 23892
appliquant 23892
individuelles 23889
similaire 23887
ink 23877
couple 23867
anyone 23866
utilis@@ 23862
selling 23856
touchées 23855
concentrer 23854
libér@@ 23852
résulte 23851
abilities 23848
projections 23847
favorise 23845
déposant 23843
sm@@ 23840
revealed 23840
Ps 23839
screen 23839
Medicine 23837
Important 23835
pollu@@ 23833
décrire 23833
fle@@ 23827
mobiliser 23826
greenhouse 23820
contractantes 23819
catalogue 23814
root 23813
chap. 23809
ye 23804
initi@@ 23803
Règles 23803
Partenariat 23800
causé 23795
realization 23794
Valley 23792
interpreted 23789
act@@ 23787
contingent 23785
minimale 23785
ADN 23774
pard 23770
approuve 23770
ceci 23760
Sign@@ 23754
Ur@@ 23746
supplier 23742
laisse 23741
douane 23736
exprimées 23736
yes 23734
Gal@@ 23734
seed 23733
receives 23732
cars 23730
terminer 23729
consistant 23722
investors 23720
GI 23715
indemnités 23711
ministériels 23704
obligatoires 23695
ram@@ 23693
od 23692
denied 23691
roads 23689
VO@@ 23687
connus 23687
suffit 23686
intergouvernemental 23684
ultimately 23681
87@@ 23677
décennie 23677
documented 23675
story 23674
Panama 23672
couche 23671
syndicats 23671
Subcommittee 23667
repas 23666
bénéfice 23666
Viet 23664
fonctionner 23664
excluding 23661
mettra 23661
ero 23653
portefeuille 23651
DD 23647
Inv@@ 23644
stipule 23643
ple@@ 23640
inscrites 23640
Euro 23639
lib@@ 23636
PPE 23632
Return 23632
exportateurs 23632
MI@@ 23627
Comprehensive 23625
Latvia 23624
stupéfiants 23622
Considérant 23621
inst@@ 23620
won 23618
Requirements 23612
2.2.@@ 23612
credits 23611
aut@@ 23609
library 23607
rons 23605
stipul@@ 23596
linguistic 23593
suggéré 23593
FL@@ 23591
constitutionnelle 23590
esp@@ 23589
quota 23576
crée 23576
Points 23573
Prof@@ 23571
confidentialité 23564
progressivement 23561
SG 23560
institutionnel 23558
injection 23556
électriques 23554
ement@@ 23553
perdu 23551
director 23550
achèvement 23550
alisées 23539
possibilities 23538
prendra 23537
responded 23523
suicide 23519
Heads 23517
onnement 23517
Vol@@ 23507
viv@@ 23503
bénéficié 23502
mostly 23500
engagée 23495
kilomètres 23492
fondés 23491
conclus 23486
domain 23481
immédiate 23476
ids 23474
gène 23474
terminal 23472
Processus 23472
viewed 23470
prospérité 23469
thro@@ 23466
prove 23466
lab@@ 23464
Microsoft 23464
ITY 23463
Out@@ 23461
heat 23455
ami 23451
convinced 23444
CA@@ 23443
CRA 23440
écologiques 23440
TA@@ 23436
Swiss 23434
indiquée 23434
Groups 23433
introduit 23433
Reg@@ 23432
retail 23430
placé 23423
loading 23422
contribuable 23420
counselling 23419
Elections 23418
attaque 23416
arbres 23415
Oc@@ 23405
missing 23404
plays 23403
ari 23403
kers 23400
Ir@@ 23398
envergure 23394
NH@@ 23393
Lam@@ 23392
interven@@ 23382
mod@@ 23380
Lacs 23379
découvrir 23372
urbaines 23367
Record 23365
Messieurs 23365
fraude 23356
Mon 23352
arc@@ 23349
versés 23347
nom@@ 23346
tentative 23345
rated 23344
416 23344
tabled 23339
Regina 23326
Travail 23326
awards 23325
mélange 23311
favorisant 23308
itaire 23306
menés 23305
étage 23303
Macédoine 23296
transporteurs 23289
servants 23285
rend@@ 23282
venu 23281
légitime 23279
éventuelles 23274
medicine 23266
recording 23265
Honduras 23262
dies 23261
stands 23259
remedy 23258
harmful 23250
96@@ 23248
stone 23244
renforcé 23243
click 23235
hypothèse 23235
tangible 23234
Photo 23228
upper 23227
coeur 23219
Church 23215
presentations 23214
que@@ 23212
square 23212
saurait 23208
assister 23203
hospitals 23200
Pérou 23199
leg@@ 23198
Pri@@ 23194
reti@@ 23191
114 23182
possèdent 23181
protein 23180
ri 23179
notified 23176
Sites 23172
situées 23167
ratifié 23163
appoint 23158
Text 23158
refuser 23149
occidentale 23146
breach 23145
appréci@@ 23139
envisaged 23136
indicateur 23136
procedural 23128
ills 23124
nommés 23122
joindre 23120
ènes 23116
uk 23111
War@@ 23109
ecosystems 23103
53@@ 23103
Monténégro 23102
disciplinary 23100
FS 23100
117 23093
mains 23091
allégation 23090
Mel@@ 23082
IG@@ 23080
closing 23075
réexamen 23071
utilization 23067
mari@@ 23063
gent 23062
Independent 23061
ench@@ 23058
7.2 23048
journ@@ 23046
ourselves 23042
environnemental 23041
crop 23039
bilingual 23037
intolérance 23033
inj@@ 23031
intent 23028
Consideration 23023
commandant 23016
releases 23014
PT 23012
complexity 23011
différent 23011
adapt 23006
Authorities 23006
powerful 23000
ella 22992
138 22991
Gallery 22987
océans 22987
exchanges 22983
fewer 22982
Conclusion 22981
INFORMATION 22978
ck 22976
Jacques 22975
anis@@ 22973
124 22971
tle 22971
annu@@ 22967
Noting 22960
restructuring 22954
intérieures 22945
autorise 22941
embargo 22940
té@@ 22938
Syn@@ 22937
proceeding 22936
metres 22935
ouv@@ 22931
channel 22926
Workshop 22926
analytical 22925
incapacité 22924
négatifs 22922
Directives 22920
seats 22919
termination 22919
palestinienne 22919
Supplément 22917
Jordan 22911
additionnels 22909
autorisées 22907
evolution 22906
Harbour 22902
none 22900
designation 22900
describes 22900
med 22893
Estonia 22889
aspirations 22888
Movement 22883
temp@@ 22881
cs 22881
pont 22876
uncertainty 22875
aw 22872
ration@@ 22871
nettement 22870
hol@@ 22866
gouverneur 22865
fermement 22864
consistently 22863
Dou@@ 22863
wished 22859
18,@@ 22859
safeguards 22858
marin 22856
generations 22854
tourn@@ 22850
refl@@ 22849
élève 22848
bottom 22845
á 22845
sampling 22841
ore@@ 22841
Representatives 22840
Rou@@ 22840
législatifs 22836
Fish 22835
aggrav@@ 22830
Bre@@ 22830
Maurice 22830
geographic 22828
Thaïlande 22828
obtenues 22828
Mesdames 22826
contenues 22826
begun 22824
ich 22824
suggestion 22821
grandement 22819
posés 22808
Professor 22807
posées 22806
8.2 22803
thi@@ 22798
isolated 22796
6.3 22795
amin@@ 22795
Nigéria 22794
negotiating 22789
reçue 22789
Cape 22787
aidera 22781
innov@@ 22773
Amsterdam 22772
connaissent 22771
tried 22765
Ban@@ 22765
souplesse 22765
gravité 22754
143 22750
poursuivi 22749
atrices 22747
versée 22747
printed 22744
spectrum 22743
monitored 22736
conform@@ 22735
chlor@@ 22732
hôpital 22732
arrival 22730
somewhat 22721
délibérations 22721
Sim@@ 22719
extrême 22717
cargo 22713
eté 22711
visiter 22711
prob@@ 22709
ACT 22707
establishes 22706
issuance 22705
vulnérabilité 22705
journaux 22703
127 22702
subsidies 22695
Using 22695
truly 22692
choices 22689
jeudi 22688
Principes 22686
préservation 22685
exact 22682
mercure 22681
lit@@ 22675
attendant 22671
rant 22668
courants 22667
ik@@ 22665
hautement 22665
appelée 22654
coalition 22652
forment 22651
Singapore 22648
crimin@@ 22645
carriers 22642
adaptés 22636
dessins 22634
Maritime 22631
garçons 22627
speech 22626
Directors 22620
Qui 22610
feront 22610
sponsors 22609
.-@@ 22605
Arctique 22598
604 22594
compétent 22593
vivement 22591
MT 22590
gran@@ 22588
refused 22588
putting 22586
fairly 22583
brings 22582
médiation 22582
discu@@ 22576
isse 22572
organise 22570
hel@@ 22570
n.m. 22563
estiment 22562
compare 22560
garantit 22559
appropriations 22557
fréquemment 22555
fear 22553
licensing 22553
Telecom 22551
organize 22547
fol@@ 22546
otes 22544
organisms 22543
produite 22542
ordered 22532
securities 22528
progression 22526
Ivoire 22519
reconnue 22519
opi@@ 22518
Delegations 22512
RI 22512
proceeds 22510
128 22510
pil@@ 22509
libellé 22508
Actual 22502
idi@@ 22500
c.@@ 22500
boards 22493
defining 22491
diplomatique 22491
noting 22476
transitional 22473
cherche 22470
threshold 22467
député 22466
ef@@ 22463
Gulf 22462
offertes 22460
buy 22459
TRE 22458
driver 22457
professions 22455
recipients 22453
Main@@ 22453
witness 22449
évalu@@ 22449
accuracy 22444
&apos;Ivoire 22441
Johannesburg 22440
118 22439
accepte 22435
lose 22432
chem@@ 22432
Iraqi 22428
provisoires 22428
Pol@@ 22427
typically 22426
rejet 22425
specifications 22424
pro 22423
pratiquement 22422
certificats 22421
net@@ 22416
distribuer 22410
issait 22409
detection 22403
tie 22399
BA 22398
Creek 22395
declined 22393
Design 22392
policiers 22388
club 22385
Cy@@ 22378
Ont 22378
importer 22375
cold 22374
settlements 22371
Armenia 22369
preceding 22369
souci 22368
Proposed 22366
rendent 22363
déterminés 22361
palestiniens 22359
operates 22348
publicly 22347
axés 22344
représenté 22342
médicales 22340
wildlife 22339
prévoyant 22337
ping 22331
satellites 22330
reporter 22325
mes@@ 22320
émanant 22318
New@@ 22315
advances 22313
governed 22310
KO 22309
Micro@@ 22301
ro 22298
superficie 22298
consultatifs 22295
concrets 22294
Grants 22291
skilled 22287
laboratoires 22287
rattach@@ 22284
Airport 22279
constamment 22273
IPC 22272
citoyen 22268
visibles 22264
cycl@@ 22263
MATTER 22261
disparition 22261
allemand 22257
ium 22253
systématiquement 22252
réadaptation 22251
érer 22245
consacrées 22244
desirable 22241
informatiques 22240
teen 22233
segments 22233
quotidienne 22232
perceived 22231
Analyse 22228
absorption 22222
CSA 22222
capables 22222
extérieurs 22214
Rev@@ 22212
eant 22211
écran 22208
1968 22206
amélioré 22206
nutri@@ 22204
suspended 22203
psychological 22203
sexuelles 22202
insolvabilité 22199
looked 22198
amine 22179
Projets 22176
FORM@@ 22159
trees 22158
médi@@ 22156
Es@@ 22155
correspondance 22153
exhaustive 22149
Rouge 22145
religions 22145
ws 22142
biom@@ 22142
Hamilton 22141
protégées 22139
déroul@@ 22135
attache 22134
irait 22131
Men@@ 22125
déci@@ 22124
producteur 22123
kin 22121
requérante 22119
public@@ 22117
forecast 22115
origin@@ 22112
Don@@ 22110
ight 22104
véri@@ 22103
grown 22098
fraction 22098
sh 22095
nécessite 22095
summit 22091
ajustement 22090
occupés 22089
NS 22087
èse 22085
Londres 22085
acted 22082
3rd 22080
rés@@ 22080
132 22079
Ak@@ 22078
Lettonie 22075
64@@ 22074
CONF.@@ 22074
Peacekeeping 22070
constituée 22068
und 22063
Violence 22052
ress 22050
constituted 22048
Monterrey 22048
.html 22043
paying 22039
trice 22037
absolute 22034
phenomenon 22034
bis@@ 22034
Don 22033
Auditor 22032
Bélarus 22028
obvious 22027
désignée 22026
constatations 22023
recher@@ 22013
spatiale 22011
NEPAD 22004
Saudi 22001
Sales 22001
deviennent 22001
ini 21999
manual 21999
initially 21992
Ang@@ 21991
armé 21991
EF@@ 21989
sauvetage 21985
wording 21983
ulaire 21976
electric 21974
urge 21972
refusal 21968
Subsection 21965
resumed 21963
Stephen 21957
fardeau 21955
insulaires 21954
décennies 21950
juvenile 21943
pregnancy 21941
SN@@ 21941
Closed 21936
Sw@@ 21933
eable 21932
illage 21930
OIT 21929
dépasser 21925
West@@ 21920
saying 21916
vot@@ 21913
retained 21905
OS 21903
gratitude 21902
varie 21901
rétro@@ 21901
Reform 21899
sn@@ 21897
HA 21892
Capacity 21892
fas@@ 21890
expanding 21888
incompatible 21888
raw 21888
itr@@ 21883
acides 21881
considerably 21876
déjeuner 21875
ète 21873
litige 21872
fur@@ 21870
aériennes 21859
68@@ 21854
publier 21854
TU@@ 21853
risquent 21853
gaz@@ 21852
cooperative 21851
new@@ 21851
vou@@ 21849
compounds 21847
got 21838
Structure 21838
bancaire 21837
water@@ 21835
navig@@ 21831
idé@@ 21827
Éthiopie 21825
gènes 21825
tat@@ 21816
m2 21811
colonies 21808
slow 21807
characterized 21806
prot@@ 21802
régulier 21793
reflecting 21792
combien 21788
Round 21787
Malaisie 21782
concernée 21782
ÉE 21781
récent 21778
&apos;ll 21777
prê@@ 21773
portés 21767
auc@@ 21766
forêt 21765
Hun@@ 21762
classiques 21762
recueillies 21759
revoir 21755
write 21753
5.4 21753
accueilli 21753
Steering 21747
intensité 21747
Provide 21746
pair 21745
attempts 21741
separation 21739
Interim 21738
wealth 21737
equ@@ 21736
ush 21731
aud 21725
chasse 21725
EG@@ 21724
Estonie 21724
rav@@ 21720
Memorandum 21719
54@@ 21717
troph@@ 21715
calculer 21715
Doc@@ 21706
Mot@@ 21703
banking 21696
pursued 21695
low@@ 21693
UNIDO 21692
vi 21689
index@@ 21686
lacs 21685
placés 21685
extr@@ 21681
advocacy 21677
ITÉ 21676
soumission 21673
Ku@@ 21672
dat@@ 21672
0.5 21670
coherent 21667
vacances 21667
LTD 21667
CN.@@ 21663
identical 21662
crew 21657
biodiversity 21655
autorisations 21655
accise 21648
Cher@@ 21647
measuring 21645
réunir 21645
environments 21642
RSS 21642
épreuve 21641
olo@@ 21640
sanction 21639
meaningful 21637
complementary 21637
recommander 21637
communiquées 21633
occupant 21631
restauration 21628
doter 21626
dig@@ 21621
comfortable 21621
cohérente 21621
native 21619
procurer 21618
projected 21617
long@@ 21615
mil@@ 21615
fixation 21614
finalement 21613
Taux 21610
enables 21604
highlight 21603
edi@@ 21600
deposited 21598
gal@@ 21597
parfaitement 21595
Gas 21594
IV@@ 21594
spend 21588
Frais 21585
Torture 21582
succession 21577
vulnerability 21577
Exhibit 21577
approuvées 21577
Faire 21575
affecté 21569
formula 21567
eradication 21564
déterminées 21562
Register 21558
invest 21556
COR@@ 21556
Funds 21553
multilatéral 21553
Aussi 21548
ura 21547
TES 21545
Leur 21545
sac@@ 21541
Coll@@ 21540
développé 21539
linkages 21536
Full 21532
compli@@ 21530
Legislative 21527
chiff@@ 21525
las@@ 21522
Malta 21521
FOR@@ 21521
satisfactory 21519
RH 21515
mandated 21512
aimerais 21512
laundering 21509
respecte 21507
fermeture 21497
py@@ 21496
tionn@@ 21493
vement 21491
val 21490
arrêter 21490
Priority 21486
Hom@@ 21486
HC 21485
rac@@ 21484
Body 21483
Fre@@ 21482
tun@@ 21480
Series 21475
énergétiques 21467
Procurement 21465
mutuelle 21464
géné@@ 21461
guests 21459
installer 21458
transnational 21457
Offices 21455
tour@@ 21448
platform 21442
entraînement 21436
examining 21434
appuient 21430
intensifier 21428
commit 21426
pourrez 21425
biotechnologie 21424
Hill 21418
imposent 21417
juger 21410
apo@@ 21409
issons 21405
uniform 21394
revient 21394
préparatifs 21390
individuelle 21389
contro@@ 21388
whereby 21386
préalables 21377
immun@@ 21376
fondant 21376
feuille 21371
rapides 21360
commises 21358
stimuler 21357
voient 21355
Paiements 21355
consolider 21351
submits 21350
Due 21346
edge 21342
gained 21341
continental 21336
Station 21331
gratuitement 21326
Regions 21325
accommodate 21325
Governance 21322
Ouganda 21317
skin 21316
crops 21312
feux 21312
manufactured 21310
partial 21308
RPP 21303
Mouvement 21302
pén@@ 21300
attach@@ 21297
appeler 21292
connue 21290
tain 21281
ected 21281
Produits 21281
minister 21277
rising 21274
plur@@ 21274
Pa@@ 21274
touchent 21267
hospit@@ 21264
questionnaires 21263
Directrice 21263
Accounts 21254
pic@@ 21253
délégués 21253
donn@@ 21250
Inuits 21247
Durban 21247
PB@@ 21246
circulated 21243
pêcheurs 21243
Under@@ 21242
inscrite 21239
514 21234
Links 21227
invalidité 21221
prononcer 21219
deals 21215
Registre 21215
retention 21213
Compensation 21211
pain 21209
Accountability 21206
détec@@ 21201
elec@@ 21200
érée 21200
databases 21198
delays 21195
Vol 21191
Palestiniens 21190
Identification 21189
stock@@ 21187
salariés 21185
Pic@@ 21182
tail@@ 21179
Monetary 21179
gg@@ 21179
sphere 21178
CES 21177
Against 21176
informés 21173
fixée 21171
negotiated 21168
precise 21167
diminuer 21166
informel 21165
injuries 21162
Email 21162
sollic@@ 21160
Aff@@ 21159
appropriation 21156
judiciary 21156
revenir 21156
illustr@@ 21153
Practice 21142
département 21142
Str@@ 21135
Notices 21135
stakeholder 21134
additionnel 21134
axées 21130
N&apos; 21128
170 21122
fishery 21119
zero 21116
save 21116
filled 21114
tra 21111
augment@@ 21110
yp@@ 21109
aînés 21108
humanity 21107
Policies 21106
Cap 21106
gagner 21105
four@@ 21103
Fu@@ 21103
Van 21102
â 21097
adéquat 21097
offset 21096
Purpose 21096
5.5 21092
payés 21091
accusé 21091
Officers 21090
proved 21089
Should 21089
alistes 21086
rog@@ 21084
figurer 21081
détermine 21081
TR 21078
forthcoming 21077
133 21077
odi@@ 21071
observateur 21067
commun@@ 21066
oxy@@ 21064
caractères 21063
protocols 21062
store 21059
Contactez 21059
rating 21050
sid@@ 21049
meat 21046
evident 21044
arm 21040
RC@@ 21039
else 21038
males 21036
Saskatoon 21036
Dr@@ 21029
rares 21026
amen@@ 21025
star 21022
Strengthening 21007
reprendre 21003
plo@@ 21001
CAD 21000
Publication 20994
fi 20991
119 20989
Sen@@ 20985
Industries 20983
ires 20981
traditionnelle 20980
activation 20977
grossesse 20977
Som@@ 20971
Albania 20966
Observations 20960
Sainte 20959
demandent 20959
attribuable 20957
Credit 20953
Acc@@ 20953
Secondly 20950
acquit@@ 20947
OU 20945
succ@@ 20944
minors 20943
plani@@ 20941
instituts 20933
envoi 20929
Monaco 20925
automobiles 20921
vertical 20920
ultérieurement 20920
approve 20913
encies 20908
viande 20906
certificates 20905
129 20905
arch@@ 20904
incertitude 20904
enabled 20903
harcèlement 20897
Why 20896
sanitaire 20895
tol@@ 20886
traver@@ 20886
kin@@ 20883
210 20876
vers@@ 20874
refusé 20873
prevalence 20868
NON 20868
IMF 20866
rel 20863
allons 20863
sky 20862
Na@@ 20860
leçons 20860
wages 20859
centaines 20859
PAR 20858
Reduction 20858
mixed 20857
demeur@@ 20853
neighbouring 20849
Premièrement 20842
kes 20841
respectent 20838
canal 20836
marines 20836
1.3.@@ 20834
Request 20833
IAEA 20827
grateful 20822
psych@@ 20822
na@@ 20818
complement 20814
expositions 20811
noti@@ 20810
chloro@@ 20804
Interest 20786
commandement 20784
Jamahiriya 20773
Mark 20772
dia 20771
assemblée 20768
prête 20767
oration 20766
Manual 20765
ads 20762
twice 20761
représentés 20761
Poverty 20757
Quelles 20751
normalisation 20748
réclamation 20748
mercredi 20744
T.@@ 20734
Enforcement 20732
exposées 20732
traduire 20728
UM 20726
Arménie 20725
istic 20723
separately 20723
Hôtel 20720
Ethics 20703
141 20702
Daniel 20702
causing 20696
Terms 20689
enté 20688
situe 20683
ouvertes 20683
20,@@ 20680
acquise 20680
bibliothèques 20677
désigner 20677
plage 20670
constitutionnel 20666
hygiène 20662
détaillés 20662
accessoires 20651
Cancer 20649
ières 20647
ees 20646
Awards 20643
mères 20643
therapy 20639
journalistes 20632
outreach 20629
Libéria 20629
dispar@@ 20627
réguliers 20626
avoirs 20619
packaging 20615
lég@@ 20613
cles 20611
denti@@ 20610
obliged 20608
69@@ 20608
consulting 20603
deficit 20601
complément 20594
Wor@@ 20593
Hal@@ 20584
Recognizing 20583
simplification 20581
Coalition 20581
originally 20580
lock 20578
véritablement 20578
Lib@@ 20575
CEDAW 20573
Info 20573
ater 20568
rencontrer 20564
Click 20563
bancaires 20557
venus 20553
Sénat 20550
boys 20549
Responsible 20548
SK 20546
thématiques 20546
fiscaux 20546
WD 20545
Recommandations 20539
rotation 20536
identiques 20534
Afghan 20532
harmonization 20532
oth@@ 20531
portfolio 20527
bénéficie 20526
beneficial 20524
Acting 20523
rouge 20523
Kh@@ 20522
fou@@ 20517
xénophobie 20517
intermédiaires 20514
din@@ 20513
discretion 20505
aside 20501
Sahara 20501
labelling 20498
ENTS 20495
degradation 20494
négoci@@ 20492
Lim@@ 20488
ecosystem 20487
entrevues 20486
maintains 20482
longues 20479
trav@@ 20477
négocier 20473
demain 20471
Mt 20470
direc@@ 20468
deliberations 20468
mobil@@ 20468
Med@@ 20466
postal 20465
42@@ 20464
pensons 20464
advise 20459
Yet 20458
professeur 20457
combustible 20456
beautiful 20453
aident 20452
ordres 20449
Age 20448
Operating 20446
dirigé 20444
reception 20443
simul@@ 20438
planète 20433
deputy 20432
contractante 20424
packages 20417
échanger 20417
gel 20416
mitigation 20415
avancées 20413
trait@@ 20412
220 20412
ams 20409
qualitative 20408
Effects 20404
érées 20404
recall 20400
DM@@ 20397
liabilities 20396
portes 20396
rie 20393
née 20392
clos 20392
wards 20391
préférence 20389
légale 20387
demographic 20382
ATE 20381
vin@@ 20378
Statistical 20377
ts@@ 20375
Données 20374
iers 20371
Border 20370
purchased 20370
bref 20369
specialists 20367
eration 20367
écarts 20364
institutionnelles 20362
prouver 20362
bad 20351
pin@@ 20351
19,@@ 20351
soulevées 20349
Mots 20344
Tunisia 20343
ene@@ 20340
décrits 20339
posi@@ 20338
causés 20338
lever 20323
79@@ 20322
TING 20322
mardi 20320
cast 20318
onnée 20317
terrains 20315
certi@@ 20313
alo@@ 20312
erc@@ 20311
indices 20311
morph@@ 20310
Der@@ 20308
appliqués 20308
inviter 20307
Présentation 20302
conclu@@ 20298
Regarding 20296
intern@@ 20295
proviennent 20290
permanentes 20288
dixième 20287
achevé 20284
Institution 20281
verify 20280
Water@@ 20280
Real 20277
focal 20276
pass@@ 20276
je@@ 20274
God 20271
faute 20270
È@@ 20268
temporaires 20267
encourageant 20264
voiture 20259
ith 20250
saine 20240
hectares 20239
COMMISSION 20233
tionnelle 20233
957 20232
imprimable 20231
father 20230
manifestation 20227
retrouve 20227
armements 20225
Counsel 20224
ona 20223
agu@@ 20222
ouvrage 20222
Practices 20216
Website 20212
1,2 20204
contractual 20200
commonly 20199
consign@@ 20196
partly 20194
collectives 20194
Master 20193
delivering 20191
departure 20191
mobiles 20189
consulté 20188
volunteers 20184
qualifié 20180
intentions 20177
troupes 20176
ô@@ 20175
ONS 20171
congratulate 20170
1949 20170
beneficiaries 20162
infected 20161
fortes 20161
LDCs 20160
coordonnées 20160
raient 20157
numériques 20154
remarks 20151
instant 20151
contribuera 20151
mercury 20149
Médiateur 20149
Objectif 20148
wishing 20141
Species 20139
establishments 20134
ography 20132
helpful 20132
practitioners 20132
guided 20126
regimes 20125
errors 20125
Nature 20125
circonscription 20124
tabagisme 20115
‰ 20114
particip@@ 20113
assembly 20108
prospects 20107
informe 20106
teront 20106
ward 20103
hearings 20103
quotidien 20102
credibility 20100
synergies 20099
ham 20099
pacifiques 20096
environmentally 20092
Arms 20092
mér@@ 20089
consacrer 20083
foli@@ 20082
902 20081
Dieu 20081
Observer 20079
S.C. 20077
rétablir 20076
bran@@ 20074
spr@@ 20073
préliminaires 20069
cable 20068
calculé 20068
vaccine 20064
whatever 20063
May@@ 20063
agrees 20058
maximal 20051
Nice 20038
pris@@ 20034
surfaces 20034
oth 20033
basé 20032
échantillonnage 20032
coherence 20031
garanti 20031
Anti@@ 20030
desc@@ 20028
contenir 20026
chief 20024
fum@@ 20024
CSC 20023
chauffage 20022
convenus 20021
Employees 20018
reconnaissant 20016
Consensus 20013
4. 20012
Disease 20010
riches 20008
pers 20005
trices 20003
walk 20001
communicated 20001
chemins 19998
ayer 19988
réagir 19987
encouragé 19986
157 19984
ush@@ 19983
minimales 19983
Decade 19982
atoires 19981
isent 19981
agisse 19981
minimize 19979
considérant 19979
recognised 19975
spécialisée 19975
edition 19965
FMI 19962
Housing 19960
Operational 19956
Malheureusement 19956
littoral 19952
peer 19949
uri@@ 19945
bour@@ 19941
contaminated 19941
biodiversité 19941
cru@@ 19940
Adop@@ 19938
Fabrication 19938
Scott 19932
Statistiques 19930
Message 19929
immeuble 19929
yn@@ 19926
182 19924
Parti 19924
PO 19923
écrites 19922
azote 19922
qualify 19921
Destination 19921
accueille 19921
entrevue 19919
proud 19918
Areas 19914
Ul@@ 19909
perfect 19907
vies 19903
doté 19901
attract 19897
urbaine 19897
Ecuador 19896
Jan@@ 19896
consist 19895
wine 19894
Ret@@ 19891
126 19890
déposés 19889
promoteur 19889
Registrar 19887
échec 19886
densité 19886
illégale 19884
composée 19883
rejets 19883
motivation 19882
persistent 19879
safeguard 19874
profonde 19872
prop@@ 19869
INE 19869
fixées 19864
iting 19862
cession 19858
séparation 19854
ès 19852
clo@@ 19850
accessibility 19848
alternate 19846
légal 19844
Taliban 19842
assurée 19842
fail 19835
preservation 19832
bibliothèque 19829
adapté 19827
rs 19826
affecter 19824
orateur 19823
tionnel 19821
séparément 19821
harassment 19820
Yugoslav 19819
atti@@ 19818
aquatic 19816
subventionn@@ 19809
realistic 19801
chron@@ 19801
électorales 19801
parks 19800
identifiés 19792
Communautés 19791
billets 19790
entrepreneur 19787
africain 19784
définitif 19784
MHz 19783
varied 19782
175 19782
régul@@ 19779
Sup@@ 19778
zes 19775
représentante 19773
TELUS 19767
Educational 19764
ming 19762
ize 19761
théâtre 19753
baie 19750
contemporary 19749
hébergement 19746
Bir@@ 19744
orienter 19744
ppm 19742
affects 19741
ao 19740
satisfy 19737
partiellement 19737
quantities 19733
1969 19733
eous 19723
3e 19723
marqué 19722
ange 19719
stream 19719
detained 19719
sant 19697
looks 19695
durabilité 19694
Ess@@ 19691
substitution 19690
liber@@ 19689
Bil@@ 19688
beings 19687
correc@@ 19687
Albanie 19687
mo 19684
automatique 19683
Certain 19681
abri 19678
Japanese 19676
dép@@ 19671
devrions 19671
Enterprise 19669
Attorney 19667
ote 19666
assisté 19662
corrections 19661
weekly 19660
alist 19656
uk@@ 19653
lic 19651
manifeste 19647
preferred 19645
élimin@@ 19644
Sil@@ 19642
pourtant 19641
visas 19640
subsistance 19639
bec@@ 19632
reiterated 19631
hot 19624
asking 19619
agrément 19618
isol@@ 19617
sav@@ 19617
repair 19609
criminels 19606
SBSTA 19601
Air@@ 19589
maxim@@ 19579
vastes 19579
ened 19577
complets 19575
composants 19575
couverts 19574
corriger 19574
decides 19571
TN 19565
idéal 19564
ols 19557
Commitments 19554
routière 19553
fiant 19551
appartenance 19550
Tom@@ 19548
terrestre 19545
Sun@@ 19543
MINU@@ 19540
personn@@ 19539
peau 19538
prosperity 19536
textile 19536
Malte 19534
CU@@ 19532
farming 19530
nettoyage 19530
Cat@@ 19524
teenth 19523
nar@@ 19522
spiritu@@ 19522
facilité 19519
repeated 19518
individuel 19517
3.0 19516
organizing 19516
apparition 19514
roots 19513
creative 19513
revi@@ 19513
Costs 19513
protéines 19510
ADR 19507
tirées 19501
José 19487
éth@@ 19487
apportée 19487
136 19486
vocation 19485
électro@@ 19485
produites 19485
Migration 19483
souhaitable 19479
alise 19478
lease 19477
cabinet 19476
législations 19475
dÃ 19474
tiré 19474
Greek 19473
huile 19473
Mad@@ 19463
promotes 19463
Domestic 19463
Discussion 19457
Paraguay 19457
esses 19456
graduate 19456
usées 19456
crédibilité 19456
interdire 19455
Albert 19454
Tobacco 19452
mothers 19448
aps 19443
NPT 19440
migr@@ 19438
magazine 19437
Mail 19433
renforcée 19432
unacceptable 19431
Computer 19431
aches 19429
ón 19428
apparaître 19427
explosifs 19426
Mari@@ 19423
asp@@ 19421
Measurement 19420
Rob@@ 19417
volets 19415
physicians 19412
diligence 19410
tants 19410
perc@@ 19406
21.@@ 19404
ible 19402
multilatérales 19402
rurale 19399
ero@@ 19398
trip 19397
immobiliers 19397
boundaries 19386
Éducation 19386
Singapour 19382
hundred 19380
recyclage 19380
Equality 19379
Facility 19379
icul@@ 19376
sauvegarde 19373
ouvre 19370
minorité 19369
remuneration 19368
carriage 19367
courante 19367
simpli@@ 19365
Outcome 19358
rechercher 19357
électoral 19356
impliquant 19352
esa 19350
willingness 19340
treat 19340
Objectives 19336
normales 19336
missiles 19335
déposées 19329
command@@ 19327
Urban 19326
transmit 19325
24,@@ 19323
mentionner 19321
Marketing 19320
134 19319
happen 19316
Édouard 19316
épargne 19315
proc@@ 19311
rencontres 19311
Vision 19310
formulé 19309
eventually 19308
weak@@ 19306
web@@ 19306
puits 19305
insuffisance 19305
éch@@ 19301
directors 19300
concertation 19297
Tunisie 19297
SOC 19294
ication 19293
ble@@ 19293
Sar@@ 19286
typical 19286
cessé 19285
Sénégal 19284
dois 19283
assurés 19277
élaborés 19276
145 19274
attributable 19266
quitter 19266
gravement 19265
Pap@@ 19261
aille 19261
zer 19260
matique 19257
pharmaceutiques 19255
innocuité 19254
habitation 19250
es.@@ 19248
rencontré 19248
immobilisations 19248
Accès 19245
investigated 19243
evaluating 19242
ball 19238
cerner 19234
exporter 19231
passation 19229
AIEA 19228
inclu@@ 19227
harmon@@ 19218
bin@@ 19217
recognizing 19217
clin@@ 19214
Four 19214
Mark@@ 19212
0,5 19209
graphic 19207
Mary 19207
equi@@ 19201
initiate 19200
DR 19198
conviendrait 19198
échéance 19194
nécess@@ 19189
desired 19187
fumeurs 19187
pine 19180
batt@@ 19179
emploie 19179
mainstreaming 19178
milk 19177
Develop 19173
WG.@@ 19173
Coût 19170
arrested 19169
98@@ 19166
insolvency 19162
terait 19162
procède 19160
écl@@ 19156
aband@@ 19154
Understanding 19148
Sixth 19147
bientôt 19146
Account 19137
mot@@ 19137
Map 19135
restoration 19133
observ@@ 19132
inciter 19132
proven 19131
subs@@ 19131
occurring 19130
turned 19128
density 19128
atique 19127
Gatineau 19127
ación 19126
Unité 19125
sitting 19118
exerçant 19118
2.7 19117
DH 19114
traditionnel 19103
Senegal 19101
constituant 19101
justi@@ 19100
Prairies 19099
Kingston 19096
fau@@ 19094
forestry 19093
Signed 19088
Concerning 19085
II@@ 19083
Ocean 19082
referring 19075
formally 19074
Brown 19073
imprimer 19073
ok 19072
extending 19069
0.1 19066
Gre@@ 19062
abolition 19061
tru@@ 19060
coordonnateur 19060
famous 19059
confi@@ 19054
chap 19053
ret 19052
invent@@ 19048
cab@@ 19047
harmoniser 19046
valuation 19042
Workers 19042
memorandum 19039
Réponse 19036
Unfortunately 19035
prescrit 19034
Six 19032
sus 19029
broadcast 19027
diplôme 19026
lake 19024
Upon 19019
Auditors 19015
ajout 19011
Role 19010
offerte 19007
travailleur 19007
appreciate 19005
reinforce 19002
piece 19000
compilation 19000
Jerusalem 18995
fluctuations 18994
bid 18980
Win@@ 18980
lar@@ 18978
maternité 18977
inputs 18974
VA 18974
profondément 18972
Quels 18972
Mul@@ 18971
ITS 18970
bateau 18969
meta 18966
équipage 18964
aptitude 18963
textiles 18963
israéliennes 18959
dépense 18959
conserve 18957
Cu@@ 18953
amongst 18950
ora 18949
destroyed 18947
yougoslave 18946
females 18942
sodium 18937
63@@ 18929
su 18927
évidemment 18927
causer 18927
nevertheless 18926
Preparatory 18925
Farm 18923
90@@ 18922
scolarité 18914
tot@@ 18913
adaptées 18912
ographic 18907
sie 18906
aur@@ 18900
choisis 18900
proches 18899
objections 18896
Eng@@ 18894
urbains 18894
Category 18893
docs 18889
BE 18880
soir 18876
adhérer 18875
149 18873
décrite 18873
Pu@@ 18872
ished 18868
3.6 18866
judgement 18862
top@@ 18859
lawyers 18859
advancement 18859
originating 18855
apportés 18855
verbale 18852
im 18851
Tra@@ 18848
négatives 18847
habitant 18841
Madagascar 18841
prisonniers 18839
Palais 18837
évaluées 18836
necessity 18835
rédigé 18833
Currently 18829
aquatiques 18828
block 18825
army 18815
croit 18806
Partners 18805
hommage 18801
ministries 18799
ession 18798
vaccins 18798
ONUDI 18794
ailles 18793
outline 18792
liberty 18792
influ@@ 18786
pregnant 18785
tir 18785
deleted 18784
sau@@ 18784
dérogation 18777
probabilité 18777
earned 18776
sugar 18776
modifiés 18775
structured 18772
onnées 18769
itées 18768
APPLICATION 18767
plane 18765
Lou@@ 18764
BI@@ 18764
ROM 18761
ém@@ 18759
intense 18758
opérateurs 18756
sement 18754
conjoints 18750
.pdf 18747
Maria 18736
Entre@@ 18735
attribué 18731
Growth 18724
sommaire 18724
Bush 18723
glace 18721
enregistrées 18716
Nepal 18712
demandant 18709
Grant 18707
Pin@@ 18693
familiar 18690
County 18687
integrating 18679
coopératives 18679
unanimité 18679
dos 18678
gold 18678
commentaire 18676
′ 18676
freely 18671
infr@@ 18668
Ceux 18666
confidentiality 18664
cluster 18663
ho 18659
réaffirmé 18658
Early 18656
élargi 18656
O. 18655
empêche 18653
retombées 18653
fiabilité 18653
attributed 18652
atiques 18644
retenues 18644
bom@@ 18640
TM@@ 18639
découlent 18636
match 18635
score 18633
talks 18631
reconnues 18631
rési@@ 18630
Fon@@ 18626
mineral 18624
doctrine 18623
transférer 18623
MC@@ 18621
correspondants 18618
weak 18615
anne 18613
religieuse 18613
assurent 18610
asser@@ 18609
Den@@ 18604
cents 18603
appendice 18603
soutenue 18602
orient@@ 18600
lait 18600
sélecti@@ 18599
fell 18598
arbitrary 18593
83@@ 18593
prestataires 18592
ouvrages 18589
teri@@ 18584
érant 18582
teacher 18581
acute 18578
Invite 18577
isolation 18576
occidental 18571
Releases 18568
existait 18568
read@@ 18562
salmon 18560
hosted 18560
Quoi 18560
connec@@ 18559
Legislation 18557
adéquates 18555
compose 18552
inc 18552
153 18548
réalis@@ 18548
erated 18546
perdre 18545
155 18544
usagers 18544
ratifier 18543
DANS 18542
FCCC 18541
sé 18539
exporters 18538
autodétermination 18538
liquid 18536
eption 18536
uli@@ 18535
exactitude 18535
GES 18533
comportent 18528
tage 18522
shipping 18518
propagation 18514
waiting 18509
Hague 18507
151 18506
202 18502
handicap 18501
part@@ 18500
Aspects 18498
usines 18491
checks 18489
97@@ 18489
SION 18486
Cop@@ 18485
charbon 18485
implication 18479
cité 18478
distribué 18477
electrical 18476
benz@@ 18476
01@@ 18475
Territorial 18471
originaires 18470
Wing 18469
Organe 18468
flights 18466
amende 18465
literacy 18463
Changes 18460
transnationale 18457
ligh@@ 18455
AW@@ 18453
pace 18452
identifies 18450
eller 18450
tus 18446
discriminatoire 18446
alists 18445
facilit@@ 18445
000@@ 18443
notable 18440
enregistrer 18436
Adobe 18433
137 18429
NAFTA 18428
appris 18426
courantes 18424
çons 18422
parlé 18421
méthodologie 18420
récupération 18420
assistant 18419
spectre 18418
lo 18416
suggère 18416
sauvages 18409
shi@@ 18408
expensive 18405
outputs 18405
ck@@ 18403
rob@@ 18401
TC@@ 18400
chés 18400
Palestinians 18396
fassent 18395
retourn@@ 18393
awa 18391
Speci@@ 18391
roll 18390
190 18389
stored 18388
Exc@@ 18387
versus 18387
Tel@@ 18387
symptômes 18387
juridictions 18386
Lac 18385
84@@ 18381
UNIFEM 18378
comprising 18377
francs 18372
HS 18372
reflètent 18372
142 18371
trou@@ 18367
dera 18362
abouti@@ 18359
optimis@@ 18358
Jan 18355
She@@ 18355
révèle 18355
commodity 18354
créant 18347
versements 18341
wrong 18333
ive 18333
foyer 18330
gare 18330
contribu@@ 18329
360 18329
étal@@ 18328
atin@@ 18321
Communiqué 18318
seniors 18318
Â 18317
&apos;m 18315
happy 18314
plafond 18314
ert 18311
oned 18310
portable 18309
recev@@ 18308
Iceland 18307
sanitation 18304
distincts 18303
hen@@ 18301
000.00 18301
revêt 18300
Appeals 18299
beneficiary 18298
dre 18295
franch@@ 18292
closure 18291
pin 18291
Environ 18290
douze 18288
tent@@ 18287
sif 18286
constructed 18285
alerte 18285
inal 18284
dation 18280
Examples 18277
effor@@ 18277
Étude 18276
6.4 18274
logical 18272
Ou@@ 18267
commencement 18265
sing@@ 18265
Treaties 18264
explicitly 18262
died 18261
cel@@ 18261
landscape 18260
165 18260
accordés 18259
mel@@ 18258
soulign@@ 18257
Lord 18256
76@@ 18253
suspected 18252
tal 18252
tionally 18246
container 18244
thématique 18244
wants 18241
brand 18241
High@@ 18241
Notant 18236
aves 18233
Pourquoi 18231
Economy 18227
foot 18225
efficience 18225
GM 18223
Gas@@ 18222
ech 18220
7.3 18218
CW@@ 18216
visait 18214
tél. 18211
Settlement 18209
démographiques 18209
Town 18207
transformer 18207
acknowledge 18205
aill@@ 18205
suffer 18204
Gra@@ 18199
AIRES 18199
officier 18198
considèrent 18198
flam@@ 18197
orale 18197
Former 18190
subsidiaires 18189
falling 18188
départements 18188
subir 18187
stresses 18186
Bra@@ 18186
exercent 18183
exhibition 18180
ss 18178
indépendamment 18178
likelihood 18175
SBI 18173
rep@@ 18166
0,00 18160
distor@@ 18157
GL@@ 18157
MIN@@ 18156
contacter 18154
oper@@ 18153
Jordanie 18152
Music 18151
burg 18149
usual 18148
LL@@ 18147
8.1 18146
charg@@ 18145
gri@@ 18144
oriental 18144
télécopieur 18142
reactions 18140
OU@@ 18140
injured 18138
témoignage 18137
mol@@ 18135
éco@@ 18135
sortir 18134
justify 18132
routine 18130
completing 18129
salaries 18126
ministérielles 18120
readily 18119
Oil 18118
indirectly 18116
author@@ 18113
formés 18112
Armed 18109
Laboratory 18109
milit@@ 18106
signée 18106
cesser 18103
passée 18103
famili@@ 18092
Employer 18092
dispens@@ 18084
sécuritaire 18082
Cour@@ 18080
UC@@ 18072
leaves 18071
valable 18070
décisionnel 18069
aéroports 18068
Décisions 18068
Aperçu 18067
procureur 18066
perpetrators 18057
Jusqu&apos; 18053
feasibility 18050
Lastly 18045
arbitration 18040
circul@@ 18036
ony 18036
efficiently 18035
frequent 18035
elderly 18035
analogues 18032
municipalité 18032
by@@ 18030
England 18029
iso@@ 18028
reaffirmed 18028
Encourage 18028
submitting 18026
Racial 18025
strictly 18021
Front 18015
grains 18015
associer 18015
righ@@ 18014
placer 18013
implic@@ 18005
rassembl@@ 18005
francophone 18004
Five 18002
oy@@ 17999
ules 17998
disciplinaires 17997
ening 17996
parallèle 17994
clubs 17993
Band 17993
Tanzania 17992
physician 17991
enregistrée 17990
coordonnée 17990
faisaient 17989
formulée 17984
mediation 17982
pieds 17981
ultimate 17980
financées 17979
pieces 17976
politics 17975
tieth 17972
exploitants 17967
déterminant 17967
examinera 17963
infirmières 17961
exported 17959
déclarés 17957
arity 17954
Far@@ 17954
Woods 17954
iller 17953
découverte 17953
publish 17950
chaired 17949
confirme 17947
152 17946
furent 17946
Online 17945
Vari@@ 17945
1.7 17942
Bat@@ 17942
oppos@@ 17942
formulated 17939
gratuit 17938
II.@@ 17936
complètes 17936
stig@@ 17929
height 17928
condamné 17926
prévision 17925
encouragement 17924
orial 17924
PAC 17923
exprime 17922
Croix 17921
souches 17921
vendeur 17915
fuels 17913
threatened 17912
breeding 17911
TEN@@ 17911
expresses 17907
unemployed 17906
exemptions 17906
MP@@ 17904
indispensables 17903
graphie 17899
infectieuses 17899
count 17898
négative 17898
aria 17896
sais 17891
démontre 17883
ANNEXE 17881
nier 17880
ARD 17879
restreint 17878
vite 17876
ren 17875
RR@@ 17874
ching 17873
precisely 17870
306 17869
obtenue 17869
expédition 17868
grades 17866
excellente 17865
affectées 17863
arité 17857
Leader 17854
legisl@@ 17853
Direct 17849
démographique 17848
intergouvernementale 17847
demandée 17845
McGill 17844
ison 17843
Lab@@ 17843
Biological 17841
realized 17841
structurels 17840
venues 17823
lakes 17821
cumulative 17819
Claude 17815
encountered 17813
Prend 17813
166 17812
biotechnology 17812
corrective 17806
230 17806
tenter 17802
Sho@@ 17798
Australian 17794
résidus 17793
éventuel 17791
inflig@@ 17789
Freedom 17788
Aid 17784
ately 17783
OHCHR 17781
administering 17779
00.00 17779
Bar 17770
Digital 17767
citer 17762
avenue 17755
Mol@@ 17753
déduction 17749
law@@ 17748
comptent 17746
146 17743
riche 17743
impartial 17742
combustibles 17742
arrived 17736
organis@@ 17736
unity 17734
G.@@ 17734
Benefit 17728
impunité 17727
acheteur 17725
131 17724
loisirs 17722
intégrale 17719
aig@@ 17714
Réserve 17713
Opinion 17710
anch@@ 17709
Book 17709
enormous 17706
mont 17704
lique 17702
calibre 17700
retenu 17698
rad@@ 17696
explication 17695
path@@ 17694
graphiques 17692
attending 17689
visibilité 17689
optimal 17687
1961 17685
négatif 17684
guère 17684
cataly@@ 17679
occasi@@ 17677
Guerre 17677
Organ@@ 17676
Diversity 17676
améliorée 17676
dent 17673
vit 17673
claires 17672
incluent 17666
damages 17665
allowances 17663
OP 17663
uranium 17661
souhaitez 17661
Issue 17660
7.5 17658
avo@@ 17657
restore 17653
ête 17653
intimé 17653
minoritaires 17652
tement 17651
licensed 17649
passing 17648
comparables 17648
précieux 17646
duplication 17644
ultérieure 17644
presenting 17642
déroulement 17642
chaleur 17640
Institutes 17638
tory 17637
mers 17635
IES 17633
W.@@ 17630
élevage 17628
indépendantes 17627
marquée 17626
aya 17623
bargaining 17622
criterion 17621
courage 17620
respecté 17619
ament 17618
metals 17616
impunity 17616
stories 17610
gone 17608
gy@@ 17606
Who 17605
6.5 17605
amor@@ 17603
Cinquante 17601
lived 17598
Does 17597
chant 17596
ave@@ 17590
profondes 17590
initialement 17589
ective 17582
Sixty 17581
voulues 17581
classés 17580
cérémonie 17577
insul@@ 17576
reliés 17576
coun@@ 17574
theory 17573
enceintes 17573
couvert 17571
139 17569
gases 17568
facto 17567
sens@@ 17567
arme 17567
employ@@ 17565
varient 17564
automatic 17563
protective 17561
stu@@ 17558
XX 17558
précoce 17558
Swedish 17557
developmental 17555
Native 17555
breakfast 17555
adjacent 17546
Islande 17543
Licensee 17540
ONAL 17537
0.2 17536
Quelques 17535
énumérés 17534
pressures 17533
View 17532
dismissed 17530
Add.2 17529
MIS@@ 17527
Companies 17522
speaker 17519
creates 17515
GH@@ 17515
crip@@ 17514
travelling 17503
los 17502
drew 17500
exercised 17498
sexuel 17498
reb@@ 17496
Renforcement 17495
usement 17494
Arabie 17491
sectorielles 17489
Not@@ 17488
ord 17486
Contr@@ 17481
alty 17480
interference 17474
Film 17474
rh@@ 17466
hau@@ 17465
Conflict 17465
entreposage 17465
brochure 17462
prévalence 17461
indirectement 17460
existed 17458
226 17458
humans 17457
census 17457
coefficient 17456
council 17454
contractor 17454
prom@@ 17451
voitures 17450
Waste 17449
Armée 17447
Mountain 17445
municipales 17443
Indicators 17442
trains 17442
Cur@@ 17441
EMENTS 17438
dég@@ 17433
érique 17433
évalués 17433
server 17429
Francophone 17429
coup@@ 17426
defines 17425
inégalités 17425
CB 17423
Events 17421
rece@@ 17421
Utilisation 17420
prudence 17419
DU@@ 17419
intend 17417
delegates 17416
additionnelles 17416
étudiant 17414
Pre 17410
Light 17409
chauff@@ 17408
Haye 17406
viser 17406
Citizenship 17404
chaînes 17399
NA@@ 17396
surveill@@ 17396
foundations 17394
ops 17389
abo@@ 17386
planifier 17386
diabète 17383
routier 17382
cip@@ 17379
conviennent 17375
Devis 17371
fleet 17370
asser 17370
plac@@ 17370
cle@@ 17365
Welcomes 17365
Équateur 17365
drivers 17363
shore 17361
Camp@@ 17361
Jérusalem 17361
demandés 17361
remember 17358
plomb 17356
terrorists 17355
spécifications 17354
météorologiques 17354
Contexte 17353
demeurer 17353
TN@@ 17351
Up 17349
symbol 17347
supplement 17347
rique 17347
differ 17344
entitlement 17344
Lieu 17341
Notification 17341
rendered 17340
Prior 17339
forts 17339
tou@@ 17337
agement 17337
Laurier 17333
institutionnelle 17332
Togo 17325
quez 17325
distinctes 17324
espaces 17323
moments 17320
testimony 17320
Leadership 17319
fur 17318
étiquette 17315
OT@@ 17312
enregistrements 17309
fe 17307
légitimes 17307
Census 17304
ors@@ 17303
Partnerships 17303
tree 17296
Expenses 17293
Amendments 17290
Interior 17290
théorie 17287
correspondence 17284
games 17282
signification 17274
sentences 17273
C.P. 17272
collectif 17271
Eurostat 17265
BP 17264
Lin@@ 17264
FA@@ 17260
cide 17259
retards 17257
enquêter 17255
honor@@ 17254
néglig@@ 17251
mic@@ 17247
gras 17245
symptoms 17244
Kin@@ 17243
28.@@ 17243
measurements 17242
144 17241
UR 17240
169 17236
permanence 17236
Arabia 17234
efforce 17234
immeubles 17233
redevances 17232
All@@ 17231
oppose 17230
detected 17230
bulk 17229
Nat@@ 17228
gene 17228
exploitant 17228
intervenant 17225
predic@@ 17224
restrictive 17223
priv@@ 17217
spécialiste 17217
realize 17216
trouvant 17214
stes 17213
Fr 17211
vérité 17210
4th 17210
eve 17207
touristique 17207
Shi@@ 17201
Quelle 17200
continuité 17199
valide 17198
prononcé 17197
olu@@ 17196
ali 17194
Lebanese 17193
quar@@ 17193
01.@@ 17192
COMM@@ 17192
Îles 17185
satisfaisante 17185
announcement 17183
Decree 17183
mén@@ 17183
akes 17182
féminine 17182
Pay 17181
confrontés 17181
ATS 17180
hem@@ 17178
mique 17178
toxicité 17177
dépend@@ 17175
Nu@@ 17173
intolerance 17172
0.0 17172
debates 17171
225 17169
aut 17167
Update 17167
Ly@@ 17164
Canadien 17164
Dutch 17163
tours 17159
délivré 17159
signalés 17158
gathering 17157
enter@@ 17157
constituait 17150
dri@@ 17148
syrienne 17147
270 17146
réputation 17146
virtue 17144
ther 17144
Cambodia 17143
generating 17139
Pel@@ 17137
SB 17137
couleurs 17135
smoke 17134
isted 17132
eted 17130
fashion 17130
quelqu&apos; 17129
Sin@@ 17125
ocean 17122
mini 17111
Old 17109
LS 17107
pursuing 17101
restitution 17096
CANADIAN 17096
contractant 17096
solve 17095
excédent 17095
toxicity 17093
hex@@ 17086
Television 17085
Procedures 17083
ACE 17080
Agent 17080
liquide 17080
invites 17078
appro@@ 17078
habil@@ 17078
explications 17076
ordin@@ 17074
agression 17074
careful 17066
Ê@@ 17064
sequence 17061
Signé 17061
lan@@ 17060
fient 17056
piles 17054
avancée 17053
vérificateur 17052
guer 17050
NAICS 17047
nommer 17047
declarations 17044
chapitres 17043
DA@@ 17038
Assurance 17037
prevented 17036
spécialisé 17036
highlights 17031
Guidance 17027
aéronef 17025
appropriately 17024
stein 17022
récolte 17020
reconnaissent 17020
inhumains 17020
window 17017
plain 17016
1.8 17016
consultez 17016
portait 17015
minière 17015
immigrant 17013
ust 17012
Ow@@ 17003
temperatures 17002
admi@@ 16999
horaire 16999
découle 16996
classi@@ 16995
cent@@ 16995
loy@@ 16992
mix 16987
tarifaires 16987
Francophonie 16983
The@@ 16982
Historic 16982
235 16980
CTA 16977
whenever 16976
tonne 16974
appr@@ 16974
Normes 16974
Malawi 16973
comprised 16972
drafted 16971
acteur 16970
visiting 16967
motor@@ 16965
emerged 16964
athlètes 16963
containers 16960
29.@@ 16959
correctly 16958
réside 16956
gradually 16943
ico 16942
boissons 16940
Windsor 16939
Botswana 16938
bec 16938
sérieusement 16935
NL 16929
ARY 16929
démarches 16920
margin@@ 16910
distincte 16910
78@@ 16908
24.@@ 16906
Moncton 16905
false 16903
circuit 16900
distingu@@ 16899
facilitated 16898
immédiat 16896
CFC 16895
Communiqués 16895
XXIe 16895
disclosed 16894
Personne 16893
unknown 16891
dépendent 16889
exemp@@ 16887
ologies 16881
rental 16880
attendance 16877
foyers 16876
Niger 16875
experimental 16873
ki@@ 16871
énergies 16869
mutually 16868
POR@@ 16868
partially 16867
Recovery 16866
deur 16866
persu@@ 16864
zy@@ 16863
Acts 16859
accordées 16857
license 16856
25.@@ 16855
Quel 16855
discussing 16853
collecting 16852
morts 16852
ato 16851
civilisations 16850
172 16847
XI 16841
lad@@ 16840
LT 16840
signaux 16838
center 16834
love 16832
mountain 16832
002 16830
exactly 16830
ilité 16827
guest 16826
arbitr@@ 16824
Signature 16823
maternal 16820
ITC 16820
infringement 16819
CIS 16816
tracking 16813
bi 16812
traits 16812
éducatif 16812
240 16811
ue@@ 16809
diver@@ 16808
Montant 16808
feasible 16807
repris 16807
Fonction 16807
h00 16806
rock 16802
thorough 16800
mobilization 16800
existante 16800
asion 16799
certainty 16796
appearance 16796
créanciers 16796
hier 16795
respectives 16794
con 16792
default 16791
chang@@ 16789
cyber@@ 16784
simulation 16783
essayer 16782
signatures 16780
Déc@@ 16780
estimer 16779
sending 16776
indésirables 16774
modalities 16772
tendent 16771
separated 16770
Pass@@ 16768
Academy 16767
fonde 16764
chargement 16763
fri@@ 16762
OC 16760
α 16758
SCIAN 16758
Cir@@ 16755
y.@@ 16751
supportive 16749
isi@@ 16749
tac@@ 16745
branche 16745
ries 16742
SOR 16742
deeply 16740
souscrit 16740
tackle 16736
agré@@ 16736
raisonnablement 16736
favorisent 16734
couples 16729
Décennie 16727
températures 16726
erai 16726
nationally 16725
bail 16725
entré 16724
saumon 16724
itted 16723
envisagé 16723
bid@@ 16720
Chez 16719
télécopie 16718
aboutir 16716
hundreds 16711
entrées 16706
gues 16703
Alzheimer 16700
Facilities 16700
Diversification 16699
placing 16696
verse 16695
efs 16695
observée 16695
vité 16693
stores 16692
cid@@ 16691
révél@@ 16691
enting 16688
patents 16687
CM 16687
itting 16686
controlling 16685
enhancement 16683
Express 16679
gathered 16678
mur 16677
envisagées 16673
englobe 16671
Mackenzie 16669
inquiétude 16669
tank 16667
enci@@ 16667
MD@@ 16666
visibility 16665
itent 16662
publishing 16661
accréditation 16660
tend@@ 16658
physi@@ 16655
Tou@@ 16653
photo@@ 16652
propice 16650
DEO 16650
parl@@ 16649
virtually 16648
tuberculose 16648
finished 16645
sustain 16645
coll 16645
Contacts 16643
profils 16642
côtière 16642
portera 16641
traitant 16641
retenir 16639
exactement 16639
coal 16635
UNOPS 16635
aluminium 16633
Roms 16632
Tanzanie 16632
absolue 16630
construit 16628
contrepartie 16625
HP 16623
ader 16623
transform@@ 16620
merits 16616
Fil@@ 16616
éti@@ 16616
faisons 16616
procur@@ 16615
desquelles 16615
settings 16611
essor 16609
tl@@ 16607
Collège 16606
sucre 16605
expédi@@ 16602
C6 16601
AO 16601
illustre 16598
dégradants 16597
Nos. 16596
Highway 16596
réuni 16595
divorce 16591
réglementations 16591
yield 16589
stating 16589
compatibles 16584
uti@@ 16581
Ki@@ 16581
Mid@@ 16580
reas@@ 16580
déclarée 16575
diplômés 16572
axe 16570
discriminatoires 16569
allegation 16568
catch 16565
Tal@@ 16562
uniform@@ 16560
produces 16559
identifié 16556
CCRA 16553
Sound 16550
eye 16549
rentabilité 16549
Intelligence 16548
Parallèlement 16547
traitée 16544
UNITAR 16543
memory 16542
flexibilité 16540
n.f. 16535
hazards 16534
UNI@@ 16534
asts 16532
pollutants 16530
kilometres 16528
furniture 16527
Réaffirmant 16525
issuing 16521
BY 16521
sensibilité 16517
Concernant 16512
skill 16511
agg@@ 16510
témoigne 16508
jet@@ 16507
oli@@ 16507
stimul@@ 16501
convicted 16501
exécutive 16497
Supplementary 16496
tisme 16495
asks 16494
importés 16493
strike 16492
Taiwan 16492
1951 16491
alliances 16489
alk@@ 16489
oublier 16489
intégralement 16487
précède 16486
zéro 16485
ker@@ 16483
inherent 16482
manifestement 16480
quick 16479
Then 16474
satisfaits 16474
aly@@ 16468
Corporations 16466
dessin 16463
Pay@@ 16460
Vit@@ 16459
emphasize 16459
Principal 16459
ACOA 16458
CFIA 16456
explor@@ 16455
comparer 16455
bilatérales 16455
JU@@ 16454
Proc@@ 16453
unilateral 16449
ec.gc.ca 16445
dium 16442
strictement 16440
devenus 16440
constantly 16439
Tour 16437
Ty@@ 16433
mar 16432
regulate 16431
exercé 16431
tomorrow 16430
uck 16428
Corrections 16427
WO 16424
STR@@ 16422
emprun@@ 16422
Codes 16421
chute 16420
Conduct 16419
hist@@ 16415
wave 16413
anticip@@ 16411
RM@@ 16411
jointe 16410
entrent 16410
League 16409
ken 16407
Marc 16407
ensured 16406
limités 16406
importateur 16406
Departments 16405
economically 16398
ister 16392
confort 16392
Lieutenant 16389
barre 16389
sives 16387
Texte 16387
venue 16385
amener 16381
ventilation 16378
lancée 16378
HRC 16377
cotisation 16374
psychologique 16372
INAC 16372
ñ@@ 16371
commerci@@ 16369
Rail 16368
annexed 16364
emment 16364
wait 16362
QUES 16361
taient 16359
intérieurs 16357
Available 16356
concrète 16353
targeting 16351
respectées 16349
clearance 16345
musées 16338
1950 16336
Compl@@ 16335
fulfilled 16334
Details 16334
156 16332
fellow 16331
itu@@ 16331
accompagné 16330
2.8 16327
mant 16327
légales 16326
asses 16324
journalists 16322
rain 16316
but@@ 16313
aval 16307
pilotage 16307
pipeline 16301
ordination 16301
Sem@@ 16299
designs 16298
insertion 16293
mature 16292
calcium 16292
ros 16290
Primary 16290
quin@@ 16288
Pot@@ 16286
clothing 16280
tar@@ 16279
Niveau 16277
LC 16275
degrees 16273
chart 16273
rempli 16273
pur 16269
jac@@ 16266
prim@@ 16263
régie 16259
Rapporteuse 16258
heavily 16254
ACIA 16253
cap 16248
Excise 16247
Oversight 16247
criminel 16247
ètes 16246
aint 16245
hazard 16245
dissu@@ 16242
parité 16242
Engagements 16242
conditional 16238
connues 16235
Ce@@ 16229
démarrage 16227
originale 16226
mineur 16226
wild 16222
diriger 16222
evening 16219
Penal 16219
Multi@@ 16219
ial 16217
violated 16216
eting 16215
nitrogen 16215
vais 16214
EF 16213
147 16207
Eritrea 16204
UNE 16204
quit@@ 16203
collègue 16201
contractors 16200
consom@@ 16199
comfort 16193
attribuer 16193
withdrawn 16192
régulières 16184
timing 16183
majeurs 16183
incentive 16182
74@@ 16179
poli@@ 16178
actu@@ 16176
Objective 16172
sponsor 16170
ny 16170
discovered 16169
Franc@@ 16167
expose 16166
NA 16166
posée 16166
ician 16162
homo@@ 16162
candidatures 16162
pens@@ 16160
referendum 16159
étoiles 16154
réservé 16154
gouvernemental 16153
énonce 16150
dite 16149
Soixante 16148
205 16147
dant 16142
remarquable 16138
directes 16138
954 16137
donnés 16135
comptable 16135
mentionnée 16135
arisation 16134
relevés 16134
Recent 16130
Students 16130
Arrangement 16130
survenus 16129
bulletins 16123
doctor 16122
capita 16121
suites 16118
Revised 16115
Dor@@ 16113
chroniques 16112
antiterroriste 16111
dérivés 16107
deposits 16106
1966 16106
than@@ 16105
vendus 16104
gies 16100
Ensure 16098
certes 16098
aug@@ 16095
Solutions 16095
191 16093
engag@@ 16090
mentionne 16086
any@@ 16085
sim@@ 16083
induced 16082
pleasure 16081
grew 16080
Have 16079
bourg 16077
mont@@ 16076
antérieurs 16076
compete 16075
concentrated 16075
proposing 16071
profiles 16070
780 16067
Equity 16066
soupç@@ 16065
plu@@ 16062
SIS 16060
ANTS 16060
uniques 16060
Informations 16058
accro@@ 16053
parlements 16048
tern@@ 16046
heating 16046
mang@@ 16045
93@@ 16043
compatibilité 16043
ASE 16042
techn@@ 16038
élargie 16038
entretenir 16036
demonstration 16034
NR@@ 16032
artifici@@ 16031
Vérification 16031
ECA 16029
contrôleur 16029
proj@@ 16028
artistic 16026
fam@@ 16025
VIA 16025
lap@@ 16024
4.6 16023
displayed 16019
officially 16018
arrestation 16018
Poly@@ 16015
Consulting 16012
arbitre 16005
importateurs 16005
Prairie 16003
desquels 16002
tissue 16001
fro@@ 15999
absolutely 15997
sensitivity 15994
continueront 15992
sheets 15989
valued 15988
mées 15988
relèvement 15988
unis 15985
débu@@ 15982
replies 15981
saoudite 15981
Counter 15979
disadvantaged 15978
PB 15978
Maison 15976
demonstrates 15975
warm 15975
lumin@@ 15974
Just 15973
Ev@@ 15970
Fournir 15970
sédiments 15968
ﬁn@@ 15967
■ 15966
invested 15964
0,1 15963
prenne 15962
headed 15961
eliminating 15956
vaut 15955
Vote 15953
vraisemblablement 15952
Actions 15950
Nov@@ 15950
3,5 15948
côtés 15948
Integration 15947
vaccin 15947
vallée 15946
israélien 15946
tissu 15945
defend 15942
403 15942
affordable 15941
abstentions 15939
forming 15939
conn@@ 15938
Opening 15936
déclin 15932
Quatre 15931
talking 15930
outset 15930
organ@@ 15930
Be 15930
époux 15930
humides 15929
ajustements 15927
pluri@@ 15925
téléphonique 15924
accusation 15923
layer 15923
Clinical 15922
shop 15921
condi@@ 15921
employées 15921
ingredients 15916
noir 15916
dual 15915
506 15913
flot@@ 15910
pren@@ 15909
Entente 15908
rup@@ 15907
FDI 15904
withdraw 15903
MES 15899
rig@@ 15893
talent 15892
SF 15888
responsive 15887
ALES 15886
réaffirme 15885
fix@@ 15884
rein@@ 15883
Cameroon 15879
recreational 15875
assumption 15873
bert 15873
holiday 15872
download 15871
génocide 15868
tox@@ 15867
Provisional 15867
reserved 15866
ASS@@ 15863
ingrédients 15862
fixes 15857
gique 15857
Passer 15854
fournira 15854
contaminés 15854
Take 15852
person@@ 15850
devi@@ 15847
key@@ 15844
Ash@@ 15844
Mental 15842
Politiques 15842
intimidation 15837
plasma 15837
pré 15837
minéraux 15836
Budapest 15835
interpré@@ 15835
Kir@@ 15832
pure 15831
Presentation 15828
DVD 15827
adressé 15827
doc@@ 15824
ailed 15822
Stu@@ 15821
rub@@ 15820
fostering 15819
intensity 15818
negotiate 15816
uit 15809
escomptés 15807
examin@@ 15806
deprived 15804
248 15804
162 15803
différend 15802
bet@@ 15800
Actuellement 15800
Cliquez 15799
ambitious 15798
malheureusement 15798
LD 15797
888 15795
rape 15794
conna@@ 15791
coordonnateurs 15789
silence 15788
ello 15788
wheat 15788
1,3 15788
ache 15786
MM 15785
malnutrition 15782
73@@ 15782
1958 15781
contrairement 15781
consult@@ 15778
interruption 15777
pierre 15775
detainees 15771
ow 15771
compil@@ 15765
globales 15765
atis@@ 15763
imposée 15762
aliste 15759
Others 15757
med@@ 15757
Increased 15755
therein 15752
unfair 15750
peur 15748
ental 15743
divul@@ 15740
registry 15740
affirmation 15739
exercises 15737
Christ 15734
.gc.ca. 15734
begins 15732
condamnation 15732
dit@@ 15731
thirds 15730
Net@@ 15729
jam@@ 15728
www.idrc.ca 15727
prière 15726
expiry 15724
translated 15718
recalls 15718
adaptée 15718
sts 15716
denrées 15716
TK 15714
éditeurs 15714
publi@@ 15713
Add 15712
dition 15709
spaces 15707
ea 15704
Bern@@ 15703
reputation 15702
ato@@ 15702
let@@ 15700
Caisse 15700
Wood 15699
opportunité 15699
KS 15697
expressly 15695
latitude 15695
proportions 15692
refund 15692
rive 15691
intermediate 15691
accept@@ 15690
TRAN@@ 15690
tranche 15688
govern@@ 15686
xenophobia 15685
rage 15685
susciter 15684
rebate 15681
raff@@ 15679
Motion 15677
reliability 15674
Ear@@ 15673
CAT 15672
.3 15671
désertification 15670
contest@@ 15669
répertoire 15667
regret 15655
Developed 15654
Bolivia 15649
ense 15645
CRP.@@ 15645
Av@@ 15642
acks 15641
acquisitions 15638
exclus 15637
igh@@ 15634
ails 15631
4.0 15631
189 15629
handle 15628
hopes 15627
noise 15627
Marshall 15626
volunteer 15626
explorer 15625
statute 15623
accomplishments 15621
onto 15619
indic@@ 15617
fa 15616
veux 15615
infantile 15614
ationn@@ 15609
iné@@ 15609
cumul@@ 15606
stipulates 15602
diagnosis 15601
bourse 15600
Skip 15596
computers 15592
Souligne 15592
wife 15591
circum@@ 15589
Johnson 15588
ped 15587
empowerment 15587
anding 15587
néfastes 15587
libraries 15583
tery 15578
O&apos; 15578
inhabitants 15577
athletes 15575
mem@@ 15573
servira 15573
explains 15572
restruc@@ 15570
yourself 15569
venture 15569
Jim 15569
Irish 15568
Puis 15568
dé 15566
Direc@@ 15564
challenging 15563
Népal 15563
Pou@@ 15561
doors 15560
tori@@ 15559
rég@@ 15556
installé 15556
encing 15552
potenti@@ 15550
audition 15546
mutuellement 15544
èrement 15544
réunit 15542
oubli@@ 15541
242 15539
privilégi@@ 15534
influenced 15532
hard@@ 15532
concludes 15530
scop@@ 15528
Mettre 15528
21st 15524
douce 15524
utility 15523
respectant 15517
fragile 15514
qualifiée 15512
Whether 15509
ICA 15507
limiting 15505
unlikely 15502
TH 15500
export@@ 15500
suspect 15499
SA@@ 15498
primes 15496
minis@@ 15495
Guard 15491
annonces 15491
251 15488
seekers 15486
thereto 15486
ron 15485
Respect 15484
vitro 15483
Reaffirming 15483
licenciée 15483
fron@@ 15479
mere 15479
ori 15479
iter@@ 15473
Welfare 15472
References 15472
acceptables 15472
Bruce 15469
ocy@@ 15469
161 15464
ÉR@@ 15463
95@@ 15462
happened 15461
yn 15458
outlines 15457
Stat@@ 15454
Agroalimentaire 15454
détenu 15454
authorised 15453
ener@@ 15453
tait 15452
appelés 15452
Schengen 15446
mémorandum 15446
Establishment 15444
VIS@@ 15441
truth 15439
OD 15437
classique 15437
PRÉ@@ 15436
Star 15435
étend 15434
Jamaica 15432
Cham@@ 15429
AAC 15429
facilite 15428
achi@@ 15427
SECTION 15427
connections 15426
CAP@@ 15426
détient 15419
détérioration 15417
march@@ 15416
fold 15415
Ten@@ 15414
avancé 15413
Djibouti 15412
umb@@ 15411
attractive 15410
short@@ 15409
CAP 15408
maps 15406
Européens 15406
femelles 15404
totally 15403
resort 15402
érés 15402
airement 15401
basse 15399
soutiennent 15398
aisse 15391
disclose 15390
Floor 15384
Preliminary 15381
assimil@@ 15380
wo@@ 15380
Présidence 15380
Uzbekistan 15379
épreuves 15377
autonomy 15375
Tam@@ 15374
couvrant 15374
rements 15373
set@@ 15373
diabetes 15372
faim 15371
hop@@ 15365
onc@@ 15363
seized 15360
retourner 15360
evolving 15359
Sports 15353
énorme 15352
Debian 15351
regroupement 15350
APECA 15350
rat 15348
xy@@ 15348
IO@@ 15346
pupils 15346
annuler 15346
methodologies 15345
assujettis 15345
freight 15343
maintenu 15339
married 15338
mé 15335
destinations 15334
conducteur 15334
congés 15332
OM 15326
creditors 15323
TB@@ 15322
Materials 15320
Re 15319
lawyer 15318
susmentionnées 15318
Employee 15313
dér@@ 15313
attr@@ 15312
Low 15310
richesse 15307
phénomènes 15307
Eco@@ 15306
représent@@ 15306
approfondi 15302
wai@@ 15301
distribu@@ 15298
nul@@ 15298
networking 15295
uvre 15294
exceeded 15291
augmentations 15288
toire 15286
annot@@ 15284
enforced 15281
dilu@@ 15281
struggle 15277
credible 15277
exclure 15273
accompagnée 15268
précédant 15268
delayed 15266
incitation 15265
ek@@ 15264
Comman@@ 15263
Thank 15257
Occupational 15254
distances 15253
exer@@ 15253
insur@@ 15251
EPP 15249
souris 15247
AK@@ 15246
ark 15242
tries 15241
PF 15238
prohibit 15237
Ali@@ 15234
structur@@ 15231
adoptant 15230
nomin@@ 15228
aggregate 15228
enforce 15226
visu@@ 15226
Portuguese 15225
exigé 15224
Evidence 15222
municipaux 15219
transmises 15219
var@@ 15218
Brian 15216
baseline 15215
disparités 15214
épidémie 15211
Making 15210
meur@@ 15209
[...]
